{
  "type": "LSTM",
  "options": {
    "inputSize": 28,
    "inputRange": 28,
    "hiddenLayers": [
      20,
      20
    ],
    "outputSize": 28,
    "decayRate": 0.999,
    "smoothEps": 1e-8,
    "regc": 0.000001,
    "clipval": 5,
    "maxPredictionLength": 100,
    "dataFormatter": {
      "indexTable": {
        "a": 0,
        "d": 1,
        "e": 2,
        "l": 3,
        "h": 4,
        "i": 5,
        "g": 6,
        "n": 7,
        "s": 8,
        "x": 9,
        "r": 10,
        "t": 11,
        "k": 12,
        "j": 13,
        "m": 14,
        "b": 15,
        "c": 16,
        "u": 17,
        "ä": 18,
        "o": 19,
        "f": 20,
        "v": 21,
        "-": 22,
        "y": 23,
        "z": 24,
        "w": 25,
        "p": 26,
        "unrecognized": 27
      },
      "characterTable": {
        "0": "a",
        "1": "d",
        "2": "e",
        "3": "l",
        "4": "h",
        "5": "i",
        "6": "g",
        "7": "n",
        "8": "s",
        "9": "x",
        "10": "r",
        "11": "t",
        "12": "k",
        "13": "j",
        "14": "m",
        "15": "b",
        "16": "c",
        "17": "u",
        "18": "ä",
        "19": "o",
        "20": "f",
        "21": "v",
        "22": "-",
        "23": "y",
        "24": "z",
        "25": "w",
        "26": "p",
        "27": null
      },
      "values": [
        "adelheid",
        "agnes",
        "alexandra",
        "andrea",
        "anette",
        "angela",
        "angelika",
        "anita",
        "anja",
        "anke",
        "anna",
        "anne",
        "annegret",
        "anneliese",
        "annemarie",
        "annett",
        "annette",
        "anni",
        "antje",
        "astrid",
        "barbara",
        "beate",
        "berta",
        "bettina",
        "bianca",
        "birgit",
        "brigitte",
        "britta",
        "brunhilde",
        "bärbel",
        "carmen",
        "carola",
        "charlotte",
        "christa",
        "christel",
        "christiane",
        "christina",
        "christine",
        "claudia",
        "corinna",
        "cornelia",
        "dagmar",
        "daniela",
        "diana",
        "dora",
        "doris",
        "dorothea",
        "dorothee",
        "edeltraud",
        "edith",
        "elena",
        "eleonore",
        "elfriede",
        "elisabeth",
        "elke",
        "ella",
        "ellen",
        "elli",
        "elsa",
        "elsbeth",
        "else",
        "elvira",
        "emma",
        "erika",
        "erna",
        "eva",
        "eva-maria",
        "evelyn",
        "franziska",
        "frieda",
        "gabi",
        "gabriele",
        "gaby",
        "gerda",
        "gerlinde",
        "gertraud",
        "gertrud",
        "gisela",
        "gudrun",
        "hanna",
        "hannelore",
        "hedwig",
        "heide",
        "heidemarie",
        "heidi",
        "heidrun",
        "heike",
        "helene",
        "helga",
        "herta",
        "hilde",
        "hildegard",
        "ida",
        "ilona",
        "ilse",
        "ina",
        "ines",
        "inge",
        "ingeborg",
        "ingrid",
        "irene",
        "irina",
        "iris",
        "irma",
        "irmgard",
        "isolde",
        "jana",
        "johanna",
        "josefine",
        "judith",
        "julia",
        "jutta",
        "karin",
        "karola",
        "katharina",
        "kathrin",
        "katja",
        "katrin",
        "kerstin",
        "kirsten",
        "klara",
        "kornelia",
        "käthe",
        "liane",
        "lieselotte",
        "lisa",
        "liselotte",
        "lore",
        "lotte",
        "luise",
        "lydia",
        "magdalena",
        "manuela",
        "marga",
        "margarete",
        "margit",
        "margot",
        "margret",
        "maria",
        "marianne",
        "marie",
        "marina",
        "marion",
        "marita",
        "marlene",
        "marlies",
        "martha",
        "martina",
        "mathilde",
        "mechthild",
        "melanie",
        "michaela",
        "monika",
        "nadine",
        "nicole",
        "nina",
        "olga",
        "paula",
        "petra",
        "ramona",
        "regina",
        "regine",
        "renate",
        "rita",
        "rosa",
        "rosemarie",
        "roswitha",
        "ruth",
        "sabine",
        "sabrina",
        "sandra",
        "sibylle",
        "sieglinde",
        "sigrid",
        "silke",
        "silvia",
        "simone",
        "sonja",
        "stefanie",
        "stephanie",
        "susanne",
        "sybille",
        "sylvia",
        "tanja",
        "tatjana",
        "thea",
        "therese",
        "theresia",
        "tina",
        "ulrike",
        "ursula",
        "uta",
        "ute",
        "vera",
        "verena",
        "veronika",
        "waltraud",
        "waltraut",
        "wilma",
        "yvonne"
      ],
      "characters": [
        "a",
        "d",
        "e",
        "l",
        "h",
        "i",
        "g",
        "n",
        "s",
        "x",
        "r",
        "t",
        "k",
        "j",
        "m",
        "b",
        "c",
        "u",
        "ä",
        "o",
        "f",
        "v",
        "-",
        "y",
        "z",
        "w",
        "p",
        "unrecognized"
      ],
      "specialIndexes": [
        27
      ]
    },
    "activation": "tanh"
  },
  "trainOpts": {
    "iterations": "10000",
    "errorThresh": "0.04",
    "log": false,
    "logPeriod": 1,
    "learningRate": "0.0001",
    "callbackPeriod": 1,
    "timeout": "Infinity"
  },
  "input": {
    "rows": 29,
    "columns": 28,
    "weights": [
      -0.5705443620681763,
      0.12520793080329895,
      -0.13587956130504608,
      0.004753591027110815,
      -0.5310564041137695,
      -0.3390986919403076,
      -0.027581874281167984,
      -0.5402319431304932,
      -0.08919026702642441,
      0.25854742527008057,
      0.3425949513912201,
      -0.09074466675519943,
      0.1657508909702301,
      -0.23568615317344666,
      0.9421995282173157,
      0.13336443901062012,
      -0.10669863224029541,
      -0.1832536906003952,
      0.4029640257358551,
      0.5682812929153442,
      -0.3912496864795685,
      -0.08240766078233719,
      0.4388916492462158,
      0.46383431553840637,
      -0.3162958025932312,
      -0.3323996365070343,
      -0.3460214138031006,
      -0.20976845920085907,
      0.864231526851654,
      0.7258188724517822,
      0.17288750410079956,
      -0.24945206940174103,
      0.8772485256195068,
      0.3454670310020447,
      -1.3790996074676514,
      0.8412948846817017,
      0.5196303129196167,
      0.48729777336120605,
      0.34488874673843384,
      -1.120082139968872,
      0.41435596346855164,
      0.5182181000709534,
      0.07145656645298004,
      0.21095111966133118,
      0.05150870606303215,
      -0.153853639960289,
      1.9156886339187622,
      0.8151069283485413,
      0.31883522868156433,
      0.27820882201194763,
      -0.580324649810791,
      -0.19530387222766876,
      -0.8890296816825867,
      0.15959201753139496,
      1.0250455141067505,
      0.3178580701351166,
      -1.804282307624817,
      2.132932662963867,
      -0.1390133500099182,
      -1.3676742315292358,
      -0.7113772630691528,
      0.7703832983970642,
      -0.11925774067640305,
      -1.1772068738937378,
      0.2620140016078949,
      0.6945367455482483,
      0.40133628249168396,
      1.3737244606018066,
      -3.093125581741333,
      2.4239912033081055,
      1.2684533596038818,
      1.1683958768844604,
      -2.456218719482422,
      -1.1072235107421875,
      2.2431800365448,
      -0.82770174741745,
      1.200782060623169,
      4.030940055847168,
      -1.1674742698669434,
      -0.849398136138916,
      -0.7032719254493713,
      1.6160987615585327,
      2.573957681655884,
      -1.148926019668579,
      0.3158511519432068,
      -1.6745623350143433,
      -0.5308603048324585,
      1.2303845882415771,
      -0.7077586650848389,
      -0.9792639017105103,
      1.3236700296401978,
      2.033836603164673,
      1.9771851301193237,
      -2.5516815185546875,
      0.14889319241046906,
      -0.04587438702583313,
      0.1458449363708496,
      0.5935637354850769,
      -2.48791241645813,
      -0.8395552635192871,
      -1.2797553539276123,
      0.7528886795043945,
      1.8058687448501587,
      -0.6022383570671082,
      -0.10630711913108826,
      0.7718357443809509,
      -1.4361075162887573,
      0.6295182108879089,
      -1.620052695274353,
      0.4255618453025818,
      -1.9578778743743896,
      1.1433031558990479,
      -2.4288277626037598,
      1.8291059732437134,
      2.2112877368927,
      0.05927044525742531,
      2.1047425270080566,
      0.6319276690483093,
      0.34625327587127686,
      -1.3084259033203125,
      1.96710205078125,
      -0.05248117074370384,
      2.0769991874694824,
      -0.4373440444469452,
      1.6431490182876587,
      -1.0360760688781738,
      -1.8207693099975586,
      3.021247386932373,
      0.9086081981658936,
      -1.1065776348114014,
      2.9372763633728027,
      -1.4043995141983032,
      1.4300693273544312,
      -1.3330427408218384,
      -0.4252232015132904,
      -0.6536687016487122,
      -0.08604343980550766,
      -1.954168677330017,
      2.2965786457061768,
      -2.0327186584472656,
      0.20279373228549957,
      3.5429742336273193,
      -0.4664100110530853,
      0.07353378087282181,
      0.25446659326553345,
      2.8403468132019043,
      0.37034156918525696,
      -0.6107014417648315,
      -1.5101302862167358,
      2.043461561203003,
      1.2130286693572998,
      -0.21383288502693176,
      2.4680368900299072,
      0.37953677773475647,
      1.513028860092163,
      1.9275987148284912,
      1.850043773651123,
      -1.1147159337997437,
      -2.4372570514678955,
      -1.1149362325668335,
      0.28503701090812683,
      0.471645712852478,
      1.095068335533142,
      -1.7779178619384766,
      0.7274278402328491,
      -1.5906370878219604,
      1.3278427124023438,
      -2.460714340209961,
      -0.22304794192314148,
      0.9461196660995483,
      -0.7546191811561584,
      -0.5852466821670532,
      0.05828434228897095,
      -1.0903394222259521,
      1.129475712776184,
      0.3629944324493408,
      3.0020031929016113,
      0.30420801043510437,
      -0.22679615020751953,
      0.32180172204971313,
      3.9578163623809814,
      0.20456023514270782,
      -1.1866943836212158,
      0.5326886177062988,
      -0.27527758479118347,
      0.946959376335144,
      -0.8720899224281311,
      -2.483954906463623,
      0.823779284954071,
      -0.08332428336143494,
      -1.087249755859375,
      -2.1348886489868164,
      0.1081867590546608,
      -1.8402090072631836,
      0.5459046959877014,
      -0.7834401726722717,
      -2.6552278995513916,
      1.5344079732894897,
      1.7565685510635376,
      -3.0048904418945312,
      1.7672123908996582,
      1.9703119993209839,
      0.96522456407547,
      -2.9348175525665283,
      6.751833915710449,
      2.403852939605713,
      -0.019498107954859734,
      0.3659393787384033,
      3.5784096717834473,
      -4.24616813659668,
      -2.7040040493011475,
      0.5232570767402649,
      -0.3592442274093628,
      0.8609028458595276,
      -3.446166753768921,
      -2.0679678916931152,
      3.565946578979492,
      -0.5541855096817017,
      -5.522367477416992,
      1.1050900220870972,
      -3.0866386890411377,
      5.489446640014648,
      2.7363250255584717,
      1.3312591314315796,
      -1.031594157218933,
      -0.18496918678283691,
      -1.2213231325149536,
      0.11347341537475586,
      0.3940548896789551,
      1.0481927394866943,
      -0.06603037565946579,
      0.5470743775367737,
      -0.12130334228277206,
      1.9193358421325684,
      -0.0005211163661442697,
      0.20928581058979034,
      0.2911168038845062,
      0.5394770503044128,
      -1.3688050508499146,
      0.5605541467666626,
      1.06391179561615,
      0.19289059937000275,
      -0.7484301328659058,
      -0.9178627729415894,
      1.1636157035827637,
      -1.663258671760559,
      -0.5493704676628113,
      -0.5851635336875916,
      -0.4447011351585388,
      -1.0879772901535034,
      1.0528322458267212,
      -1.2119958400726318,
      -0.775027334690094,
      1.7538589239120483,
      -2.3182692527770996,
      2.0724940299987793,
      -5.288570880889893,
      1.806196928024292,
      0.8335870504379272,
      0.9366896152496338,
      -0.2871236503124237,
      5.598713397979736,
      -1.2212187051773071,
      -0.6822349429130554,
      0.7308861613273621,
      0.22161854803562164,
      2.1888933181762695,
      3.72147274017334,
      1.3473801612854004,
      -0.08536719530820847,
      -0.44764119386672974,
      -1.9532514810562134,
      1.2331165075302124,
      0.010021071881055832,
      -1.6458896398544312,
      -2.5488052368164062,
      0.8878085613250732,
      -3.091597080230713,
      2.0088255405426025,
      -2.8219051361083984,
      1.2311201095581055,
      -2.358947992324829,
      -2.495105266571045,
      10.86220932006836,
      0.8432992696762085,
      -1.340306043624878,
      5.12812614440918,
      2.290937662124634,
      4.534453392028809,
      -1.5401932001113892,
      -9.162084579467773,
      0.6881030797958374,
      -9.214061737060547,
      0.3000728487968445,
      -0.009168102405965328,
      -4.791318893432617,
      9.386061668395996,
      3.217886209487915,
      5.596362590789795,
      -0.8257001042366028,
      4.931255340576172,
      3.886594295501709,
      4.66290283203125,
      -8.086237907409668,
      -8.151936531066895,
      1.843248724937439,
      9.533528327941895,
      -0.748081624507904,
      3.375300168991089,
      -1.5316554307937622,
      -0.34620392322540283,
      1.7506448030471802,
      -0.3259917199611664,
      -0.6639735102653503,
      0.3939315378665924,
      1.1822079420089722,
      0.5083617568016052,
      -4.418298244476318,
      -0.41808345913887024,
      1.1055412292480469,
      2.9882352352142334,
      1.7503730058670044,
      -3.373901605606079,
      -1.9188483953475952,
      -2.237149953842163,
      1.317832350730896,
      -2.1393189430236816,
      -2.622513771057129,
      1.749176263809204,
      0.5414037108421326,
      -0.9342194199562073,
      -1.0791867971420288,
      -1.200587272644043,
      0.9344598650932312,
      0.5431419610977173,
      0.9885844588279724,
      2.3453590869903564,
      0.9883150458335876,
      -0.5826156735420227,
      0.6169705986976624,
      1.104508399963379,
      1.0746995210647583,
      -1.3504939079284668,
      1.3042510747909546,
      0.2574206292629242,
      -0.4610808491706848,
      0.6134577989578247,
      -1.6468337774276733,
      2.597752094268799,
      0.9881389141082764,
      1.6351730823516846,
      -0.24654151499271393,
      0.3524287939071655,
      1.2206549644470215,
      1.8371624946594238,
      -1.4802802801132202,
      -0.5662557482719421,
      -1.249385118484497,
      -0.6798503398895264,
      -2.2664668560028076,
      -1.2824748754501343,
      2.6767940521240234,
      2.681016206741333,
      -0.5866730809211731,
      -2.515350341796875,
      0.857876718044281,
      -0.45875024795532227,
      -1.1001067161560059,
      0.9538289904594421,
      -1.279138445854187,
      0.5083285570144653,
      -0.4439865052700043,
      0.6575158834457397,
      -0.19755613803863525,
      0.9305052161216736,
      2.141888380050659,
      3.1028711795806885,
      0.4275372624397278,
      0.9439010620117188,
      -0.5614729523658752,
      -0.11445645242929459,
      0.4590507447719574,
      -1.2729085683822632,
      -1.8343535661697388,
      0.4933735728263855,
      1.7803694009780884,
      -1.1346232891082764,
      -2.3653571605682373,
      -0.057208456099033356,
      -1.1411739587783813,
      -1.7022370100021362,
      -3.1986961364746094,
      -0.30699920654296875,
      -3.308659315109253,
      0.17533214390277863,
      0.8693138360977173,
      0.8300201296806335,
      -1.1857653856277466,
      0.48280006647109985,
      1.7719742059707642,
      4.9378228187561035,
      -3.8415727615356445,
      1.8722878694534302,
      0.39338424801826477,
      1.8952924013137817,
      0.9311538934707642,
      -1.5838921070098877,
      -2.3914144039154053,
      -0.9512814879417419,
      1.82278311252594,
      -0.7406385540962219,
      -2.1998374462127686,
      -1.078101634979248,
      2.3432605266571045,
      -2.048758029937744,
      1.6407440900802612,
      -2.9234867095947266,
      1.8572146892547607,
      -4.253528118133545,
      1.3721809387207031,
      -0.4945192039012909,
      -2.407616376876831,
      1.9191330671310425,
      0.3113935589790344,
      2.115196704864502,
      2.509946346282959,
      1.221679925918579,
      0.48190292716026306,
      1.557663917541504,
      -3.7025198936462402,
      0.7857317328453064,
      -1.4518226385116577,
      -5.30855655670166,
      0.7108645439147949,
      0.9101360440254211,
      -2.8890085220336914,
      -2.1094746589660645,
      -2.5892891883850098,
      3.0615477561950684,
      0.5484633445739746,
      -0.6957687735557556,
      3.979285717010498,
      -1.3280837535858154,
      -2.576012134552002,
      -1.8151689767837524,
      3.5303170680999756,
      3.6800460815429688,
      2.4215056896209717,
      -1.3339812755584717,
      5.71013879776001,
      -1.543199062347412,
      -0.12646391987800598,
      -5.278176784515381,
      3.340622901916504,
      -2.3225016593933105,
      0.6547982692718506,
      -3.667344808578491,
      2.992056131362915,
      0.13945768773555756,
      3.1179215908050537,
      1.9866039752960205,
      -0.3402990996837616,
      4.871758460998535,
      1.7266749143600464,
      0.5277403593063354,
      -0.3774086833000183,
      -3.918264389038086,
      0.562926173210144,
      -0.5143473744392395,
      3.73464298248291,
      -0.38461798429489136,
      -2.1689586639404297,
      -0.3282555341720581,
      1.986203670501709,
      0.9676100611686707,
      -1.126451015472412,
      4.876613616943359,
      -1.587159276008606,
      3.3718461990356445,
      3.2085273265838623,
      -1.7343952655792236,
      1.2604198455810547,
      -0.49913957715034485,
      0.928142249584198,
      1.062379240989685,
      -1.2580516338348389,
      0.45338305830955505,
      1.1187187433242798,
      1.1563199758529663,
      -1.7066679000854492,
      0.9534264802932739,
      -1.5684584379196167,
      -4.408785343170166,
      0.852749764919281,
      -3.6931047439575195,
      -0.9631235003471375,
      3.9019999504089355,
      2.880385398864746,
      -2.2250924110412598,
      -2.5703229904174805,
      -1.1675750017166138,
      1.282108187675476,
      -0.8201158046722412,
      -1.432163953781128,
      -0.3669423758983612,
      3.0111114978790283,
      -0.3777632415294647,
      1.2739061117172241,
      1.28299880027771,
      0.9569454193115234,
      -0.8351742625236511,
      1.3627322912216187,
      -1.7596784830093384,
      1.9084866046905518,
      1.4005260467529297,
      0.3325235843658447,
      1.7464262247085571,
      1.6628952026367188,
      0.18820369243621826,
      -2.172328472137451,
      -1.6340296268463135,
      2.654923439025879,
      -1.5648821592330933,
      1.4414620399475098,
      0.15632809698581696,
      -0.7254835367202759,
      1.2843128442764282,
      0.6275303363800049,
      -2.6570897102355957,
      -1.5029293298721313,
      0.09367281198501587,
      3.2079060077667236,
      -3.4853017330169678,
      -0.3074311316013336,
      -0.695731520652771,
      4.3475751876831055,
      5.2095842361450195,
      3.2577946186065674,
      6.261946201324463,
      2.3609557151794434,
      2.4487357139587402,
      2.9707581996917725,
      2.1429283618927,
      0.8307012915611267,
      1.9233564138412476,
      3.5785458087921143,
      -0.11863482743501663,
      0.32038596272468567,
      -2.1175849437713623,
      6.998005390167236,
      1.7640376091003418,
      -4.252275466918945,
      5.132565498352051,
      -0.8166272044181824,
      -6.636072635650635,
      2.5691750049591064,
      0.30320608615875244,
      -4.553291320800781,
      2.4131782054901123,
      1.4268419742584229,
      1.5707179307937622,
      -1.506730556488037,
      -1.3014963865280151,
      1.872701644897461,
      0.04082629457116127,
      -0.8096781969070435,
      0.3949734568595886,
      1.4312832355499268,
      2.015362024307251,
      -0.21795408427715302,
      0.25358131527900696,
      -0.31032243371009827,
      1.4674631357192993,
      0.3912218511104584,
      -1.6390300989151,
      -1.1423044204711914,
      0.42315778136253357,
      2.3746225833892822,
      1.6006947755813599,
      0.24005773663520813,
      -0.8678479790687561,
      1.3818193674087524,
      -1.761145830154419,
      0.5879492163658142,
      -3.792970657348633,
      -0.5778583288192749,
      -2.6206037998199463,
      2.0037734508514404,
      2.4666004180908203,
      -6.92980432510376,
      4.423183441162109,
      3.364213466644287,
      1.5034246444702148,
      -1.396652102470398,
      2.5902085304260254,
      -2.100192070007324,
      4.03908634185791,
      -1.7177761793136597,
      1.2200337648391724,
      -2.06329083442688,
      -8.342768669128418,
      1.8476637601852417,
      8.341612815856934,
      1.1859161853790283,
      -3.7245447635650635,
      0.22000448405742645,
      -5.5005388259887695,
      2.367192268371582,
      1.0395286083221436,
      5.0465006828308105,
      -7.030795574188232,
      0.29541265964508057,
      -4.229001522064209,
      8.38276195526123,
      -5.207183361053467,
      6.771028518676758,
      -2.120725631713867,
      -6.8734025955200195,
      -0.7651244401931763,
      1.049306869506836,
      0.10298091173171997,
      0.8554216623306274,
      -0.5861818790435791,
      -3.7767579555511475,
      0.572002112865448,
      4.302760124206543,
      0.37525007128715515,
      -0.11529646068811417,
      -1.7769572734832764,
      0.4625715911388397,
      0.2670397460460663,
      3.658243417739868,
      1.4813623428344727,
      4.149914741516113,
      -1.4363117218017578,
      -0.824714183807373,
      -0.7128941416740417,
      0.7850861549377441,
      -2.0508873462677,
      1.3233072757720947,
      -3.9303483963012695,
      2.4025089740753174,
      -1.835516333580017,
      -2.74288010597229,
      -3.464402437210083,
      -2.4901976585388184,
      1.1464946269989014,
      -0.7283234596252441,
      -8.085189819335938,
      -6.299442768096924,
      -0.36660975217819214,
      -1.0707075595855713,
      5.643326282501221,
      -12.656983375549316,
      9.057169914245605,
      -0.31544771790504456,
      4.157388687133789,
      8.726265907287598,
      -1.2026677131652832,
      0.4034822881221771,
      -5.78909969329834,
      0.6461359858512878,
      4.545792102813721,
      6.001537322998047,
      -2.5154364109039307,
      3.071152448654175,
      -4.143161296844482,
      5.003339767456055,
      -7.209900379180908,
      -5.063909530639648,
      -7.946220874786377,
      -0.3260268270969391,
      2.2305996417999268,
      -3.9320285320281982,
      0.7568665742874146,
      -3.92386794090271,
      2.4212749004364014,
      -1.0283780097961426,
      -1.5466703176498413,
      -2.4897966384887695,
      1.4701505899429321,
      -2.8516132831573486,
      -1.761480689048767,
      3.393733501434326,
      2.369161367416382,
      0.31827351450920105,
      1.60774827003479,
      3.2598788738250732,
      -2.0775623321533203,
      1.1129485368728638,
      8.105517387390137,
      0.7606501579284668,
      -1.1155421733856201,
      2.3731729984283447,
      -0.39646151661872864,
      0.41372349858283997,
      0.1146538108587265,
      1.6890931129455566,
      -1.8161741495132446,
      -0.1716185361146927,
      11.211588859558105,
      -11.39302921295166,
      3.3712236881256104,
      4.441433906555176,
      1.0242857933044434,
      -6.782077312469482,
      1.1301701068878174,
      -3.199866533279419,
      -3.6331193447113037,
      -1.9149878025054932,
      5.400885105133057,
      -3.0305628776550293,
      -4.117769718170166,
      -5.469904899597168,
      -8.831629753112793,
      3.6713764667510986,
      2.8585734367370605,
      -7.0898118019104,
      8.751501083374023,
      2.950301170349121,
      -4.005154609680176,
      7.581444263458252,
      -0.5261245965957642,
      -10.445679664611816,
      -2.2022688388824463,
      7.5712080001831055,
      6.897975921630859,
      3.707653522491455,
      0.0278644897043705,
      -1.7214906215667725,
      0.2921990156173706,
      0.4864650368690491,
      2.498556613922119,
      -3.7173163890838623,
      -0.6671178936958313,
      0.98330157995224,
      0.7578518390655518,
      -3.4494001865386963,
      1.7302017211914062,
      0.49142879247665405,
      1.3157175779342651,
      -1.7671483755111694,
      -1.1068837642669678,
      5.659084320068359,
      1.6724820137023926,
      1.8020720481872559,
      8.832512855529785,
      -4.044921398162842,
      -3.141310453414917,
      0.9104395508766174,
      -1.837922215461731,
      0.31798893213272095,
      -0.8009138703346252,
      -1.8312389850616455,
      1.152362585067749,
      -1.5225858688354492,
      0.5435450077056885,
      2.267359972000122,
      1.520210862159729,
      3.3019802570343018,
      2.507477283477783,
      0.4426361620426178,
      1.3217694759368896,
      -1.4137837886810303,
      3.189364433288574,
      -3.6996586322784424,
      4.528628826141357,
      -3.24991512298584,
      0.504386842250824,
      3.2796645164489746,
      -1.501686930656433,
      2.7460670471191406,
      0.09279587864875793,
      -5.263357162475586,
      2.7532198429107666,
      -2.0481042861938477,
      2.321986675262451,
      1.9828205108642578,
      -5.20945930480957,
      4.552396297454834,
      1.6894139051437378,
      -5.406990051269531,
      0.5953980088233948,
      4.026182651519775,
      -0.0017191357910633087,
      0.010015458799898624,
      0.004357511643320322,
      0.0005348931881599128,
      -0.005008968990296125,
      0.0019328957423567772,
      -0.001477348618209362,
      0.0014305532677099109,
      0.00995238870382309,
      -0.004466596525162458,
      0.0031977719627320766,
      0.00008254552085418254,
      0.004859212785959244,
      -0.010762552730739117,
      0.0090830959379673,
      0.01049539539963007,
      -0.005249423906207085,
      0.00544823007658124,
      0.0055757188238203526,
      0.004527193494141102,
      0.0003522039914969355,
      -0.002510674763470888,
      0.002144136466085911,
      -0.008953244425356388,
      0.005901050753891468,
      0.0009142943890765309,
      -0.0076803890988230705,
      0.0097645353525877
    ]
  },
  "hiddenLayers": [
    {
      "inputMatrix": {
        "rows": 20,
        "columns": 28,
        "weights": [
          0.15098713338375092,
          0.14688555896282196,
          0.1229020357131958,
          0.2803806662559509,
          0.44955092668533325,
          0.10833527892827988,
          -0.5590006113052368,
          -0.20624612271785736,
          -0.0528278686106205,
          -0.023618293926119804,
          0.009937994182109833,
          0.24652794003486633,
          0.5065056681632996,
          0.06347621977329254,
          -0.17141884565353394,
          -0.3622366189956665,
          -0.383058100938797,
          0.7353220582008362,
          0.27104997634887695,
          -0.26918232440948486,
          0.18388748168945312,
          -0.1515953242778778,
          0.13608647882938385,
          -0.10401342809200287,
          -0.17901328206062317,
          -0.12352347373962402,
          -0.22786103188991547,
          -0.27428939938545227,
          -0.11896593868732452,
          -0.16400833427906036,
          -0.25421616435050964,
          0.13062067329883575,
          -0.11745890974998474,
          0.2125120460987091,
          -0.13518358767032623,
          0.17904187738895416,
          -0.10177001357078552,
          0.07776813209056854,
          -0.1387442946434021,
          -0.2206924557685852,
          -0.024071764200925827,
          -0.11001048237085342,
          -0.0014303302159532905,
          0.0029815188609063625,
          0.2579272985458374,
          0.024896956980228424,
          0.2362651526927948,
          0.03324970602989197,
          -0.06285540759563446,
          -0.1062484160065651,
          -0.09375658631324768,
          0.26954081654548645,
          0.0642649456858635,
          -0.21354460716247559,
          -0.03702041506767273,
          0.2541896402835846,
          0.03238002583384514,
          0.5158501267433167,
          -0.149755597114563,
          0.16847538948059082,
          -0.25420987606048584,
          0.08780775964260101,
          0.12421249598264694,
          0.28743723034858704,
          0.018292205408215523,
          -0.34381160140037537,
          0.4653927683830261,
          0.34505102038383484,
          0.10912693291902542,
          -0.3445805311203003,
          -0.07691602408885956,
          -0.03349383547902107,
          0.2361421287059784,
          0.28859278559684753,
          -0.004102836363017559,
          0.05213414877653122,
          -0.25686347484588623,
          -0.1712774634361267,
          -0.05091241002082825,
          -0.4364453852176666,
          -0.37961462140083313,
          0.0415944941341877,
          0.39774495363235474,
          -0.12825563549995422,
          0.03845157474279404,
          -0.1041562631726265,
          -0.5081382989883423,
          -0.06694932281970978,
          -0.2241198569536209,
          0.24453964829444885,
          0.2024652063846588,
          0.19479618966579437,
          0.1173485592007637,
          -0.36059120297431946,
          -0.005979815032333136,
          0.9216415882110596,
          -0.10073244571685791,
          -0.27599000930786133,
          0.12696091830730438,
          0.4413747489452362,
          -0.04219191148877144,
          -0.10525602847337723,
          0.14631061255931854,
          0.2106887847185135,
          0.39319199323654175,
          0.12542670965194702,
          0.220846027135849,
          0.10636649280786514,
          0.0887468233704567,
          0.1057446151971817,
          -0.11004593223333359,
          0.49788159132003784,
          0.21121735870838165,
          0.42987483739852905,
          -0.049355316907167435,
          0.3853941261768341,
          -0.05506687983870506,
          0.11765564233064651,
          0.15840068459510803,
          0.08808120340108871,
          0.5203933715820312,
          -0.4241017997264862,
          -0.06416106224060059,
          0.0505027212202549,
          -0.06811752915382385,
          -0.337985634803772,
          -0.20481033623218536,
          0.22227518260478973,
          -0.14681677520275116,
          -0.10142906755208969,
          0.11969875544309616,
          0.549186110496521,
          -0.2769794464111328,
          -0.05657540261745453,
          -0.645534098148346,
          0.18679960072040558,
          0.07850880920886993,
          -0.45016002655029297,
          -0.04306090250611305,
          -0.05050955340266228,
          0.20221813023090363,
          -0.19656254351139069,
          -0.5223485231399536,
          0.22155681252479553,
          0.21566890180110931,
          0.02826075255870819,
          0.04892228543758392,
          0.0022015844006091356,
          -0.11501353979110718,
          -0.15475571155548096,
          -0.21001721918582916,
          0.15526852011680603,
          -0.034030891954898834,
          0.30118972063064575,
          -0.029690483585000038,
          0.05080295354127884,
          -0.011636045761406422,
          -0.07578890025615692,
          -0.0834936872124672,
          0.27886441349983215,
          -0.014447559602558613,
          0.20914801955223083,
          -0.5391582250595093,
          0.2171352356672287,
          0.13755013048648834,
          -0.2877886891365051,
          -0.21641314029693604,
          -0.11654827743768692,
          0.09089379757642746,
          -0.15040373802185059,
          -0.1037471815943718,
          0.24792850017547607,
          -0.23746059834957123,
          0.1300586760044098,
          -0.06572871655225754,
          -0.1873856484889984,
          -0.20724138617515564,
          0.0789346843957901,
          0.31753599643707275,
          -0.020949741825461388,
          -0.14015011489391327,
          0.7010871171951294,
          0.09578408300876617,
          -0.11215702444314957,
          -0.17305301129817963,
          -0.22760024666786194,
          0.07626019418239594,
          -0.016371188685297966,
          -0.31524306535720825,
          -0.33830246329307556,
          -0.12026336044073105,
          0.04736319184303284,
          0.5532805919647217,
          0.00012292573228478432,
          0.16862285137176514,
          -0.6908871531486511,
          -0.1393042504787445,
          0.0254433061927557,
          -0.11305899173021317,
          -0.3313705027103424,
          0.04869147762656212,
          -0.16072680056095123,
          0.16177143156528473,
          -0.05930425599217415,
          0.23382237553596497,
          -0.020368244498968124,
          0.24043583869934082,
          0.30282431840896606,
          -0.07049201428890228,
          -0.619059145450592,
          0.1910293996334076,
          0.06635026633739471,
          -0.258880615234375,
          0.26348990201950073,
          0.07401977479457855,
          0.22092945873737335,
          0.06429417431354523,
          -0.032041627913713455,
          -0.380965918302536,
          -0.10902521014213562,
          -0.5340937376022339,
          -0.43539202213287354,
          -0.19251428544521332,
          0.06620318442583084,
          -0.24402189254760742,
          0.29117366671562195,
          -0.04531403258442879,
          -0.09836193919181824,
          -0.03594338521361351,
          -0.24661606550216675,
          0.31031638383865356,
          0.02782752551138401,
          -0.2146645039319992,
          0.10306621342897415,
          0.255896657705307,
          -0.3083554804325104,
          -0.10683497041463852,
          0.11691956222057343,
          0.24915537238121033,
          -0.13131631910800934,
          0.16134582459926605,
          -0.016758354380726814,
          -0.21988870203495026,
          -0.0522165447473526,
          -0.2458869218826294,
          0.03648534044623375,
          0.34599873423576355,
          -0.4038003087043762,
          0.15294237434864044,
          -0.10915875434875488,
          -0.3266623020172119,
          0.09871732443571091,
          -0.08639561384916306,
          -0.34081903100013733,
          -0.24824802577495575,
          0.2162478268146515,
          0.14155668020248413,
          0.4817659556865692,
          0.09086199104785919,
          -0.25375688076019287,
          0.06648336350917816,
          -0.22936947643756866,
          0.056385066360235214,
          0.4060171842575073,
          0.31073349714279175,
          -0.03494724631309509,
          0.04674847796559334,
          -0.06519843637943268,
          -0.2430124431848526,
          -0.03535270690917969,
          -0.1718609780073166,
          0.23793944716453552,
          0.2518046498298645,
          0.4121238589286804,
          -0.16260768473148346,
          0.5304485559463501,
          -0.19605740904808044,
          0.13674412667751312,
          -0.0720025971531868,
          0.01730356365442276,
          -0.38094329833984375,
          -0.053452055901288986,
          0.22845543920993805,
          0.9879988431930542,
          0.0863816887140274,
          0.1281951665878296,
          -0.34616512060165405,
          0.5151070356369019,
          0.27389585971832275,
          -0.47901710867881775,
          0.5324161648750305,
          -0.6034845113754272,
          0.11075752973556519,
          0.8124622702598572,
          0.05778778716921806,
          -0.27457690238952637,
          -0.06849798560142517,
          -0.0930170938372612,
          0.026613254100084305,
          0.8132660984992981,
          0.10577712208032608,
          -0.2710309624671936,
          -0.6190019845962524,
          0.5292708277702332,
          0.06601212173700333,
          -0.2589993178844452,
          -0.08306267857551575,
          -0.21444110572338104,
          0.14877301454544067,
          0.030582299456000328,
          0.10782600194215775,
          0.18579067289829254,
          0.17501680552959442,
          -0.10183531790971756,
          -0.14449991285800934,
          -0.2807858884334564,
          -0.0528133362531662,
          -0.20322299003601074,
          0.27331334352493286,
          0.395883709192276,
          0.03403552994132042,
          0.044255685061216354,
          0.0613289549946785,
          -0.1363273710012436,
          -0.4496074318885803,
          -0.2781573235988617,
          0.25597769021987915,
          -0.29303932189941406,
          0.09636129438877106,
          0.0015106883365660906,
          -0.027773281559348106,
          -0.26552310585975647,
          -0.2292739897966385,
          -0.22332315146923065,
          0.02388687990605831,
          -0.17125405371189117,
          0.2131102979183197,
          -0.23318013548851013,
          0.2068389356136322,
          0.42227986454963684,
          0.13570299744606018,
          -0.43690958619117737,
          -0.3567447364330292,
          0.07050933688879013,
          0.055280204862356186,
          0.2165537327528,
          0.8274285197257996,
          -0.30778491497039795,
          0.03380665183067322,
          0.14025698602199554,
          0.03207281976938248,
          0.4401242733001709,
          -0.035797324031591415,
          -0.2256052941083908,
          -0.04407142847776413,
          0.12305726110935211,
          0.054369088262319565,
          -0.10806301236152649,
          0.0904771089553833,
          -0.060229428112506866,
          -0.18480323255062103,
          -0.32596468925476074,
          0.3844655752182007,
          0.053063858300447464,
          0.012589000165462494,
          0.0017836348852142692,
          -0.7116528153419495,
          -0.05695132538676262,
          -0.08869851380586624,
          -0.26117026805877686,
          0.21545520424842834,
          0.10162573307752609,
          0.14075994491577148,
          -0.10185520350933075,
          0.33209487795829773,
          0.3886413872241974,
          0.10780493915081024,
          0.3467486500740051,
          0.28292667865753174,
          0.34838053584098816,
          -0.7195591330528259,
          0.03682684898376465,
          -0.10508448630571365,
          0.0273874681442976,
          -0.03352934494614601,
          0.12092217057943344,
          0.07041390240192413,
          -0.22444866597652435,
          0.07251930236816406,
          0.1962285339832306,
          0.4642223119735718,
          -0.28592705726623535,
          -0.3410530090332031,
          -0.09111351519823074,
          -0.28091973066329956,
          -0.2744565010070801,
          -0.21846763789653778,
          0.060194071382284164,
          -0.19552169740200043,
          -0.04441554471850395,
          0.4900071918964386,
          0.22600187361240387,
          0.15587764978408813,
          0.003086335025727749,
          0.032050132751464844,
          0.10653902590274811,
          0.028340721502900124,
          0.19674664735794067,
          0.09078037738800049,
          -0.5177979469299316,
          0.13914430141448975,
          0.5267763733863831,
          0.25880658626556396,
          0.501585841178894,
          0.08977443724870682,
          -0.03319034352898598,
          0.07981375604867935,
          0.2198028266429901,
          -0.223393052816391,
          -0.21670478582382202,
          0.05554420128464699,
          -0.2685278058052063,
          -0.2786550521850586,
          0.06097731366753578,
          -0.20470692217350006,
          -0.03034917265176773,
          0.03258441016077995,
          -0.11926990747451782,
          -0.06452479213476181,
          -0.21508947014808655,
          0.4048667550086975,
          0.13851815462112427,
          0.18498779833316803,
          -0.33939775824546814,
          -0.13835850358009338,
          -0.1433054506778717,
          -0.07976821810007095,
          -0.4900028705596924,
          0.051242437213659286,
          0.3367007076740265,
          -0.06599973142147064,
          -0.3244778513908386,
          -0.2366139441728592,
          0.16014553606510162,
          -0.10875880718231201,
          -0.36323800683021545,
          -0.20693951845169067,
          -0.05304039269685745,
          0.1970483362674713,
          0.34458523988723755,
          0.04641402140259743,
          -0.17706599831581116,
          -0.1217641681432724,
          0.014372951351106167,
          -0.04844627156853676,
          0.039374250918626785,
          -0.028622379526495934,
          0.06182694435119629,
          0.6919653415679932,
          -0.06099351495504379,
          0.551534116268158,
          0.24494627118110657,
          0.23824353516101837,
          0.040999095886945724,
          -0.003201339626684785,
          -0.3214391767978668,
          0.06803099066019058,
          0.04902036860585213,
          0.04732343554496765,
          0.03922450914978981,
          -0.11499085277318954,
          -0.14413373172283173,
          0.2266034632921219,
          0.3781508207321167,
          -0.0660790205001831,
          -0.19741655886173248,
          0.2958138883113861,
          0.2205236703157425,
          -0.4092770516872406,
          0.0849313884973526,
          0.32947951555252075,
          0.043567854911088943,
          -0.054840102791786194,
          0.17940114438533783,
          0.005751497577875853,
          -0.12533332407474518,
          -0.039578329771757126,
          0.0863429605960846,
          -0.30456897616386414,
          -0.16647887229919434,
          -0.007838893681764603,
          0.4852951765060425,
          -0.07511795312166214,
          0.307541161775589,
          -0.12355303764343262,
          -0.030806558206677437,
          0.11120868474245071,
          -0.31670618057250977,
          0.11568240821361542,
          -0.5078531503677368,
          0.04658428952097893,
          -0.0640266090631485,
          0.10432370007038116,
          0.23517853021621704,
          -0.042459823191165924,
          -0.27763423323631287,
          -0.20353063941001892,
          -0.11504991352558136,
          0.11798985302448273,
          -0.03194538876414299,
          -0.21706147491931915,
          -0.2593117356300354,
          0.28055140376091003,
          -0.11691892147064209,
          0.08389365673065186,
          -0.45569512248039246,
          0.31416258215904236,
          0.44643697142601013,
          0.23334330320358276,
          0.06414511799812317,
          0.19250579178333282,
          -0.24134039878845215,
          -0.29744672775268555,
          0.08646881580352783,
          0.17078189551830292,
          0.22986765205860138,
          -0.036358755081892014,
          0.31884926557540894,
          0.20805130898952484,
          0.3722776770591736,
          0.13227902352809906,
          -0.13470113277435303,
          -0.2664657235145569,
          0.07318632304668427,
          0.026789460331201553,
          -0.10817041248083115,
          0.013284743763506413,
          -0.3474685549736023,
          -0.16393430531024933,
          -0.006249864585697651,
          -0.19642013311386108,
          -0.22072522342205048,
          0.15107512474060059,
          -0.12558098137378693,
          -0.05657603219151497,
          -0.034966789186000824,
          0.4515695869922638,
          0.07111650705337524,
          0.5056818127632141,
          0.20041599869728088,
          -0.12207797169685364,
          -0.16033527255058289,
          0.00591280497610569,
          -0.07088779658079147,
          0.03715042397379875,
          -0.0160971786826849,
          0.02946152351796627,
          0.16229498386383057,
          0.07718243449926376,
          0.11051809787750244
        ]
      },
      "inputHidden": {
        "rows": 20,
        "columns": 20,
        "weights": [
          0.49441733956336975,
          -0.6317974925041199,
          -0.7978070378303528,
          0.20055575668811798,
          -0.9218147993087769,
          0.3362041711807251,
          0.4179837107658386,
          -0.6717075109481812,
          0.10038131475448608,
          0.646111249923706,
          0.29205048084259033,
          -1.1332018375396729,
          0.3865910768508911,
          -0.14734593033790588,
          0.018170157447457314,
          -0.663508951663971,
          0.20911692082881927,
          -0.8122192025184631,
          0.11699525266885757,
          0.59748774766922,
          -0.8213948011398315,
          0.19858133792877197,
          -0.5930989980697632,
          -0.5067802667617798,
          -0.2171516865491867,
          1.300698161125183,
          0.5436593890190125,
          -0.3798578977584839,
          1.0102038383483887,
          -0.7495893239974976,
          0.4349476099014282,
          0.5758824944496155,
          1.3790457248687744,
          -0.11278589814901352,
          0.35379090905189514,
          -0.42650386691093445,
          0.37454742193222046,
          -0.6144272089004517,
          -0.018243687227368355,
          0.46781307458877563,
          -0.34545260667800903,
          0.42397749423980713,
          -0.9494248032569885,
          0.4377882778644562,
          -0.41070449352264404,
          -0.6241217255592346,
          0.014147091656923294,
          0.4546772837638855,
          0.4896842837333679,
          -0.21054241061210632,
          -0.23811830580234528,
          0.5208999514579773,
          0.9386857748031616,
          -0.48440441489219666,
          -0.3038378953933716,
          0.03248514607548714,
          0.5800055861473083,
          0.40536776185035706,
          0.534063994884491,
          0.40678149461746216,
          0.3841761648654938,
          0.3756738603115082,
          -0.5214182734489441,
          -0.8072748184204102,
          -0.15574972331523895,
          0.5627783536911011,
          0.9464046359062195,
          -0.5688040256500244,
          -0.6462884545326233,
          -0.8570318222045898,
          0.23041807115077972,
          -0.3121770918369293,
          0.6954980492591858,
          0.15459300577640533,
          -0.015637975186109543,
          -0.22378009557724,
          0.5067079067230225,
          0.7538402080535889,
          0.24632498621940613,
          0.012087362818419933,
          0.8510274887084961,
          -0.9427947998046875,
          -0.8930226564407349,
          -0.04811127483844757,
          -1.2584949731826782,
          0.29878517985343933,
          -0.2269754260778427,
          0.679436206817627,
          0.3290630280971527,
          0.9256971478462219,
          0.37113437056541443,
          -0.6941566467285156,
          0.2828313410282135,
          -0.8899591565132141,
          -0.8100360631942749,
          -0.09759227186441422,
          0.3257672190666199,
          -1.080716848373413,
          0.39963260293006897,
          0.5835874080657959,
          -0.2816373109817505,
          0.5734781622886658,
          -1.0983638763427734,
          -0.3853760063648224,
          0.4324144423007965,
          0.30474379658699036,
          1.1203707456588745,
          0.0258327703922987,
          0.366179883480072,
          -1.0675400495529175,
          -0.5128926634788513,
          -0.6133867502212524,
          0.9204967021942139,
          -0.08331231027841568,
          -0.599831759929657,
          -0.11316200345754623,
          0.452242910861969,
          0.12484340369701385,
          0.2981249988079071,
          0.8279529213905334,
          1.0936733484268188,
          0.6538572311401367,
          -1.033008337020874,
          0.20247672498226166,
          0.11284522712230682,
          0.1772754043340683,
          0.17326977849006653,
          -0.4240223169326782,
          -0.1839321106672287,
          -0.9387078285217285,
          -0.6765930652618408,
          -0.976500391960144,
          0.011489578522741795,
          0.3453257977962494,
          -0.4665848910808563,
          -0.46991902589797974,
          -0.3798275887966156,
          0.21091876924037933,
          0.5289942026138306,
          -0.007181029301136732,
          -0.46909216046333313,
          0.06160476803779602,
          -0.10649537295103073,
          0.37624046206474304,
          -0.09445280581712723,
          0.14470714330673218,
          -0.11964795738458633,
          0.03293416649103165,
          0.18445861339569092,
          1.056962251663208,
          -0.18883924186229706,
          -0.1507435441017151,
          0.5195949673652649,
          -0.5920818448066711,
          -0.5224284529685974,
          -0.10947058349847794,
          0.35515785217285156,
          0.22864241898059845,
          1.0006648302078247,
          0.48823022842407227,
          0.11546003818511963,
          0.27779677510261536,
          -0.16188937425613403,
          -0.30372515320777893,
          0.11518552899360657,
          0.16235025227069855,
          -0.25139275193214417,
          -0.6797454953193665,
          -0.5415529608726501,
          0.16030514240264893,
          -0.3845726549625397,
          -0.4787807762622833,
          -0.1386389434337616,
          -0.32167840003967285,
          -0.5869888067245483,
          -0.5932354927062988,
          -0.4493892192840576,
          0.19651615619659424,
          -0.28967174887657166,
          0.24834522604942322,
          -2.292283296585083,
          0.03071019798517227,
          -0.6381345987319946,
          -0.1842924803495407,
          -0.8513498306274414,
          1.0717905759811401,
          0.16069385409355164,
          -0.04024956375360489,
          0.1213199645280838,
          0.06993962824344635,
          -0.06392382830381393,
          0.08886370807886124,
          -0.01674961857497692,
          0.11684296280145645,
          -0.7544913291931152,
          -0.29158133268356323,
          0.0284433513879776,
          -1.5873935222625732,
          -0.3744109570980072,
          -0.2622356414794922,
          -0.5246750116348267,
          0.8531694412231445,
          -0.1429728865623474,
          -0.9737205505371094,
          -1.4755913019180298,
          1.1449767351150513,
          -0.15262411534786224,
          -1.168270468711853,
          -0.34975752234458923,
          -0.45508939027786255,
          -0.460969477891922,
          0.10646848380565643,
          0.38792848587036133,
          -0.3411082327365875,
          -0.7499253153800964,
          -0.15410703420639038,
          0.7600200772285461,
          -0.3661492168903351,
          0.08930898457765579,
          0.09398943185806274,
          -0.22539514303207397,
          1.2842384576797485,
          -0.7124223709106445,
          0.5945929288864136,
          -0.6039772033691406,
          0.3404691219329834,
          0.10654057562351227,
          -0.15499569475650787,
          0.08141686022281647,
          0.14418697357177734,
          0.2756255567073822,
          -1.4123414754867554,
          0.5035864114761353,
          -0.3674503266811371,
          -0.5667263269424438,
          0.026143403723835945,
          0.7829208374023438,
          -0.05116420239210129,
          0.8065667748451233,
          0.37708863615989685,
          0.42304500937461853,
          0.2705133259296417,
          -0.19775480031967163,
          0.04132244735956192,
          -0.26775336265563965,
          0.1568133383989334,
          0.5818230509757996,
          0.4359261989593506,
          0.25412800908088684,
          0.06071093678474426,
          -0.3406375050544739,
          -0.26454147696495056,
          0.5068298578262329,
          0.1172923743724823,
          0.12208343297243118,
          -0.3960641920566559,
          -0.25337129831314087,
          0.10842464864253998,
          0.3680552542209625,
          0.2881169617176056,
          1.9913530349731445,
          0.45549795031547546,
          -0.5346320271492004,
          -0.3301919400691986,
          -0.2624668776988983,
          0.3080498278141022,
          -1.376893401145935,
          -0.12103419005870819,
          -0.1930912733078003,
          -0.8478621244430542,
          -0.4486512243747711,
          -2.0531070232391357,
          1.220048189163208,
          -0.33239614963531494,
          -0.5200836658477783,
          -0.4984123110771179,
          -0.4118732810020447,
          0.9646667838096619,
          0.2057378888130188,
          0.015390587039291859,
          -1.5846630334854126,
          0.14170192182064056,
          -0.14095011353492737,
          -0.14030730724334717,
          0.23643390834331512,
          0.3307800590991974,
          0.4074454605579376,
          -1.0031524896621704,
          0.33561834692955017,
          -1.8658051490783691,
          -0.27475130558013916,
          -0.6669777631759644,
          0.6132414937019348,
          -0.37363573908805847,
          -0.11887601763010025,
          0.13534605503082275,
          -0.7311183214187622,
          0.028592513874173164,
          -0.09147332608699799,
          -0.665046215057373,
          -0.606094241142273,
          0.024672869592905045,
          -0.38200995326042175,
          -0.6914555430412292,
          0.07954835891723633,
          0.0839989185333252,
          1.062379240989685,
          -1.394026279449463,
          1.1581999063491821,
          0.17413800954818726,
          -0.6092630624771118,
          -0.4140424430370331,
          1.1880134344100952,
          -0.3624700605869293,
          -0.4139381945133209,
          -0.2662314176559448,
          0.7628075480461121,
          -1.055530071258545,
          -0.4801286458969116,
          0.6141233444213867,
          0.12066922336816788,
          0.6606645584106445,
          -1.5443928241729736,
          0.3274194300174713,
          -0.6224592924118042,
          -0.32313594222068787,
          0.9712249040603638,
          0.061585232615470886,
          -0.02592754364013672,
          1.0467647314071655,
          -0.554176926612854,
          -1.737133502960205,
          0.05179760232567787,
          0.7549979090690613,
          0.16679875552654266,
          -0.7778509259223938,
          -0.09106462448835373,
          0.07585974037647247,
          -0.10642487555742264,
          0.3782865107059479,
          0.27957096695899963,
          -0.012872487306594849,
          -0.39606568217277527,
          0.2751617729663849,
          -0.2371746152639389,
          0.5160790681838989,
          0.5372281670570374,
          0.10017824172973633,
          0.2576066255569458,
          0.8816262483596802,
          -0.15544715523719788,
          -1.2105295658111572,
          -0.07430894672870636,
          0.23174388706684113,
          -1.2086405754089355,
          0.5425888299942017,
          -0.6151664853096008,
          0.23493358492851257,
          0.18336735665798187,
          0.4854046106338501,
          0.30911993980407715,
          -0.6983277201652527,
          -0.6895359754562378,
          -0.8701856136322021,
          -0.35853901505470276,
          -0.2843192219734192,
          0.9409667253494263,
          -0.028765639290213585,
          0.6493579149246216,
          0.23073376715183258,
          -0.9996929168701172,
          -0.10743051767349243,
          -0.3875230550765991,
          -0.35112372040748596,
          0.0799805223941803,
          -0.7030652761459351,
          1.6344510316848755,
          -1.0164120197296143,
          0.22648851573467255,
          -0.2858125567436218,
          -1.1864674091339111,
          -0.2389070689678192,
          -0.7280008792877197,
          -0.4179023802280426,
          -0.1661657840013504,
          0.040730930864810944,
          -0.22346220910549164,
          0.04213244840502739,
          1.133737325668335,
          0.44936656951904297,
          -0.9134408235549927,
          -0.5348117351531982,
          0.7054519057273865,
          -0.33047181367874146,
          0.03400319814682007,
          1.0088834762573242,
          0.6467071175575256,
          -0.2993738353252411,
          -0.3624095022678375,
          0.06812442094087601
        ]
      },
      "inputBias": {
        "rows": 20,
        "columns": 1,
        "weights": [
          -0.10492216795682907,
          0.639165997505188,
          -0.11980149894952774,
          0.30198022723197937,
          0.051515087485313416,
          -0.0829591229557991,
          1.2282768487930298,
          0.47939541935920715,
          1.3236923217773438,
          0.3048594892024994,
          1.1931332349777222,
          0.11849464476108551,
          0.932054340839386,
          0.2165611982345581,
          0.7114176154136658,
          0.4954736828804016,
          0.7038680911064148,
          -0.048209354281425476,
          0.8281388878822327,
          0.9719234704971313
        ]
      },
      "forgetMatrix": {
        "rows": 20,
        "columns": 28,
        "weights": [
          0.2757914066314697,
          -0.09419102221727371,
          -0.05452153459191322,
          0.12763899564743042,
          0.3455244302749634,
          -0.078484907746315,
          -0.8099031448364258,
          0.2946694493293762,
          -0.45060402154922485,
          0.37317028641700745,
          -0.07719624042510986,
          -0.30089840292930603,
          0.1324271708726883,
          0.33761200308799744,
          -0.07143985480070114,
          0.12284763902425766,
          0.10055713355541229,
          -0.1831805258989334,
          -0.3941143751144409,
          0.05177910625934601,
          -0.17682164907455444,
          -0.07894032448530197,
          0.26513227820396423,
          -0.21812179684638977,
          0.23525802791118622,
          0.2898867428302765,
          0.042127642780542374,
          0.0861358791589737,
          -0.017266009002923965,
          -0.45711538195610046,
          0.03102700226008892,
          -0.1393977403640747,
          -0.2543124258518219,
          0.0068395123817026615,
          -0.07116074860095978,
          0.09436284750699997,
          -0.04325290396809578,
          0.029647409915924072,
          0.19371992349624634,
          -0.04806568846106529,
          -0.23515401780605316,
          -0.20931270718574524,
          -0.21041494607925415,
          0.09509976953268051,
          0.3326767683029175,
          0.1710253804922104,
          -0.1914660781621933,
          -0.03570298105478287,
          0.19700102508068085,
          0.06658626347780228,
          -0.11975482106208801,
          -0.20094887912273407,
          0.07486943155527115,
          0.29296907782554626,
          0.22611042857170105,
          0.3681940734386444,
          0.1803169995546341,
          -0.24625816941261292,
          0.24893730878829956,
          -0.09711519628763199,
          0.22067034244537354,
          0.3082940876483917,
          -0.2465871423482895,
          -0.06939728558063507,
          0.008438131771981716,
          -0.42438045144081116,
          -0.004163649864494801,
          0.07074898481369019,
          -0.1360633671283722,
          0.06358946114778519,
          -0.12982456386089325,
          0.20590725541114807,
          0.3971523940563202,
          -0.16010285913944244,
          -0.04670436680316925,
          0.1329348236322403,
          0.5601178407669067,
          0.24339981377124786,
          -0.11067075282335281,
          -0.007894563488662243,
          0.15268665552139282,
          -0.43340837955474854,
          0.22114017605781555,
          0.09309135377407074,
          -0.0019650799222290516,
          0.24177463352680206,
          0.7329581379890442,
          0.15109360218048096,
          -0.1796945333480835,
          0.5438672304153442,
          0.04518026486039162,
          -0.08148585259914398,
          0.10052288323640823,
          0.005209780763834715,
          -0.17203636467456818,
          -0.7187402844429016,
          0.15236994624137878,
          -0.05033612251281738,
          0.36418405175209045,
          -0.13975025713443756,
          0.5854784846305847,
          0.12476205825805664,
          0.29376161098480225,
          0.4330276548862457,
          0.370432049036026,
          0.19340088963508606,
          -0.31670886278152466,
          0.3036283850669861,
          -0.1672825813293457,
          -0.1474510133266449,
          0.12961547076702118,
          -0.13096073269844055,
          0.1742406040430069,
          -0.12128289043903351,
          0.11207777261734009,
          0.030393365770578384,
          0.2852412760257721,
          -0.06760703027248383,
          0.15451647341251373,
          0.31514811515808105,
          -0.12616418302059174,
          -0.1372767984867096,
          0.2374933958053589,
          -0.15025392174720764,
          -0.46209317445755005,
          0.19284440577030182,
          -0.2267943173646927,
          0.08312200754880905,
          -0.17260579764842987,
          -0.04808635637164116,
          0.011005833745002747,
          0.06404757499694824,
          -0.2644256353378296,
          0.2427053302526474,
          -0.6726434230804443,
          0.41466155648231506,
          0.18880818784236908,
          0.06654226034879684,
          0.060170937329530716,
          -0.2816726863384247,
          -0.13757985830307007,
          -0.04140375554561615,
          -0.2509169280529022,
          -0.1267559677362442,
          0.3404584228992462,
          -0.512955904006958,
          -0.06503625214099884,
          -0.3563585579395294,
          0.16881361603736877,
          0.1711275428533554,
          0.6268997192382812,
          -0.11930444836616516,
          -0.1025533378124237,
          0.515021026134491,
          -0.26758578419685364,
          -0.24301627278327942,
          -0.33281973004341125,
          -0.44943568110466003,
          -0.25745853781700134,
          -0.3120984435081482,
          0.32244378328323364,
          -0.2776176631450653,
          0.6546140909194946,
          -0.22446827590465546,
          0.2971799373626709,
          -0.26899453997612,
          -0.1730959415435791,
          0.03479434549808502,
          0.06002820283174515,
          0.10942996293306351,
          0.09043343365192413,
          -0.1897771656513214,
          0.07304567098617554,
          -0.1224648579955101,
          -0.49496570229530334,
          0.3367263376712799,
          -0.13146845996379852,
          0.15570546686649323,
          0.04384094849228859,
          0.36573243141174316,
          -0.24210579693317413,
          -0.45136111974716187,
          -0.09443362802267075,
          0.5100431442260742,
          -0.04872622713446617,
          0.43218088150024414,
          0.3743826150894165,
          0.05499539524316788,
          0.6060560941696167,
          0.13946925103664398,
          0.033379919826984406,
          -0.42576634883880615,
          -0.2041165828704834,
          -0.04418819025158882,
          0.3476954996585846,
          0.5158807039260864,
          -0.19239656627178192,
          -0.1262955218553543,
          -0.48099303245544434,
          -0.038646891713142395,
          -0.3248104751110077,
          0.33572810888290405,
          0.3705979585647583,
          -0.42172113060951233,
          0.3874710500240326,
          -0.008240758441388607,
          0.25076764822006226,
          -0.379136323928833,
          0.04245312511920929,
          -0.24728848040103912,
          0.5705111622810364,
          0.14773988723754883,
          0.07325104624032974,
          0.050067219883203506,
          0.04951717332005501,
          -0.3084472715854645,
          0.24014003574848175,
          -0.13700880110263824,
          0.6937122941017151,
          -0.12850028276443481,
          0.4784442186355591,
          -0.3969283401966095,
          -0.10118875652551651,
          0.2334827482700348,
          0.19693835079669952,
          -0.23776568472385406,
          0.26894211769104004,
          0.175245463848114,
          0.19009943306446075,
          -0.344192773103714,
          -0.6274438500404358,
          0.36997610330581665,
          0.6747284531593323,
          0.13571710884571075,
          0.05386491119861603,
          -0.13023939728736877,
          0.021810397505760193,
          0.858428418636322,
          -0.2520049810409546,
          0.2503029406070709,
          0.20579750835895538,
          0.11358149349689484,
          0.02013254724442959,
          -0.16895578801631927,
          -0.04250682145357132,
          -0.0802118331193924,
          0.3793054521083832,
          -0.19672058522701263,
          0.2159223109483719,
          0.038173798471689224,
          0.1267492026090622,
          -0.09415619820356369,
          -0.235502228140831,
          0.0589764378964901,
          -0.32716649770736694,
          -0.5804188251495361,
          -0.11395268887281418,
          0.24147354066371918,
          0.10719266533851624,
          0.16019634902477264,
          0.14810115098953247,
          -0.36103299260139465,
          0.06800198554992676,
          0.35918113589286804,
          -0.24735912680625916,
          -0.19159264862537384,
          -0.043942615389823914,
          -0.08703088015317917,
          -0.5327274799346924,
          -0.430059552192688,
          0.5766682028770447,
          0.44032716751098633,
          0.5274012088775635,
          0.3528214991092682,
          -0.1057627871632576,
          -0.09229513257741928,
          0.14837393164634705,
          0.7018515467643738,
          -0.2882925570011139,
          -0.18044838309288025,
          0.09750402718782425,
          0.1739618182182312,
          0.2828367054462433,
          0.5222230553627014,
          0.023334547877311707,
          -0.007207758724689484,
          -0.3745489716529846,
          0.4106713533401489,
          0.31386706233024597,
          -0.20779454708099365,
          0.22843581438064575,
          -0.4820519685745239,
          0.02545858547091484,
          0.08161322772502899,
          -0.029466407373547554,
          0.03926914185285568,
          0.19169574975967407,
          -0.040579378604888916,
          0.2569088637828827,
          0.11091329902410507,
          0.19219863414764404,
          0.18241910636425018,
          -0.22517728805541992,
          0.16957995295524597,
          0.4294702410697937,
          -0.28517046570777893,
          0.31391671299934387,
          0.04475080966949463,
          -0.03398558124899864,
          0.3380279839038849,
          -0.6042272448539734,
          0.1606237292289734,
          0.04950018599629402,
          0.27328765392303467,
          0.3039429783821106,
          0.3738030791282654,
          -0.1972188800573349,
          -0.24325408041477203,
          0.20647482573986053,
          0.047719378024339676,
          -0.011976063251495361,
          0.23788616061210632,
          0.17560647428035736,
          0.18073230981826782,
          -0.13059751689434052,
          0.1291930079460144,
          -0.024901675060391426,
          0.007283574435859919,
          0.4054667055606842,
          0.3454119861125946,
          -0.19661401212215424,
          0.08314216881990433,
          0.18362955749034882,
          0.22467780113220215,
          0.23570166528224945,
          -0.07101015001535416,
          -0.03393413498997688,
          -0.01483046542853117,
          0.08945441991090775,
          -0.26886558532714844,
          0.09410735964775085,
          0.4465010166168213,
          -0.14477387070655823,
          -0.20085836946964264,
          0.3572676479816437,
          -0.2865191102027893,
          -0.4926922917366028,
          0.04736114293336868,
          0.32335567474365234,
          -0.18055425584316254,
          0.061756763607263565,
          -0.05327501893043518,
          0.4090438187122345,
          -0.05848538130521774,
          -0.13975228369235992,
          0.0010349461808800697,
          -0.1304367333650589,
          0.17936788499355316,
          0.03736267611384392,
          0.23965267837047577,
          0.0853397399187088,
          0.3013056814670563,
          -0.4433393180370331,
          -0.11455874890089035,
          -0.24923212826251984,
          0.426491916179657,
          0.4382133185863495,
          0.19196222722530365,
          0.14436332881450653,
          -0.29412177205085754,
          0.1419113129377365,
          0.18100081384181976,
          0.06266449391841888,
          -0.12450728565454483,
          0.023263830691576004,
          0.12585651874542236,
          -0.33729153871536255,
          0.18499134480953217,
          -0.1746753752231598,
          -0.388484925031662,
          0.7918305397033691,
          -0.15654189884662628,
          0.33938995003700256,
          0.3824554681777954,
          -0.18210111558437347,
          -0.14504627883434296,
          -0.15580062568187714,
          -0.034656912088394165,
          0.04298816993832588,
          -0.4560477137565613,
          -0.29296809434890747,
          -0.25751134753227234,
          0.03329692780971527,
          -0.4138067960739136,
          -0.17418183386325836,
          -0.05239662155508995,
          -0.026445288211107254,
          -0.19965238869190216,
          -0.4650527834892273,
          -0.36336395144462585,
          0.13568982481956482,
          0.16423307359218597,
          0.12125194817781448,
          -0.446761816740036,
          0.3524312376976013,
          0.4965851902961731,
          0.2596452236175537,
          0.260882705450058,
          0.36909613013267517,
          0.3749455213546753,
          -0.26514366269111633,
          -0.22143444418907166,
          -0.05276533216238022,
          0.2522927224636078,
          0.10330376029014587,
          -0.10884324461221695,
          0.14397214353084564,
          0.080936498939991,
          0.1394120752811432,
          0.02634066715836525,
          -0.44272381067276,
          0.18553964793682098,
          -0.03502189740538597,
          -0.03107510879635811,
          0.15637771785259247,
          -0.05519981309771538,
          0.3396601676940918,
          0.1850576251745224,
          0.3298472464084625,
          -0.05473754182457924,
          0.015942875295877457,
          0.00809241272509098,
          -0.19012576341629028,
          0.13283154368400574,
          -0.2880672812461853,
          0.14186348021030426,
          0.02355760708451271,
          -0.03597206994891167,
          0.09363054484128952,
          0.07851728796958923,
          0.5867933630943298,
          -0.44321608543395996,
          0.3326537609100342,
          -0.12214574217796326,
          0.07156290858983994,
          -0.09489127993583679,
          -0.1467599868774414,
          -0.01786692813038826,
          0.18250924348831177,
          -0.06342620402574539,
          -0.1997324377298355,
          0.4059223234653473,
          -0.1450122594833374,
          0.4487128257751465,
          -0.1167571097612381,
          0.04194334149360657,
          0.0757044181227684,
          -0.2860039174556732,
          0.24238154292106628,
          0.036049775779247284,
          0.1229151263833046,
          0.3792644143104553,
          -0.059142496436834335,
          0.06020933389663696,
          0.1060020700097084,
          -0.0541740246117115,
          -0.0649201050400734,
          0.1902160346508026,
          -0.38819482922554016,
          0.10936891287565231,
          -0.3458257019519806,
          0.33723050355911255,
          -0.0789775550365448,
          -0.20833368599414825,
          0.4098980128765106,
          -0.2218799889087677,
          -0.5066242814064026,
          0.0751611515879631,
          -0.16595198214054108,
          0.04519319161772728,
          -0.07372920215129852,
          -0.014639168977737427,
          0.14965751767158508,
          -0.1814144104719162,
          -0.20537565648555756,
          0.48745614290237427,
          -0.07154491543769836,
          -0.12458525598049164,
          -0.10043803602457047,
          0.31416910886764526,
          -0.21156106889247894,
          0.0968850776553154,
          -0.7171011567115784,
          -0.4131609797477722,
          0.09724318981170654,
          -0.13500410318374634,
          0.5454931855201721,
          0.12748391926288605,
          0.5674898624420166,
          0.026914462447166443,
          -0.001626625657081604,
          -0.2997654676437378,
          -0.5389959216117859,
          -0.10123644024133682,
          -0.04152336344122887,
          0.06627749651670456,
          -0.17223022878170013,
          -0.15714117884635925,
          -0.02303984947502613,
          -0.11572349816560745,
          0.11526044458150864,
          0.17961183190345764,
          -0.0586358867585659,
          0.006257334258407354,
          -0.3548867404460907,
          -0.15871188044548035,
          0.18536841869354248,
          0.3835934102535248,
          0.11775334179401398,
          0.35371533036231995,
          0.045627105981111526,
          -0.014822016470134258,
          -0.044974613934755325,
          -0.22035731375217438,
          0.3417213559150696,
          0.11346540600061417,
          -0.12264290452003479,
          0.35786089301109314,
          0.09213312715291977,
          0.46691685914993286,
          -0.08723603188991547,
          0.0028990288265049458,
          -0.21667665243148804,
          0.021183758974075317,
          -0.1401253193616867,
          0.15393608808517456,
          -0.29794538021087646,
          0.3592510521411896,
          0.3045174181461334,
          -0.00044200895354151726,
          0.281076043844223,
          -0.2326384037733078,
          0.21029675006866455,
          0.03263287991285324,
          -0.31920164823532104,
          -0.0663694366812706,
          -0.21032772958278656,
          -0.08901441842317581,
          -0.4545292556285858,
          -0.19559665024280548,
          -0.621740996837616,
          0.2764853239059448,
          -0.09464235603809357,
          -0.09042028337717056,
          0.16816918551921844,
          -0.09992311149835587,
          -0.06987430155277252,
          0.3289833664894104,
          0.2327851951122284,
          -0.48514917492866516
        ]
      },
      "forgetHidden": {
        "rows": 20,
        "columns": 20,
        "weights": [
          0.1253478229045868,
          0.9914566874504089,
          -0.17454850673675537,
          -0.5550618171691895,
          -0.1742781698703766,
          -0.29617011547088623,
          0.24256712198257446,
          1.243823766708374,
          -0.49011293053627014,
          -0.5353033542633057,
          0.6588712930679321,
          -0.18144360184669495,
          0.4554603695869446,
          -0.3671991229057312,
          -0.07008419930934906,
          -0.026409873738884926,
          -0.1701243668794632,
          0.016942035406827927,
          -0.5975046753883362,
          0.15089303255081177,
          -0.43914175033569336,
          -0.34656354784965515,
          -0.05203423276543617,
          0.367450088262558,
          -0.2258397340774536,
          0.1840418130159378,
          0.47515228390693665,
          0.7842435240745544,
          -0.22883422672748566,
          0.2584109902381897,
          -1.6573286056518555,
          0.46287423372268677,
          -0.17629970610141754,
          0.2840529978275299,
          -0.5870236158370972,
          -0.01053826604038477,
          -0.1008976474404335,
          -0.30972814559936523,
          -0.219757080078125,
          -0.20854656398296356,
          0.4668300747871399,
          0.7462018728256226,
          -0.4031031131744385,
          0.2533847689628601,
          -0.6983179450035095,
          -0.13635069131851196,
          -0.7980836033821106,
          0.8050970435142517,
          0.36597368121147156,
          0.00473344512283802,
          0.28743794560432434,
          -0.11463164538145065,
          0.5229089856147766,
          -0.3973800837993622,
          0.13193877041339874,
          0.01869378425180912,
          1.368812918663025,
          -0.27436891198158264,
          1.0252712965011597,
          0.3443329632282257,
          -0.27975228428840637,
          -0.6190662384033203,
          0.5115297436714172,
          0.44336017966270447,
          0.5249860286712646,
          -0.07099979370832443,
          -0.3191617727279663,
          -0.41746261715888977,
          -0.5063899159431458,
          -0.17118310928344727,
          -0.5877785086631775,
          0.7127665281295776,
          0.8367905020713806,
          0.6684486865997314,
          -0.1869199126958847,
          -0.44464996457099915,
          -1.2014127969741821,
          -0.9220277070999146,
          0.01308119110763073,
          -0.4978841543197632,
          -0.5795745849609375,
          0.53739333152771,
          -0.6705066561698914,
          0.08651827275753021,
          -0.34511083364486694,
          0.05877416953444481,
          -0.1640993058681488,
          0.3830599784851074,
          -0.887730062007904,
          0.42571282386779785,
          0.034664105623960495,
          0.04298403859138489,
          0.6270385980606079,
          -0.550223708152771,
          0.304775595664978,
          -0.04794309288263321,
          0.4542631208896637,
          0.3655257523059845,
          0.46605384349823,
          0.22054141759872437,
          -0.428313672542572,
          0.13685545325279236,
          -0.1331215351819992,
          -0.2032840996980667,
          -0.40756934881210327,
          0.19605061411857605,
          0.30904072523117065,
          0.13709208369255066,
          -0.4871160089969635,
          -1.4052008390426636,
          0.02469952590763569,
          -0.4778033196926117,
          0.9714652895927429,
          -0.1199495866894722,
          -0.2011130452156067,
          0.05380333214998245,
          0.31955182552337646,
          -0.10612626373767853,
          -0.22812271118164062,
          -0.46294355392456055,
          -1.4587254524230957,
          0.3870587944984436,
          0.35523951053619385,
          0.10332716256380081,
          -0.128342404961586,
          0.6081929206848145,
          0.2404276728630066,
          0.2974171042442322,
          -0.17200356721878052,
          0.0290999636054039,
          0.6131410002708435,
          -0.38968032598495483,
          -0.20762763917446136,
          0.002589436946436763,
          0.13933444023132324,
          -0.2137157917022705,
          0.7959030866622925,
          -0.008494166657328606,
          -0.3611876368522644,
          -0.027948055416345596,
          -0.16359040141105652,
          0.5135618448257446,
          0.06106562167406082,
          0.5072413086891174,
          -0.523337721824646,
          0.2773931324481964,
          -0.09592201560735703,
          -0.6287296414375305,
          -0.5186251997947693,
          -0.5560379028320312,
          0.4864961504936218,
          -0.7695274353027344,
          1.4944313764572144,
          0.32466524839401245,
          0.16979654133319855,
          -0.4448741674423218,
          -1.3113852739334106,
          -0.1105990782380104,
          -0.24382220208644867,
          0.8449999094009399,
          -0.6620320081710815,
          0.7016533613204956,
          -0.2003302425146103,
          0.5315777659416199,
          -0.004869899246841669,
          0.2813723087310791,
          0.44283828139305115,
          0.8977724313735962,
          0.30688756704330444,
          -0.07352786511182785,
          -0.5765088200569153,
          1.0342776775360107,
          -0.1010110080242157,
          -0.0006765783182345331,
          0.34253597259521484,
          0.49414464831352234,
          0.27256959676742554,
          -0.08108829706907272,
          0.08384376019239426,
          0.0015077448915690184,
          0.158199742436409,
          0.016234030947089195,
          0.08347426354885101,
          -0.39887556433677673,
          0.18817995488643646,
          0.023836379870772362,
          0.002864669542759657,
          0.7416762113571167,
          -0.6119537949562073,
          0.6316009163856506,
          0.3141727149486542,
          0.09827979654073715,
          0.1753581166267395,
          -0.4541654586791992,
          -0.23816470801830292,
          0.6401858925819397,
          -0.18468345701694489,
          0.10078946501016617,
          0.3874097764492035,
          0.1137356236577034,
          0.3357919156551361,
          -0.2906140983104706,
          0.8288015723228455,
          0.3280280530452728,
          0.8072741627693176,
          -1.0283548831939697,
          -0.15087279677391052,
          -0.30340275168418884,
          -0.029146244749426842,
          1.1894876956939697,
          -0.37117502093315125,
          0.3503703474998474,
          0.013675978407263756,
          0.059881001710891724,
          -0.41941559314727783,
          0.9518164396286011,
          -0.16168293356895447,
          0.7369871735572815,
          0.3634137213230133,
          0.3980018198490143,
          0.2966657876968384,
          -0.36802300810813904,
          -0.39609256386756897,
          0.7433138489723206,
          -0.10540822148323059,
          -0.0011257909936830401,
          1.1891793012619019,
          0.4801715612411499,
          0.37128597497940063,
          0.20259469747543335,
          0.7996301054954529,
          -0.6642634868621826,
          0.5207669138908386,
          0.06442423909902573,
          -1.5574036836624146,
          0.2587277889251709,
          -0.5164971947669983,
          -1.2579500675201416,
          1.1171460151672363,
          0.21819114685058594,
          0.12397729605436325,
          0.4775725305080414,
          -0.28256136178970337,
          0.47174161672592163,
          0.31548011302948,
          -0.3212590217590332,
          -0.08221800625324249,
          -0.583981990814209,
          0.554483950138092,
          0.7610819935798645,
          -0.5398105978965759,
          0.24982605874538422,
          0.28804662823677063,
          -1.001233458518982,
          -0.8285123705863953,
          0.3756107985973358,
          1.3375433683395386,
          -0.15690138936042786,
          0.35396578907966614,
          -0.3475331962108612,
          -0.6387243270874023,
          0.4844827651977539,
          -0.1044962927699089,
          -0.1451907455921173,
          -0.28948089480400085,
          0.35285684466362,
          0.4953242540359497,
          0.20786623656749725,
          0.03491293266415596,
          0.6022956371307373,
          0.12347821146249771,
          0.1542447805404663,
          -0.4354073405265808,
          -0.1538192480802536,
          0.8105826377868652,
          -0.4556523561477661,
          -0.15858855843544006,
          -0.8201356530189514,
          -0.324472576379776,
          -0.24916444718837738,
          0.11048822849988937,
          0.1959000527858734,
          0.16615548729896545,
          -0.018976490944623947,
          -0.05026843398809433,
          -0.05483954772353172,
          -0.006537020672112703,
          0.2695527970790863,
          -0.28700491786003113,
          0.25937655568122864,
          0.044337544590234756,
          0.7842798233032227,
          0.399929404258728,
          -0.2574663460254669,
          -0.1052413359284401,
          0.62796550989151,
          0.6962074041366577,
          0.04241606220602989,
          0.031837500631809235,
          -0.1791810244321823,
          0.4676966369152069,
          0.47437694668769836,
          -0.5401401519775391,
          0.36700335144996643,
          0.2315647006034851,
          -0.35717856884002686,
          -0.5059565305709839,
          0.8104150295257568,
          0.3324822783470154,
          -0.23100058734416962,
          0.22472107410430908,
          -0.0077635981142520905,
          -0.2301422655582428,
          0.33490490913391113,
          0.08584310114383698,
          0.1716385781764984,
          -0.6580885052680969,
          0.18571527302265167,
          0.4054550528526306,
          0.2559167444705963,
          -0.1658620685338974,
          -0.5975494384765625,
          0.2787315845489502,
          0.16858705878257751,
          0.1370248794555664,
          -0.1955241709947586,
          -0.7427818179130554,
          0.10099515318870544,
          -0.0844283476471901,
          -0.0314972810447216,
          0.939445972442627,
          -0.1358008235692978,
          1.3161954879760742,
          -0.05442656949162483,
          0.0011598600540310144,
          0.4744991660118103,
          0.002270545344799757,
          -0.03543420881032944,
          0.4004693031311035,
          -0.27165865898132324,
          -0.3201296031475067,
          -0.3447941839694977,
          -0.11755373328924179,
          -0.7661879658699036,
          -0.5217748880386353,
          0.08965064585208893,
          -0.5908241868019104,
          -1.3755218982696533,
          0.09988977760076523,
          -0.037488024681806564,
          0.14366723597049713,
          -0.1277480572462082,
          0.05496194213628769,
          -0.33207547664642334,
          -0.0630311593413353,
          -0.3646189570426941,
          0.26161298155784607,
          -0.030053822323679924,
          -0.26325148344039917,
          0.26156365871429443,
          -0.9109504818916321,
          0.2554033398628235,
          0.4354626536369324,
          0.45355600118637085,
          -1.1232506036758423,
          0.9405105710029602,
          -0.23791685700416565,
          0.2656896412372589,
          -0.17186656594276428,
          0.520287275314331,
          -0.4792577624320984,
          -0.4780789017677307,
          -0.09341205656528473,
          -0.7862226963043213,
          -0.7755925059318542,
          0.4409754276275635,
          0.06411397457122803,
          -0.0011572139337658882,
          -0.10334386676549911,
          -0.7678081393241882,
          0.44846871495246887,
          -0.17635194957256317,
          0.5025153756141663,
          -0.45290929079055786,
          -0.33704620599746704,
          -0.38893142342567444,
          1.0406532287597656,
          -0.6256613731384277,
          1.1062039136886597,
          0.4305172562599182,
          0.22683314979076385,
          0.19395609200000763,
          0.22134491801261902,
          -0.8555561900138855,
          -0.6069730520248413,
          -0.1624976098537445,
          0.3676593601703644,
          -0.3667777180671692,
          -0.21982114017009735,
          0.3139425218105316
        ]
      },
      "forgetBias": {
        "rows": 20,
        "columns": 1,
        "weights": [
          0,
          0,
          0,
          0,
          0,
          0,
          0,
          0,
          0,
          0,
          0,
          0,
          0,
          0,
          0,
          0,
          0,
          0,
          0,
          0
        ]
      },
      "outputMatrix": {
        "rows": 20,
        "columns": 28,
        "weights": [
          0.05574622005224228,
          0.19606998562812805,
          -0.4614126980304718,
          0.14632706344127655,
          0.036646466702222824,
          -0.42212310433387756,
          -0.44317716360092163,
          -0.07841726392507553,
          0.22008271515369415,
          0.150099977850914,
          0.1995202898979187,
          -0.17410890758037567,
          0.13582280278205872,
          0.7928483486175537,
          -0.04239147529006004,
          -0.015208207070827484,
          -0.7323498129844666,
          -0.1725340485572815,
          0.030252983793616295,
          -0.5170099139213562,
          -0.25080230832099915,
          -0.3815523684024811,
          -0.02577263116836548,
          -0.3559461832046509,
          0.03866135701537132,
          0.17234332859516144,
          0.10604563355445862,
          -0.0636964663863182,
          -0.3156766891479492,
          -0.5767999291419983,
          -0.43735039234161377,
          0.1786346584558487,
          -0.3946627080440521,
          -0.0762845054268837,
          0.04245256260037422,
          -0.11563191562891006,
          0.1450023353099823,
          0.033174190670251846,
          0.1880178153514862,
          0.09389226883649826,
          0.17798647284507751,
          0.19385075569152832,
          0.3440602719783783,
          0.16998155415058136,
          -0.2810037136077881,
          0.0955624133348465,
          -0.1429762840270996,
          0.3151352107524872,
          -0.2095869481563568,
          0.31339237093925476,
          -0.1388024389743805,
          0.030133847147226334,
          -0.005847277119755745,
          -0.4424031674861908,
          -0.2757958769798279,
          0.015989862382411957,
          0.18361490964889526,
          0.0807500034570694,
          -0.21658200025558472,
          -0.09863343089818954,
          -0.07674809545278549,
          -0.10745023936033249,
          0.04818514361977577,
          0.031280193477869034,
          0.16342516243457794,
          -0.10326127707958221,
          0.43021273612976074,
          0.48105159401893616,
          -0.19014257192611694,
          -0.28423941135406494,
          -0.09114082902669907,
          0.1459122747182846,
          -0.38400375843048096,
          0.04597637057304382,
          0.17567306756973267,
          0.09626984596252441,
          0.02156856097280979,
          0.4123961925506592,
          -0.527560293674469,
          0.006725176703184843,
          -0.4471752345561981,
          -0.23313657939434052,
          0.06497354805469513,
          0.05299173668026924,
          0.19067096710205078,
          -0.4939284026622772,
          0.16859985888004303,
          -0.030403021723031998,
          -0.0014014852931722999,
          -0.09796196222305298,
          -0.46732595562934875,
          -0.15471014380455017,
          0.3483971357345581,
          0.12691669166088104,
          0.35322561860084534,
          -0.19753409922122955,
          0.10737651586532593,
          0.5415797233581543,
          0.35138827562332153,
          0.24454954266548157,
          0.25737464427948,
          0.18842504918575287,
          -0.15919862687587738,
          0.06406285613775253,
          -0.3686336278915405,
          0.3620530366897583,
          -0.08097196370363235,
          -0.027212664484977722,
          0.24779930710792542,
          -0.003868628526106477,
          0.16915756464004517,
          -0.06986087560653687,
          -0.16015762090682983,
          -0.3553646206855774,
          -0.45006683468818665,
          -0.1657997965812683,
          0.17042776942253113,
          -0.3189454674720764,
          -0.0726231038570404,
          -0.07481410354375839,
          0.2933484613895416,
          0.2048468291759491,
          0.24332566559314728,
          0.271464079618454,
          -0.14221753180027008,
          0.07005111873149872,
          -0.0790228396654129,
          0.21432819962501526,
          -0.319447785615921,
          -0.1743423044681549,
          -0.08306727558374405,
          0.25659942626953125,
          0.08368874341249466,
          0.19405005872249603,
          0.20327194035053253,
          -0.29644036293029785,
          -0.005906595848500729,
          -0.029406346380710602,
          0.05258886143565178,
          -0.2666037976741791,
          -0.1305416077375412,
          0.4217037856578827,
          -0.3339501619338989,
          -0.16219571232795715,
          0.4236745238304138,
          -0.5038560032844543,
          0.2603265345096588,
          -0.11730935424566269,
          0.07893839478492737,
          -0.08267582952976227,
          -0.17842373251914978,
          -0.192921444773674,
          -0.14935176074504852,
          -0.12152200937271118,
          -0.1992604285478592,
          -0.04850347340106964,
          0.110407754778862,
          0.15032224357128143,
          0.014852329157292843,
          -0.026857376098632812,
          0.12142616510391235,
          -0.09702003002166748,
          0.32904037833213806,
          -0.3316299319267273,
          -0.1397634744644165,
          0.07922878116369247,
          -0.4438536763191223,
          -0.11025980859994888,
          0.12091902643442154,
          -0.5389662981033325,
          0.15197426080703735,
          0.10531748831272125,
          0.35975101590156555,
          -0.04648416489362717,
          -0.6735824942588806,
          -0.43684476613998413,
          0.06789277493953705,
          0.19414407014846802,
          0.4213046431541443,
          0.3141944706439972,
          0.23019680380821228,
          0.5645751953125,
          0.5385854244232178,
          -0.32506322860717773,
          0.13198748230934143,
          -0.04971839487552643,
          -0.2099025547504425,
          -0.25008323788642883,
          -0.49381783604621887,
          -0.00862235575914383,
          -0.004916669335216284,
          -0.2657639682292938,
          0.2070486694574356,
          -0.37036535143852234,
          0.1277700811624527,
          -0.05536647140979767,
          -0.12243448197841644,
          -0.09128187596797943,
          -0.49458131194114685,
          0.24592004716396332,
          0.03961591795086861,
          -0.23766350746154785,
          -0.4176892638206482,
          -0.030603554099798203,
          0.31069836020469666,
          -0.06892068684101105,
          -0.023157164454460144,
          -0.14607453346252441,
          0.38673174381256104,
          -0.3432674705982208,
          0.08445505052804947,
          0.18613339960575104,
          -0.3481583893299103,
          -0.06883743405342102,
          0.32196348905563354,
          0.2962958514690399,
          0.005854353774338961,
          0.19707784056663513,
          0.1815033257007599,
          -0.33203309774398804,
          -0.4139971137046814,
          -0.6393954157829285,
          -0.2329278588294983,
          0.2885230481624603,
          -0.0633687973022461,
          -0.3294275104999542,
          -0.17648759484291077,
          0.21121883392333984,
          -0.6197497844696045,
          0.03616567328572273,
          0.3449029326438904,
          -0.3026369512081146,
          0.23335909843444824,
          -0.48755037784576416,
          0.07384736090898514,
          0.8094128370285034,
          0.039308544248342514,
          -0.1853979080915451,
          0.5138927698135376,
          -0.011059780605137348,
          -0.558918297290802,
          0.16852432489395142,
          0.09680540859699249,
          -0.3901747763156891,
          -0.41935041546821594,
          -0.4406387507915497,
          0.18278734385967255,
          -0.09981273859739304,
          -0.1304897516965866,
          -0.20607352256774902,
          0.26929163932800293,
          -0.13954874873161316,
          -0.10034146904945374,
          -0.005161660257726908,
          -0.33910173177719116,
          0.28595197200775146,
          -0.06763128191232681,
          0.0012474041432142258,
          -0.047899436205625534,
          0.3153691291809082,
          0.03453360125422478,
          -0.16126005351543427,
          0.18543630838394165,
          0.1776180863380432,
          0.09454749524593353,
          0.21818353235721588,
          0.2815936505794525,
          -0.15827617049217224,
          0.02278709039092064,
          -0.1508985310792923,
          0.19285228848457336,
          0.5430036187171936,
          -0.17906178534030914,
          0.3530007302761078,
          -0.5923486948013306,
          0.22884902358055115,
          -0.5185738205909729,
          0.26830682158470154,
          0.01767355389893055,
          0.2307157963514328,
          0.13111871480941772,
          -0.6679903864860535,
          -0.5028887391090393,
          0.1044561117887497,
          -0.5116071105003357,
          0.07496257871389389,
          0.1536465436220169,
          -0.33951854705810547,
          0.3573552668094635,
          -0.47866618633270264,
          0.32650333642959595,
          0.7070015668869019,
          0.07838478684425354,
          -0.07718205451965332,
          0.38405105471611023,
          0.06405092030763626,
          -0.8416783809661865,
          0.11233273893594742,
          0.2538153827190399,
          -0.558253288269043,
          -0.7754583358764648,
          -0.5083816647529602,
          0.005473367404192686,
          -0.2378392219543457,
          0.17310945689678192,
          -0.2991560399532318,
          0.20155943930149078,
          -0.2288852334022522,
          0.06021496281027794,
          0.15438145399093628,
          -0.4118049442768097,
          -0.3912188708782196,
          -0.3767816722393036,
          -0.22816991806030273,
          0.35528889298439026,
          -0.39164721965789795,
          0.5500917434692383,
          0.056179631501436234,
          0.6284841299057007,
          0.11376892030239105,
          -0.4467160403728485,
          -0.0915604755282402,
          -0.2781660854816437,
          0.18260173499584198,
          -0.21054375171661377,
          0.07712928205728531,
          0.0390775203704834,
          0.44005492329597473,
          0.06837537884712219,
          -0.2393617182970047,
          0.11740563809871674,
          -0.46695998311042786,
          -0.745890200138092,
          -0.3729993999004364,
          -0.1795189082622528,
          0.03777630627155304,
          0.07001867145299911,
          -0.3132159411907196,
          -0.3897838592529297,
          0.30373725295066833,
          -0.07898513972759247,
          -0.3645130395889282,
          -0.8643426895141602,
          -0.07644665986299515,
          0.00026503545814193785,
          0.07341952621936798,
          0.06293556839227676,
          -0.017588749527931213,
          0.3652273118495941,
          -0.08892146497964859,
          0.4930271506309509,
          0.12511005997657776,
          -0.1034846231341362,
          0.37832269072532654,
          0.186920166015625,
          0.2806313633918762,
          -0.0981411263346672,
          0.1808464080095291,
          -0.13424564898014069,
          0.28454816341400146,
          -0.3835620880126953,
          0.20458991825580597,
          -0.03370635583996773,
          -0.06710217148065567,
          -0.17702807486057281,
          -0.020900746807456017,
          -0.37834665179252625,
          -0.03105969727039337,
          -0.1777135282754898,
          0.047658082097768784,
          0.16675148904323578,
          -0.02435780130326748,
          0.06982468068599701,
          0.07508119195699692,
          -0.01997709646821022,
          -0.23762162029743195,
          0.2549957036972046,
          -0.048964016139507294,
          -0.08622964471578598,
          0.0411507710814476,
          0.18311133980751038,
          0.31063902378082275,
          0.236578568816185,
          0.12263347208499908,
          -0.315470814704895,
          -0.012066210620105267,
          -0.15048643946647644,
          -0.5588874220848083,
          -0.22999170422554016,
          -0.41427114605903625,
          -0.1999559849500656,
          0.1916092485189438,
          0.03850966691970825,
          -0.1501402109861374,
          -0.3681058883666992,
          0.25314074754714966,
          -0.021074047312140465,
          0.21144993603229523,
          -0.4674065411090851,
          0.2317855805158615,
          -0.05245865881443024,
          -0.37517791986465454,
          0.48977816104888916,
          -0.31459730863571167,
          0.08381752669811249,
          0.08192215114831924,
          0.20518143475055695,
          0.4498576521873474,
          0.42523789405822754,
          -0.22380107641220093,
          0.3262260854244232,
          0.15728677809238434,
          0.15442520380020142,
          0.031054746359586716,
          -0.33657923340797424,
          0.22796162962913513,
          -0.2770882844924927,
          0.3323315382003784,
          -0.17221517860889435,
          0.4573518931865692,
          -0.1227530688047409,
          -0.16805125772953033,
          -0.2544638514518738,
          0.014681272208690643,
          0.3587689995765686,
          0.00897185318171978,
          -0.1323310136795044,
          0.15986189246177673,
          -0.03385709598660469,
          0.13969020545482635,
          -0.15011709928512573,
          -0.6598938703536987,
          0.17308564484119415,
          0.9470458030700684,
          0.2286558747291565,
          0.22102920711040497,
          -0.12957251071929932,
          -0.16403789818286896,
          -0.2802310585975647,
          0.027250483632087708,
          0.3347407877445221,
          0.5696054100990295,
          -0.41241857409477234,
          -0.1342855840921402,
          0.11434207111597061,
          1.0085043907165527,
          -0.01798924244940281,
          -0.22987516224384308,
          -0.12954896688461304,
          0.13593843579292297,
          0.07599610090255737,
          0.437873512506485,
          -0.2685539424419403,
          0.09770470857620239,
          0.606348991394043,
          0.17678898572921753,
          0.12246879190206528,
          -0.8329532742500305,
          -0.022470787167549133,
          0.3553941547870636,
          0.002145924139767885,
          0.2603588402271271,
          -0.0868624895811081,
          0.25172868371009827,
          0.10636994987726212,
          0.5948768854141235,
          -0.08496042340993881,
          -0.12456982582807541,
          -0.8925160765647888,
          -0.479649156332016,
          -0.45945480465888977,
          -0.10946227610111237,
          0.20670722424983978,
          -0.15956749022006989,
          0.08061984926462173,
          -0.0004695545067079365,
          -0.12149034440517426,
          -0.32094377279281616,
          0.0054506962187588215,
          0.19961370527744293,
          -0.02772165834903717,
          0.24240246415138245,
          0.13122719526290894,
          -0.06609151512384415,
          -0.04940813034772873,
          0.0445508249104023,
          0.23168674111366272,
          0.4743703603744507,
          -0.016574911773204803,
          -0.2189708650112152,
          -0.3597911596298218,
          0.008312142454087734,
          -0.009475174359977245,
          -0.1261875480413437,
          0.08620896935462952,
          0.2997921407222748,
          0.31219130754470825,
          0.01765073835849762,
          -0.03269336000084877,
          -0.24990223348140717,
          -0.16816198825836182,
          -0.25664469599723816,
          -0.4050838351249695,
          -0.06714493036270142,
          0.05597024783492088,
          -0.04492488503456116,
          0.25420716404914856,
          0.08593713492155075,
          -0.05356810241937637,
          0.31621918082237244,
          0.11263807117938995,
          -0.2879016697406769,
          0.2726980149745941,
          -0.23755066096782684,
          0.33693361282348633,
          0.381509393453598,
          -0.2430284321308136,
          0.011688140220940113,
          -0.03925696387887001,
          0.1593121588230133,
          -0.32427889108657837,
          -0.5064806938171387,
          -0.03982112556695938,
          0.20814988017082214,
          0.13040533661842346,
          0.24638338387012482,
          -0.44518062472343445,
          0.6081700325012207,
          0.04042878746986389,
          0.08919309824705124,
          0.07617618143558502,
          -0.012249793857336044,
          -0.20397059619426727,
          -0.24443915486335754,
          -0.28764864802360535,
          0.014995037578046322,
          -0.7380803823471069,
          0.185127854347229,
          0.3717363178730011,
          -0.18867293000221252,
          0.19179904460906982,
          -0.3540513217449188,
          0.15350833535194397,
          0.6102944016456604,
          0.27676182985305786,
          -0.15125426650047302,
          0.13001421093940735,
          -0.14400127530097961,
          -0.33082181215286255,
          0.40248993039131165,
          0.2596966624259949,
          -0.0716119036078453,
          -0.566335916519165,
          -0.47246018052101135,
          0.1309853345155716,
          -0.1353766918182373,
          -0.3692585825920105,
          0.0788087397813797,
          0.2700422704219818,
          0.018474629148840904
        ]
      },
      "outputHidden": {
        "rows": 20,
        "columns": 20,
        "weights": [
          0.3899311423301697,
          -0.025353968143463135,
          -0.4240463674068451,
          -0.5058300495147705,
          -0.005989838857203722,
          -0.2955738604068756,
          0.37899544835090637,
          0.09703921526670456,
          0.44834187626838684,
          -0.6240476965904236,
          -0.47550782561302185,
          -1.512648105621338,
          1.3115102052688599,
          0.36165398359298706,
          -0.7345072627067566,
          0.45943355560302734,
          -0.4027063548564911,
          -0.10182439535856247,
          0.40095120668411255,
          0.7383418083190918,
          -0.2623147666454315,
          1.0450055599212646,
          -1.0142199993133545,
          0.19083468616008759,
          -0.5487111806869507,
          0.3260539174079895,
          -0.3228890001773834,
          -0.7223426103591919,
          0.3121127784252167,
          -0.62409508228302,
          0.08253458887338638,
          0.1735345721244812,
          0.9784967303276062,
          -0.5065621733665466,
          -0.06288976967334747,
          0.1312796175479889,
          0.6012835502624512,
          0.4777277708053589,
          0.5179992914199829,
          0.6463293433189392,
          -0.9825897216796875,
          -0.11413993686437607,
          -0.5513957738876343,
          0.2748374938964844,
          -0.3671515882015228,
          0.4639623463153839,
          0.5779352784156799,
          -0.35339468717575073,
          0.6406272649765015,
          -0.19153445959091187,
          -0.6423251628875732,
          0.5538838505744934,
          0.46334442496299744,
          -0.3617764115333557,
          -1.2061318159103394,
          -0.3712027668952942,
          1.0121172666549683,
          -1.2929867506027222,
          0.49643680453300476,
          0.8119044899940491,
          -0.1372874230146408,
          0.5121694803237915,
          -1.7342743873596191,
          0.10664413124322891,
          0.15327179431915283,
          1.0830440521240234,
          -0.44907569885253906,
          -0.9114875197410583,
          0.17640523612499237,
          0.10218141227960587,
          -0.4871107041835785,
          -0.6163318753242493,
          1.251274585723877,
          -0.40610525012016296,
          -1.999941349029541,
          0.08169613778591156,
          -0.12179338932037354,
          -0.5501418113708496,
          0.030904516577720642,
          0.016088001430034637,
          -1.057003378868103,
          0.23249764740467072,
          -0.3686026632785797,
          -0.24988417327404022,
          -0.15480050444602966,
          0.13182179629802704,
          0.21390041708946228,
          -0.047752149403095245,
          0.20520734786987305,
          1.1273800134658813,
          -0.6289119720458984,
          -0.5513187646865845,
          0.15615643560886383,
          -0.1400199830532074,
          -1.3653305768966675,
          -0.3320070803165436,
          -0.5542562007904053,
          -0.018629616126418114,
          0.4870075583457947,
          1.2556242942810059,
          -0.356815904378891,
          0.27636078000068665,
          -0.6981939077377319,
          -0.025338564068078995,
          -1.0512465238571167,
          0.6208285689353943,
          -0.7391195893287659,
          -0.6425901055335999,
          -0.04436855763196945,
          0.027834223583340645,
          -0.1885455697774887,
          -0.9766005277633667,
          0.44879376888275146,
          -1.0209219455718994,
          -1.5033400058746338,
          -0.7407775521278381,
          0.3453053832054138,
          -0.2078762948513031,
          -0.10685120522975922,
          1.1870840787887573,
          -0.4235133230686188,
          1.5141284465789795,
          -0.65719074010849,
          -0.42135316133499146,
          0.24646320939064026,
          0.05389402061700821,
          1.230712890625,
          -0.05271300673484802,
          0.1556331366300583,
          -0.5983691811561584,
          -0.5708019137382507,
          -0.7413123846054077,
          -0.22122910618782043,
          -0.06314881145954132,
          -1.627798318862915,
          -0.33940431475639343,
          0.580830454826355,
          0.19682559370994568,
          -0.03508027642965317,
          -0.06335490196943283,
          -0.07890287786722183,
          0.30437397956848145,
          -0.5432798862457275,
          -0.08271507173776627,
          -0.6322715282440186,
          0.21285812556743622,
          0.12114255875349045,
          0.036804378032684326,
          0.29084423184394836,
          1.4079116582870483,
          -0.5554324984550476,
          -0.43730416893959045,
          1.2853330373764038,
          0.19165129959583282,
          0.5301703214645386,
          0.07762541621923447,
          0.3599698841571808,
          -0.6051943302154541,
          0.8518418669700623,
          0.48279938101768494,
          0.21478639543056488,
          0.19837349653244019,
          -0.22200171649456024,
          -0.7441218495368958,
          -0.43809810280799866,
          -0.30364277958869934,
          0.7153437733650208,
          -0.09934648871421814,
          0.34291738271713257,
          0.4386783540248871,
          -0.27451133728027344,
          -0.42437949776649475,
          0.6762087941169739,
          -0.24259181320667267,
          0.022181790322065353,
          0.1874408721923828,
          0.5131587982177734,
          -0.14599405229091644,
          -0.050496820360422134,
          0.03589741513133049,
          -0.9354822635650635,
          0.4870378077030182,
          -0.7173643112182617,
          -0.6550215482711792,
          -0.5859849452972412,
          0.06235706806182861,
          0.37559425830841064,
          -0.558451235294342,
          0.56742262840271,
          1.5994704961776733,
          0.27322134375572205,
          -0.1389542669057846,
          0.31868115067481995,
          -0.12393167614936829,
          -0.9283424615859985,
          0.09501426666975021,
          0.0696391612291336,
          -0.9983521103858948,
          0.6304715275764465,
          0.2810615301132202,
          0.17160701751708984,
          0.7044597864151001,
          0.1775212287902832,
          0.06622053682804108,
          -0.555472195148468,
          0.23963366448879242,
          0.27790743112564087,
          -0.1332855075597763,
          -0.3309284746646881,
          0.02542588859796524,
          -0.15303142368793488,
          -0.24224618077278137,
          0.6557132005691528,
          -0.4641393721103668,
          0.15189124643802643,
          0.6638961434364319,
          0.1681756228208542,
          -0.11349549889564514,
          0.38112279772758484,
          0.37297841906547546,
          -0.5213429927825928,
          0.06832769513130188,
          -0.10854586213827133,
          0.18459732830524445,
          -0.6137925386428833,
          0.4033362567424774,
          -0.010065373033285141,
          -0.05195977911353111,
          0.36671578884124756,
          0.7720606923103333,
          -0.3069889545440674,
          -0.04869890585541725,
          0.12277363240718842,
          -0.40601876378059387,
          -0.21089071035385132,
          0.41596153378486633,
          0.5046505928039551,
          -0.025695858523249626,
          0.5564743280410767,
          0.7674691677093506,
          -1.1227595806121826,
          0.49781545996665955,
          -0.6640823483467102,
          -0.9059762954711914,
          -0.07785055786371231,
          0.0828656479716301,
          0.17881906032562256,
          -0.8062196373939514,
          0.7394399046897888,
          0.26110056042671204,
          -0.4885551631450653,
          -1.5626074075698853,
          0.24673129618167877,
          -0.10410942882299423,
          -1.3747477531433105,
          -0.012566300109028816,
          0.26659125089645386,
          -0.46269938349723816,
          0.9787763953208923,
          0.34437841176986694,
          -0.6057724952697754,
          -0.07839113473892212,
          0.3360651731491089,
          -0.7325657606124878,
          -0.02939562499523163,
          -0.011340552940964699,
          0.22926855087280273,
          -1.87355637550354,
          1.1237720251083374,
          0.40362194180488586,
          -1.0846402645111084,
          0.7678173780441284,
          0.36263272166252136,
          -1.604927897453308,
          0.2972155809402466,
          0.02779049053788185,
          -0.15859416127204895,
          -0.5244497656822205,
          -0.40535199642181396,
          1.018876552581787,
          -0.04075811430811882,
          0.3935428857803345,
          -0.6700584888458252,
          -0.47372323274612427,
          -1.5468201637268066,
          0.005569841712713242,
          0.9963017106056213,
          -0.9270220398902893,
          0.5221988558769226,
          0.42410898208618164,
          -0.9649551510810852,
          -0.13887865841388702,
          1.8944299221038818,
          -1.0567221641540527,
          -1.0340831279754639,
          0.4943908452987671,
          0.9864743947982788,
          -0.4297064244747162,
          0.9499366283416748,
          -0.13824857771396637,
          0.08414497971534729,
          -0.34403038024902344,
          -0.5711163282394409,
          0.6152817010879517,
          0.1364799588918686,
          -0.14091899991035461,
          -0.15927375853061676,
          1.113525629043579,
          0.06629379093647003,
          1.0253939628601074,
          -0.63527911901474,
          -0.7321986556053162,
          -0.03147915005683899,
          -0.7564423680305481,
          -0.942244827747345,
          -0.3605530560016632,
          0.0693265050649643,
          0.2547953426837921,
          0.7395172119140625,
          0.45760565996170044,
          0.12095687538385391,
          0.653273344039917,
          -0.5791965126991272,
          -0.3573015034198761,
          -0.3798028826713562,
          -0.2262900024652481,
          0.4878767430782318,
          -0.17239715158939362,
          0.6771783828735352,
          -0.28383228182792664,
          0.05987130105495453,
          -0.0031621186062693596,
          0.35786134004592896,
          0.03278878703713417,
          0.27108466625213623,
          0.38887447118759155,
          0.1623793989419937,
          -0.6071836948394775,
          0.0616975799202919,
          0.2514849603176117,
          -0.8578898906707764,
          -0.2552547752857208,
          -0.10667265206575394,
          0.23981596529483795,
          -0.5442236065864563,
          -0.03319530934095383,
          1.1419676542282104,
          -0.3885440230369568,
          0.7282455563545227,
          0.471454381942749,
          -0.6900561451911926,
          -0.13556823134422302,
          0.09660511463880539,
          -0.27451103925704956,
          -1.2070233821868896,
          0.7065409421920776,
          -0.6770265102386475,
          0.4617012143135071,
          0.45797502994537354,
          1.103467583656311,
          -1.043103814125061,
          -0.389131635427475,
          -0.7232841849327087,
          0.2751776874065399,
          0.017123714089393616,
          0.2964656949043274,
          0.12185277044773102,
          -0.7767857909202576,
          -0.29930394887924194,
          0.5596398711204529,
          -0.43846526741981506,
          -0.28904101252555847,
          -0.9129393696784973,
          -0.29071298241615295,
          -0.9446255564689636,
          -0.5986341238021851,
          0.23828169703483582,
          0.6843521595001221,
          0.29384398460388184,
          0.4318991005420685,
          0.008806051686406136,
          1.0844063758850098,
          -0.7934644818305969,
          0.3216972351074219,
          -0.4235321581363678,
          -0.327586829662323,
          0.5123346447944641,
          0.40361854434013367,
          0.051816754043102264,
          0.6565300822257996,
          0.023902352899312973,
          0.621272623538971,
          0.004130703397095203,
          0.01159844920039177,
          0.23364485800266266,
          1.4339104890823364,
          0.494120717048645,
          0.2948116958141327,
          0.6826297044754028,
          0.32418790459632874
        ]
      },
      "outputBias": {
        "rows": 20,
        "columns": 1,
        "weights": [
          -0.10344605892896652,
          0.6292691826820374,
          -0.12019732594490051,
          0.2848801612854004,
          0.04516829177737236,
          -0.08976846933364868,
          1.2300703525543213,
          0.4709383249282837,
          1.3197882175445557,
          0.3016360402107239,
          1.1866596937179565,
          0.10787319391965866,
          0.9441112875938416,
          0.21121549606323242,
          0.7078940868377686,
          0.49333226680755615,
          0.7008656859397888,
          -0.048181381076574326,
          0.8297286629676819,
          0.9655710458755493
        ]
      },
      "cellActivationMatrix": {
        "rows": 20,
        "columns": 28,
        "weights": [
          -0.2315666228532791,
          -0.17202943563461304,
          -0.034814104437828064,
          0.0214709285646677,
          -0.21275971829891205,
          0.06239667162299156,
          -0.05504058301448822,
          -0.2623040974140167,
          0.16084620356559753,
          0.42998364567756653,
          -0.13018834590911865,
          0.05791458860039711,
          0.24702188372612,
          0.4525866210460663,
          0.21306048333644867,
          -0.029751533642411232,
          0.08402476459741592,
          -0.40473902225494385,
          0.005582242272794247,
          0.09110753983259201,
          0.6591876149177551,
          0.1645667552947998,
          -0.13745452463626862,
          0.08999026566743851,
          -0.2151915431022644,
          0.790020227432251,
          0.006629112642258406,
          0.10212426632642746,
          -0.1721649020910263,
          -0.3516678214073181,
          0.017402958124876022,
          0.189125195145607,
          -0.27028775215148926,
          0.20306551456451416,
          -0.04519607499241829,
          -0.06504567712545395,
          -0.343494713306427,
          -0.31745442748069763,
          0.113181471824646,
          0.029319239780306816,
          -0.029982421547174454,
          -0.09802597016096115,
          -0.18929332494735718,
          -0.07444615662097931,
          -0.08459045737981796,
          -0.14196327328681946,
          0.137245774269104,
          0.261454313993454,
          0.38938164710998535,
          0.3125966787338257,
          -0.13569848239421844,
          0.17937934398651123,
          -0.22741344571113586,
          0.15321756899356842,
          0.34143373370170593,
          0.22580821812152863,
          -0.032466646283864975,
          0.3450918197631836,
          -0.14110371470451355,
          -0.0621630884706974,
          0.09220080822706223,
          -0.062076203525066376,
          -0.40574949979782104,
          0.3153632879257202,
          -0.37448418140411377,
          -0.14892859756946564,
          -0.40641164779663086,
          0.058469854295253754,
          -0.1643436700105667,
          -0.4220955967903137,
          -0.14447824656963348,
          -0.332908570766449,
          -0.13371242582798004,
          0.11320202052593231,
          0.12140486389398575,
          -0.09648166596889496,
          0.10979076474905014,
          -0.0016162318643182516,
          -0.24591262638568878,
          -0.09085410833358765,
          0.03251579403877258,
          -0.40010103583335876,
          0.10974284261465073,
          -0.25920569896698,
          -0.22047273814678192,
          -0.04428135231137276,
          -0.38170576095581055,
          0.4598138630390167,
          0.01697629876434803,
          0.004825035110116005,
          -0.25045448541641235,
          0.010179005563259125,
          0.024883979931473732,
          -0.26106444001197815,
          0.23680628836154938,
          0.5911470651626587,
          0.07982520759105682,
          -0.03607146814465523,
          -0.38036999106407166,
          0.19241465628147125,
          -0.15329650044441223,
          -0.6483141779899597,
          0.16335055232048035,
          0.4752780497074127,
          0.1050916388630867,
          -0.16146868467330933,
          -0.3329980671405792,
          -0.22018060088157654,
          -0.20695459842681885,
          0.4904085397720337,
          0.06433455646038055,
          -0.018272878602147102,
          -0.005522805731743574,
          0.32739004492759705,
          -0.3424082398414612,
          -0.36080655455589294,
          0.043755363672971725,
          -0.008484003134071827,
          0.29602667689323425,
          -0.005933909676969051,
          0.07006179541349411,
          -0.10640312731266022,
          0.16529008746147156,
          0.155273899435997,
          -0.3818887174129486,
          -0.24730253219604492,
          -0.12951968610286713,
          0.2786564230918884,
          -0.18409082293510437,
          -0.0692196786403656,
          -0.13795068860054016,
          -0.055920906364917755,
          0.24184824526309967,
          0.3165901303291321,
          0.06184971332550049,
          0.07379016280174255,
          -0.10630056262016296,
          0.15519686043262482,
          -0.2117970585823059,
          -0.028463250026106834,
          0.11819365620613098,
          0.011872614733874798,
          0.17000962793827057,
          -0.25255197286605835,
          0.15308932960033417,
          -0.10237190127372742,
          0.28250616788864136,
          0.13789382576942444,
          -0.08971615880727768,
          -0.08501788228750229,
          0.08822836726903915,
          -0.17962057888507843,
          0.0051993681117892265,
          0.12525106966495514,
          -0.3632432818412781,
          0.2822428047657013,
          0.16581085324287415,
          0.3626994788646698,
          -0.1319698691368103,
          0.09805499017238617,
          -0.057333603501319885,
          -0.1796853393316269,
          0.09749956429004669,
          -0.05327160283923149,
          -0.033304840326309204,
          0.09756331890821457,
          -0.07920604944229126,
          -0.08676638454198837,
          -0.36324164271354675,
          0.21407784521579742,
          0.23710018396377563,
          0.24886280298233032,
          -0.09089268743991852,
          -0.3131730556488037,
          -0.013009810820221901,
          0.11135517060756683,
          0.0634288489818573,
          0.10679483413696289,
          -0.0991847887635231,
          0.13524115085601807,
          0.21414870023727417,
          0.0005489252507686615,
          -0.05262434855103493,
          -0.08827602118253708,
          0.3385302722454071,
          -0.07712345570325851,
          0.27767878770828247,
          0.29320472478866577,
          0.871799647808075,
          -0.3312685489654541,
          0.07900377362966537,
          -0.32808518409729004,
          -0.4119592010974884,
          0.01411241665482521,
          0.4276423156261444,
          0.12130063772201538,
          0.19928033649921417,
          -0.22774070501327515,
          0.38188230991363525,
          0.31302231550216675,
          -0.06681636720895767,
          -0.23351013660430908,
          -0.3720420002937317,
          0.14259055256843567,
          0.025858985260128975,
          0.3156743049621582,
          0.16762693226337433,
          -0.28762832283973694,
          -0.06573840975761414,
          0.2377748340368271,
          -0.3707561492919922,
          0.01676366478204727,
          0.41012540459632874,
          0.19081862270832062,
          -0.012800580821931362,
          0.20185258984565735,
          -0.1064625009894371,
          -0.021418502554297447,
          -0.3070371747016907,
          -0.16549241542816162,
          0.18695412576198578,
          -0.041296668350696564,
          0.2645026445388794,
          -0.15257591009140015,
          0.020619720220565796,
          0.33673393726348877,
          0.03939254209399223,
          -0.14106568694114685,
          0.09307747334241867,
          -0.231914684176445,
          0.017774421721696854,
          -0.03553713485598564,
          0.3079414367675781,
          0.2630738317966461,
          0.3819003999233246,
          -0.3171853721141815,
          -0.4710949957370758,
          0.6028772592544556,
          0.1180691346526146,
          -0.20883533358573914,
          0.7405282258987427,
          0.158130943775177,
          -0.013295646756887436,
          0.15894509851932526,
          -0.1847270429134369,
          -0.056762926280498505,
          0.41266608238220215,
          0.05974661186337471,
          0.5269121527671814,
          0.21283289790153503,
          -0.30970409512519836,
          -0.4152272343635559,
          -0.14551955461502075,
          0.05791587755084038,
          -0.17591789364814758,
          0.10576120764017105,
          0.10250965505838394,
          0.11107414960861206,
          -0.22579090297222137,
          -0.1403479129076004,
          0.09541148692369461,
          0.1699094921350479,
          -0.0887596607208252,
          -0.11422612518072128,
          0.07958295941352844,
          0.33176955580711365,
          0.04298030957579613,
          -0.10639256238937378,
          -0.206893652677536,
          -0.0883033350110054,
          -0.022992094978690147,
          -0.30670997500419617,
          0.32472866773605347,
          0.33407914638519287,
          0.013338439166545868,
          0.00898433942347765,
          0.05942836403846741,
          0.05174559727311134,
          -0.11027850955724716,
          0.0055594248697161674,
          -0.01034736167639494,
          0.12240219116210938,
          -0.1893109530210495,
          -0.12319750338792801,
          -0.03243809938430786,
          -0.27747777104377747,
          0.2594413161277771,
          0.20852406322956085,
          0.06847909837961197,
          -0.25540632009506226,
          -0.18023931980133057,
          -0.2855166494846344,
          -0.30926093459129333,
          0.011247770860791206,
          -0.31928160786628723,
          -0.0347856804728508,
          -0.18152230978012085,
          0.18731829524040222,
          0.0713939517736435,
          0.10145044326782227,
          -0.0986962839961052,
          -0.38446271419525146,
          -0.17110784351825714,
          0.09018541127443314,
          -0.24967613816261292,
          0.3386654555797577,
          -0.02803760953247547,
          -0.023037251085042953,
          0.19105930626392365,
          -0.16085052490234375,
          -0.12942101061344147,
          0.016661131754517555,
          0.0646682009100914,
          -0.4503783583641052,
          -0.06314355134963989,
          0.07813843339681625,
          0.15711966156959534,
          -0.18438558280467987,
          0.47527971863746643,
          -0.34046679735183716,
          -0.5404805541038513,
          0.10362279415130615,
          -0.257598876953125,
          -0.01003971602767706,
          0.273464173078537,
          0.2723643481731415,
          -0.1025799959897995,
          0.3465932607650757,
          0.2821395993232727,
          -0.29485324025154114,
          0.09089715033769608,
          -0.6555208563804626,
          0.280952125787735,
          -0.23794682323932648,
          0.008746934123337269,
          -0.14067648351192474,
          0.07110122591257095,
          -0.10446462780237198,
          0.028142862021923065,
          0.2898586690425873,
          0.05077638849616051,
          -0.2666108310222626,
          -0.3715265095233917,
          0.05129818245768547,
          0.5524318218231201,
          0.07549985498189926,
          -0.1055232360959053,
          0.2582234740257263,
          0.057294730097055435,
          0.008197478950023651,
          0.04153325408697128,
          0.15659241378307343,
          0.11298558115959167,
          0.034997954964637756,
          0.12317304313182831,
          0.16765853762626648,
          0.0012070891680195928,
          -0.4369291365146637,
          0.3514051139354706,
          -0.33134907484054565,
          0.5034924745559692,
          0.10847712308168411,
          -0.5437027215957642,
          0.20790642499923706,
          0.1639498621225357,
          -0.15278378129005432,
          0.6208575367927551,
          0.16407231986522675,
          -0.1656731814146042,
          -0.07761970907449722,
          -0.44245418906211853,
          -0.20016051828861237,
          0.1819547414779663,
          0.03662016987800598,
          -0.41938039660453796,
          -0.06348446756601334,
          0.5910172462463379,
          -0.13142643868923187,
          -0.35468584299087524,
          0.12891939282417297,
          0.24434082210063934,
          0.07107272744178772,
          -0.233747661113739,
          0.003334698500111699,
          0.2933886647224426,
          0.21957433223724365,
          -0.3807339370250702,
          0.3333929181098938,
          -0.2754506766796112,
          0.08851306885480881,
          -0.09043506532907486,
          0.4349260628223419,
          0.10842767357826233,
          0.2112392634153366,
          -0.08625486493110657,
          0.1540944129228592,
          0.14668986201286316,
          -0.3648380637168884,
          -0.3880690634250641,
          0.19661565124988556,
          0.46716487407684326,
          0.09246911108493805,
          0.22493767738342285,
          -0.3923662602901459,
          0.05536826699972153,
          0.12179384380578995,
          -0.1580105870962143,
          0.06162578612565994,
          0.12228138744831085,
          0.3273187279701233,
          0.18239182233810425,
          0.03749976307153702,
          -0.4045983552932739,
          -0.08196288347244263,
          -0.1491265594959259,
          -0.2092491090297699,
          0.011341706849634647,
          0.11411286145448685,
          -0.01634880341589451,
          -0.1176210269331932,
          -0.04594280198216438,
          0.14851374924182892,
          0.26405540108680725,
          -0.06794892251491547,
          -0.4144752621650696,
          0.2840389609336853,
          0.6254147887229919,
          -0.24483680725097656,
          -0.42182984948158264,
          0.10335946828126907,
          0.19191835820674896,
          0.11023768782615662,
          -0.02301761880517006,
          0.1598769575357437,
          0.02534502185881138,
          -0.08078598231077194,
          0.09670449793338776,
          -0.37728437781333923,
          -0.4210417866706848,
          -0.1503029316663742,
          -0.687292218208313,
          0.16171790659427643,
          -0.30905431509017944,
          0.2811066508293152,
          -0.016100149601697922,
          0.40219593048095703,
          0.009264694526791573,
          -0.09184441715478897,
          -0.029866017401218414,
          -0.10522691160440445,
          0.22756993770599365,
          0.23178398609161377,
          0.1759435534477234,
          -0.13368341326713562,
          -0.322429358959198,
          -0.08307592570781708,
          -0.0657295435667038,
          0.2161284238100052,
          0.2266300469636917,
          -0.29692700505256653,
          0.022345561534166336,
          0.4423283338546753,
          0.2771221101284027,
          -0.02371944487094879,
          0.27996450662612915,
          0.06328490376472473,
          -0.19422736763954163,
          -0.08551375567913055,
          -0.08877915889024734,
          -0.10461617261171341,
          -0.15236766636371613,
          0.17016112804412842,
          0.3255833685398102,
          0.3023911714553833,
          0.1713356226682663,
          0.07419702410697937,
          0.18984100222587585,
          0.2168690264225006,
          0.6005493402481079,
          -0.006780844647437334,
          -0.40310391783714294,
          0.23932673037052155,
          0.49568042159080505,
          -0.017946742475032806,
          -0.2839137017726898,
          -0.12478955835103989,
          -0.6520254611968994,
          0.038960572332143784,
          -0.17830851674079895,
          -0.49187588691711426,
          -0.2855187952518463,
          0.06135878339409828,
          -0.1376182585954666,
          0.14809060096740723,
          -0.003524041036143899,
          0.22593306005001068,
          -0.3527381122112274,
          -0.3774995803833008,
          -0.04624233767390251,
          0.365668922662735,
          -0.2997663915157318,
          -0.08524129539728165,
          0.1146911084651947,
          0.13715259730815887,
          0.29301756620407104,
          0.1886417120695114,
          0.3918223977088928,
          -0.010504727251827717,
          0.03643909841775894,
          0.4546096622943878,
          0.07933244109153748,
          -0.2527928054332733,
          -0.31949859857559204,
          0.11724968999624252,
          0.14177457988262177,
          0.5166532397270203,
          0.045210253447294235,
          0.11636457592248917,
          0.5425401926040649,
          -0.13251426815986633,
          -0.14427945017814636,
          -0.15133866667747498,
          -0.12110140919685364,
          0.14297398924827576,
          -0.5086373686790466,
          0.3801736831665039,
          -0.14871512353420258,
          0.18067632615566254,
          0.0645170509815216,
          0.26629164814949036,
          0.0631723627448082,
          -0.19571566581726074,
          -0.15253067016601562,
          0.1527395248413086,
          -0.22171199321746826,
          -0.13540221750736237,
          -0.0700722262263298,
          0.12459957599639893,
          -0.02701028250157833,
          0.2068503350019455,
          -0.022529765963554382,
          -0.09385683387517929,
          0.46066558361053467,
          0.09855444729328156,
          -0.5061677098274231,
          0.3734476566314697,
          -0.420960009098053,
          0.4628905653953552,
          -0.0775250643491745,
          -0.07682732492685318,
          0.020106351003050804,
          -0.01622525043785572,
          0.5669121742248535,
          0.3989779055118561,
          0.5278002023696899,
          0.06613723933696747,
          0.03891419246792793,
          0.654657244682312,
          -0.06971780955791473,
          -0.42115479707717896
        ]
      },
      "cellActivationHidden": {
        "rows": 20,
        "columns": 20,
        "weights": [
          0.3796010911464691,
          -0.052009884268045425,
          0.24609589576721191,
          0.39290857315063477,
          -0.13166199624538422,
          -0.5795138478279114,
          0.43307599425315857,
          0.7698419690132141,
          0.0624326728284359,
          -0.3895673453807831,
          -0.08872802555561066,
          0.332089364528656,
          0.44356393814086914,
          0.04824886843562126,
          -0.13809940218925476,
          0.2799924612045288,
          -0.085037000477314,
          -0.014771937392652035,
          0.1849926859140396,
          0.029334750026464462,
          -0.13603521883487701,
          -0.1240357831120491,
          -0.5327651500701904,
          0.03650808334350586,
          -0.3190803825855255,
          0.006735923234373331,
          0.2621762454509735,
          0.8772979974746704,
          -0.30570781230926514,
          0.9313348531723022,
          -0.707386314868927,
          -0.21696311235427856,
          -0.06759558618068695,
          -0.29620128870010376,
          -0.1378982663154602,
          -0.9410487413406372,
          0.47677382826805115,
          -0.5961076021194458,
          -1.1503034830093384,
          0.028050633147358894,
          -0.24420402944087982,
          -0.31293511390686035,
          0.46708565950393677,
          0.48729071021080017,
          0.5210291743278503,
          0.060817085206508636,
          0.23226779699325562,
          0.6308040022850037,
          0.05142277851700783,
          -0.042688801884651184,
          -0.3255259692668915,
          0.6663669943809509,
          -0.20103789865970612,
          0.30815720558166504,
          -0.292838990688324,
          0.32621893286705017,
          -0.5717388987541199,
          0.3289598524570465,
          -0.5164766311645508,
          -0.08391821384429932,
          0.6940727829933167,
          -0.16306206583976746,
          0.31377819180488586,
          -1.3335695266723633,
          0.3605600893497467,
          0.09510692209005356,
          -0.25451257824897766,
          0.0345696359872818,
          -0.09714634716510773,
          0.17740565538406372,
          0.15593214333057404,
          0.39827466011047363,
          -0.6137611865997314,
          0.39478805661201477,
          0.06644939631223679,
          -0.30232447385787964,
          -0.48882004618644714,
          0.5212631225585938,
          -0.08081910759210587,
          -0.8773471713066101,
          0.8001360297203064,
          -0.5532354116439819,
          -0.06780476868152618,
          -0.23621763288974762,
          0.32843825221061707,
          0.2074582427740097,
          -0.9948467016220093,
          0.1883336454629898,
          0.2041730284690857,
          0.011564063839614391,
          0.5333878397941589,
          0.4931980073451996,
          -1.0711544752120972,
          -0.23073795437812805,
          -0.3849169611930847,
          -0.2562197744846344,
          -0.7912551164627075,
          0.5917171239852905,
          -0.0801035538315773,
          0.17730720341205597,
          -0.146750807762146,
          0.2602471113204956,
          0.2608352601528168,
          0.5858492255210876,
          -0.43594008684158325,
          0.7022154927253723,
          0.06913164258003235,
          -0.12432783097028732,
          -0.18040740489959717,
          -0.45734190940856934,
          -0.03958217799663544,
          -0.707917332649231,
          -0.9122493267059326,
          0.19570593535900116,
          0.21621324121952057,
          0.39747220277786255,
          0.7648270726203918,
          0.9375831484794617,
          -0.05469932034611702,
          0.4911830425262451,
          0.5784152150154114,
          -0.9003713726997375,
          0.4625221788883209,
          0.21243469417095184,
          0.4878537058830261,
          -0.25182992219924927,
          -0.25119057297706604,
          0.4966094493865967,
          -0.9038445949554443,
          -0.19707068800926208,
          0.7985064387321472,
          0.1714462786912918,
          -0.6481143832206726,
          -0.35092779994010925,
          0.0968618094921112,
          0.23423247039318085,
          -0.38960134983062744,
          -0.7151719331741333,
          -0.3384588360786438,
          -0.5762469172477722,
          -0.1521655172109604,
          -0.458131343126297,
          0.13484691083431244,
          0.09394216537475586,
          0.5261605978012085,
          0.12506943941116333,
          -0.4557088613510132,
          0.38332313299179077,
          -0.08964435756206512,
          0.8358021974563599,
          -0.31550928950309753,
          0.20494964718818665,
          0.06322552263736725,
          -0.09944453090429306,
          -0.39203816652297974,
          0.36171168088912964,
          0.05118517950177193,
          0.17373989522457123,
          -0.22937875986099243,
          -0.2723728120326996,
          0.4600187838077545,
          0.34520313143730164,
          0.049473509192466736,
          0.15091785788536072,
          -0.2967764437198639,
          0.2506360709667206,
          -0.3415582478046417,
          0.1226625144481659,
          -0.09334161877632141,
          0.28147202730178833,
          0.010105673223733902,
          0.22830741107463837,
          -0.048000212758779526,
          -0.29448527097702026,
          -0.6982418298721313,
          -0.10277935862541199,
          -0.05951068550348282,
          -0.15243196487426758,
          -0.3253386616706848,
          -0.31096333265304565,
          0.04620394855737686,
          0.7133513689041138,
          0.08231236040592194,
          0.06628198176622391,
          0.1138431504368782,
          0.38510265946388245,
          0.5019523501396179,
          -0.022914525121450424,
          -0.5728379487991333,
          0.549262523651123,
          0.5915142893791199,
          0.20723804831504822,
          -0.6252395510673523,
          0.4390382766723633,
          0.17207807302474976,
          0.2439763844013214,
          -0.4312038719654083,
          -0.3458755910396576,
          -0.1171903982758522,
          -0.1564132273197174,
          0.2610873281955719,
          0.07034150511026382,
          0.4076501429080963,
          -0.6294435858726501,
          -0.42308133840560913,
          0.15686862170696259,
          0.1904972344636917,
          0.4533025920391083,
          -0.7292504906654358,
          -0.7744654417037964,
          0.6374382376670837,
          -0.21969495713710785,
          -0.13282901048660278,
          0.14751087129116058,
          -0.009995109401643276,
          -1.0343354940414429,
          -0.7126812934875488,
          -0.45576557517051697,
          0.006605568807572126,
          -0.5605226159095764,
          0.01803918369114399,
          0.07152420282363892,
          0.04081222787499428,
          -0.3148917555809021,
          -0.04836741462349892,
          0.37635576725006104,
          0.058238737285137177,
          0.008286192081868649,
          0.042649272829294205,
          0.37475475668907166,
          -0.01933225803077221,
          0.4768047332763672,
          -0.1395929604768753,
          0.10071252286434174,
          0.39895305037498474,
          0.09721211344003677,
          -0.046329058706760406,
          0.6490148305892944,
          -0.8081913590431213,
          -0.4610145092010498,
          0.41362208127975464,
          -0.3419443964958191,
          -0.05223287269473076,
          0.3740694224834442,
          0.15521982312202454,
          -0.26027825474739075,
          -0.2712706923484802,
          0.32770001888275146,
          0.14414145052433014,
          0.39409902691841125,
          -0.639963686466217,
          -0.12058211863040924,
          -0.10773912817239761,
          -0.3545718193054199,
          -0.10979672521352768,
          0.03826408460736275,
          -0.2979445457458496,
          0.07257381081581116,
          0.3419000506401062,
          -0.4244423508644104,
          -0.8477240204811096,
          -0.559775173664093,
          -0.2213781774044037,
          -0.6235604286193848,
          0.44489479064941406,
          -0.07135746628046036,
          0.7048335075378418,
          0.36779728531837463,
          -0.1294022798538208,
          -1.1991865634918213,
          0.48315343260765076,
          0.27968889474868774,
          -0.46108943223953247,
          0.25850731134414673,
          -0.4602331817150116,
          -0.002338724210858345,
          -0.1195017397403717,
          -0.32568687200546265,
          0.33443009853363037,
          -0.34881412982940674,
          0.5957239270210266,
          0.14890967309474945,
          0.5370118021965027,
          -0.03888097405433655,
          0.42473310232162476,
          0.2705158293247223,
          0.025342531502246857,
          1.4683243036270142,
          0.6106371283531189,
          -0.0798700600862503,
          -0.7434324026107788,
          0.41969311237335205,
          0.34005072712898254,
          0.3227596879005432,
          0.17255090177059174,
          -0.8156135678291321,
          -0.28951209783554077,
          0.047826461493968964,
          0.4315224885940552,
          -0.7927612662315369,
          -0.16716784238815308,
          -0.014119468629360199,
          -0.33300110697746277,
          -0.08718518167734146,
          -0.0875718742609024,
          0.38299494981765747,
          -0.06254757940769196,
          0.837316632270813,
          0.2725513279438019,
          -0.010802490636706352,
          -0.11124163120985031,
          -0.1374085247516632,
          -0.024591976776719093,
          -0.5995195508003235,
          0.29277268052101135,
          0.5999542474746704,
          0.06425497680902481,
          0.5410391092300415,
          -0.016636667773127556,
          -0.3479655683040619,
          -0.6002748608589172,
          0.8246860504150391,
          -0.5012219548225403,
          0.4619433879852295,
          -0.41301241517066956,
          -0.14064368605613708,
          -0.07831268757581711,
          -0.13606131076812744,
          0.04093477874994278,
          0.6350836157798767,
          0.00994165614247322,
          -0.321829229593277,
          0.5406080484390259,
          0.31049343943595886,
          0.10897282510995865,
          -0.02735886722803116,
          -0.07231780886650085,
          -0.25602442026138306,
          0.35358405113220215,
          -0.12836717069149017,
          -0.28642046451568604,
          0.6717270016670227,
          0.4364739656448364,
          0.182890847325325,
          -0.3111859858036041,
          -0.20122134685516357,
          0.08097634464502335,
          -0.016695760190486908,
          0.13422156870365143,
          0.2307460606098175,
          -0.42442137002944946,
          -0.08337972313165665,
          -0.7853873372077942,
          -0.1180199533700943,
          0.22206668555736542,
          0.5311223268508911,
          -0.2735289931297302,
          0.7116208672523499,
          0.3159692585468292,
          0.23437775671482086,
          -0.8399651050567627,
          -0.029323037713766098,
          0.11024589091539383,
          -0.27853912115097046,
          -0.8949437737464905,
          0.4614909887313843,
          0.08903764188289642,
          -0.14030934870243073,
          0.8684046268463135,
          0.3169049620628357,
          -0.6713880896568298,
          0.1437378227710724,
          0.4209153950214386,
          -0.033169616013765335,
          0.45513319969177246,
          0.21710996329784393,
          0.8516852855682373,
          0.3214395046234131,
          0.2863633632659912,
          -0.032869912683963776,
          -0.13658030331134796,
          -0.09649961441755295,
          -0.13258735835552216,
          -0.9343754053115845,
          -0.25465264916419983,
          -0.4889183044433594,
          0.6362043619155884,
          0.08874101936817169,
          0.6277121305465698,
          0.5583232045173645,
          0.26433882117271423,
          -0.26736268401145935,
          0.41809961199760437,
          0.38192856311798096,
          -0.07426432520151138,
          -0.28637048602104187,
          0.2645035982131958,
          -0.3101910650730133,
          -0.3467537462711334,
          0.07964207977056503
        ]
      },
      "cellActivationBias": {
        "rows": 20,
        "columns": 1,
        "weights": [
          -0.09433218091726303,
          0.7082512974739075,
          -0.06889543682336807,
          -0.3136119246482849,
          -0.17232467234134674,
          0.36471956968307495,
          1.248969316482544,
          -0.4499884843826294,
          1.3448991775512695,
          0.06092098355293274,
          -1.1802706718444824,
          -0.15451650321483612,
          0.9377902746200562,
          -0.24085892736911774,
          -0.5766499042510986,
          0.4905993938446045,
          0.7034450769424438,
          -0.015229333192110062,
          0.8382599949836731,
          1.013509750366211
        ]
      }
    },
    {
      "inputMatrix": {
        "rows": 20,
        "columns": 20,
        "weights": [
          -0.8201945424079895,
          0.3073129951953888,
          -0.46260929107666016,
          0.5249530673027039,
          -0.3185162842273712,
          0.469053715467453,
          -0.5061191320419312,
          -0.2707297205924988,
          0.5637868046760559,
          2.327092170715332,
          -0.9466427564620972,
          0.8769662976264954,
          0.07986727356910706,
          -2.705051898956299,
          -1.4174171686172485,
          0.8250320553779602,
          1.132827639579773,
          0.7714420557022095,
          1.1383156776428223,
          0.08540894836187363,
          -0.09976354241371155,
          1.418457269668579,
          0.18764697015285492,
          -0.8237330913543701,
          0.934985339641571,
          -0.8727020621299744,
          1.0731852054595947,
          0.15044838190078735,
          -0.1630203127861023,
          1.396459698677063,
          -0.71944659948349,
          -1.0961942672729492,
          0.44249624013900757,
          -1.1112724542617798,
          -0.6571440696716309,
          0.6272999048233032,
          0.26429644227027893,
          1.2080799341201782,
          0.299064964056015,
          -0.24289673566818237,
          -0.06434021145105362,
          0.4372212588787079,
          -0.2498863786458969,
          0.3584592044353485,
          0.2471308410167694,
          -0.2982778251171112,
          1.2881091833114624,
          0.7541906833648682,
          1.10281240940094,
          0.7879451513290405,
          -0.5486848950386047,
          -1.0238511562347412,
          0.44464704394340515,
          -0.8851646184921265,
          -0.7805099487304688,
          0.2750661373138428,
          -0.9451820850372314,
          0.3603779375553131,
          0.17675648629665375,
          0.14508412778377533,
          0.2829522490501404,
          0.32541048526763916,
          -0.5633571743965149,
          -0.2785210907459259,
          -0.4966805875301361,
          -0.1774986833333969,
          0.27727216482162476,
          -0.2737730145454407,
          0.35246092081069946,
          -0.23772171139717102,
          -0.41385090351104736,
          -0.31128165125846863,
          0.37572577595710754,
          -0.45254456996917725,
          -0.355042427778244,
          0.28450319170951843,
          0.449438214302063,
          -0.462539404630661,
          0.32493698596954346,
          0.4521256685256958,
          -0.7361454963684082,
          -0.2785246670246124,
          -0.5349065661430359,
          0.9777150750160217,
          0.29891037940979004,
          0.9586225152015686,
          -0.1449257731437683,
          -0.18269376456737518,
          0.1098095178604126,
          0.9133828282356262,
          0.12218619138002396,
          -0.3484184443950653,
          0.4120759963989258,
          -0.014074153266847134,
          0.2656610310077667,
          0.5272741317749023,
          0.031045379117131233,
          -0.41891953349113464,
          0.008607568219304085,
          0.5064966678619385,
          0.4829896092414856,
          1.3050830364227295,
          -0.7742992043495178,
          0.035536132752895355,
          -0.035935960710048676,
          -0.374533087015152,
          0.10126689076423645,
          -0.021499132737517357,
          0.25478029251098633,
          -0.0639471709728241,
          -0.0696224719285965,
          -0.38172587752342224,
          0.28230419754981995,
          -0.09828314930200577,
          -0.903590977191925,
          0.3807604908943176,
          0.45194217562675476,
          0.0551825687289238,
          1.2754337787628174,
          0.5973765850067139,
          1.0575875043869019,
          -0.4282588064670563,
          -1.3653298616409302,
          0.8926629424095154,
          -0.3187796175479889,
          0.349565327167511,
          -0.9360384345054626,
          0.5299798846244812,
          -0.2816333770751953,
          0.8741104006767273,
          0.7004013061523438,
          -0.8233394622802734,
          0.4439167380332947,
          0.462155282497406,
          0.01709119789302349,
          0.8640141487121582,
          -0.12377562373876572,
          0.21076306700706482,
          0.7124729752540588,
          -0.0402425080537796,
          0.09405019879341125,
          -0.2198692113161087,
          -0.5185230374336243,
          -0.0942806676030159,
          -1.0511080026626587,
          0.615443229675293,
          0.43895936012268066,
          0.3727189302444458,
          0.8792587518692017,
          -0.23718099296092987,
          -0.12619313597679138,
          -0.2915354073047638,
          0.39512917399406433,
          0.33128121495246887,
          -0.030943013727664948,
          -0.48123666644096375,
          -0.08324724435806274,
          -1.231301188468933,
          -0.042596980929374695,
          -0.184425950050354,
          -0.1843525767326355,
          0.34058380126953125,
          -0.23482386767864227,
          -0.5131340026855469,
          -0.41288527846336365,
          0.18050365149974823,
          0.25352007150650024,
          -0.06628270447254181,
          0.22952592372894287,
          0.6400882601737976,
          -0.46513068675994873,
          -0.33073320984840393,
          0.21508747339248657,
          -0.6759136319160461,
          -0.5793834924697876,
          0.14529091119766235,
          0.8257004618644714,
          -0.31634071469306946,
          0.511994481086731,
          0.3070899248123169,
          -0.5830805897712708,
          -0.1597355306148529,
          -0.0540851354598999,
          -0.016931436955928802,
          -0.08546192198991776,
          -0.2048172801733017,
          -0.4603630304336548,
          -0.8786562085151672,
          0.29369843006134033,
          2.483004331588745,
          -0.8171650767326355,
          0.18986806273460388,
          -0.27705028653144836,
          -2.9661364555358887,
          -1.105513334274292,
          2.1976335048675537,
          1.3907763957977295,
          0.40014082193374634,
          -0.005443614441901445,
          0.13248644769191742,
          0.04517161473631859,
          -0.49141159653663635,
          -0.257930725812912,
          0.4613386392593384,
          -1.75767982006073,
          0.5840624570846558,
          -0.18218867480754852,
          0.21098215878009796,
          0.4783921241760254,
          0.19302819669246674,
          -0.40208899974823,
          0.8361391425132751,
          0.17478570342063904,
          -0.7317171692848206,
          -0.6161009669303894,
          -0.4481579661369324,
          1.3630256652832031,
          -1.049851417541504,
          0.5449721217155457,
          0.3840447664260864,
          -0.5709314346313477,
          -0.445309579372406,
          0.6958320736885071,
          -1.2197890281677246,
          -0.8260568976402283,
          0.4921215772628784,
          0.4961075782775879,
          -0.6924816370010376,
          1.0185320377349854,
          -1.0221253633499146,
          -0.2672867476940155,
          0.4318964183330536,
          0.8231299519538879,
          -0.1093909814953804,
          -0.5134157538414001,
          -1.513116717338562,
          -0.18052048981189728,
          -0.8395617008209229,
          -0.2739662826061249,
          0.02938253805041313,
          0.41854724287986755,
          -0.02234356664121151,
          -0.69239741563797,
          0.7636876702308655,
          -0.35842764377593994,
          0.44466739892959595,
          -0.19147294759750366,
          -1.1293164491653442,
          -0.023179223760962486,
          -0.10976839065551758,
          0.1993364840745926,
          -0.6964054703712463,
          0.7249363660812378,
          0.939100980758667,
          0.02788081392645836,
          -0.5390338897705078,
          -0.4435042142868042,
          0.15941378474235535,
          -0.05462782829999924,
          -0.6500632166862488,
          -0.8611173033714294,
          -0.07907170057296753,
          -0.7522948980331421,
          -0.31924545764923096,
          -0.08712685853242874,
          0.19479911029338837,
          0.23225438594818115,
          -0.11707376688718796,
          0.885667085647583,
          -1.6494197845458984,
          -0.2682555317878723,
          -0.015600775368511677,
          -0.5642507672309875,
          0.8145213723182678,
          -0.6060894131660461,
          -0.38046878576278687,
          1.6670597791671753,
          0.5868309736251831,
          1.1546154022216797,
          0.7121754884719849,
          -1.1932165622711182,
          0.2732994258403778,
          0.0822913870215416,
          -0.8246716856956482,
          -0.2895248532295227,
          -0.10103794932365417,
          0.9622625708580017,
          -0.7860705852508545,
          0.5927296876907349,
          1.615655541419983,
          -0.40403392910957336,
          -0.30334630608558655,
          1.6509382724761963,
          0.4987855553627014,
          0.06431397795677185,
          -0.444073349237442,
          -0.6039962768554688,
          0.5704547762870789,
          1.0317201614379883,
          -0.3985082805156708,
          -0.9835175275802612,
          0.5322731733322144,
          -0.9196738600730896,
          -0.7792198061943054,
          -0.31384891271591187,
          -0.20480012893676758,
          1.8353610038757324,
          -0.24476437270641327,
          0.43590474128723145,
          -0.7632573843002319,
          -0.9276905655860901,
          -0.44977623224258423,
          0.2158290445804596,
          0.1633499264717102,
          0.4375954568386078,
          -1.1285499334335327,
          0.500488817691803,
          0.32457396388053894,
          -0.005780439358204603,
          0.39659708738327026,
          0.42132407426834106,
          0.021452344954013824,
          0.04212924465537071,
          -0.4176618158817291,
          0.27547141909599304,
          0.44693198800086975,
          0.03419731929898262,
          -0.20525813102722168,
          -0.00863051600754261,
          -0.10998807847499847,
          0.22998224198818207,
          -0.3174527883529663,
          0.24390096962451935,
          0.13304711878299713,
          -0.1233600452542305,
          -0.1281227469444275,
          0.308370977640152,
          -0.4781962037086487,
          -0.06775975972414017,
          -0.19085820019245148,
          -0.4041668176651001,
          -0.3407915234565735,
          0.2532632350921631,
          0.15574555099010468,
          -1.9682676792144775,
          1.4389985799789429,
          -0.32960736751556396,
          -0.105496846139431,
          0.8023873567581177,
          0.39498648047447205,
          -0.6896759867668152,
          -0.8967941403388977,
          -0.3932288587093353,
          -0.23269535601139069,
          0.7317935824394226,
          -0.5151359438896179,
          -0.5067275166511536,
          0.6336237788200378,
          0.10225024819374084,
          0.2576744854450226,
          -0.7885618209838867,
          0.5997247695922852,
          -0.5511091351509094,
          -0.11665968596935272,
          -0.3482389450073242,
          -0.4555501341819763,
          -0.2504158914089203,
          -0.07405833899974823,
          -0.5667092204093933,
          1.7059855461120605,
          0.502784788608551,
          -2.2330479621887207,
          -0.23769719898700714,
          0.47953665256500244,
          -0.45466184616088867,
          0.9488057494163513,
          -0.4225222170352936,
          -0.18172460794448853,
          0.3240692913532257,
          0.3557647168636322,
          -0.6895433664321899,
          0.45001786947250366,
          -0.36179521679878235,
          -0.8228702545166016,
          -0.023066885769367218,
          0.5457125306129456,
          1.3334455490112305,
          -0.9530729651451111,
          0.05998610332608223,
          -0.12120570987462997,
          -0.7330683469772339,
          -1.0662342309951782,
          0.4910043179988861,
          0.00926955509930849,
          0.014393351972103119,
          -0.5582953095436096,
          0.04272317886352539,
          0.42593657970428467,
          0.4285028874874115,
          0.20163637399673462
        ]
      },
      "inputHidden": {
        "rows": 20,
        "columns": 20,
        "weights": [
          -0.04974370449781418,
          0.4524231553077698,
          -0.39909741282463074,
          0.644603431224823,
          0.43292462825775146,
          0.10159847885370255,
          -0.44271284341812134,
          0.4721967577934265,
          0.4796747863292694,
          -0.08859584480524063,
          -0.6641525626182556,
          -0.012828529812395573,
          -0.8169745802879333,
          -1.1639682054519653,
          0.3623030185699463,
          0.1160355880856514,
          0.652946949005127,
          -2.01676344871521,
          0.17881299555301666,
          -0.5102950930595398,
          -1.5857300758361816,
          -1.1970469951629639,
          -1.426460862159729,
          -0.6181693077087402,
          -1.7482062578201294,
          -1.3750814199447632,
          -0.08216901868581772,
          -0.46235063672065735,
          -0.34005865454673767,
          -1.7341783046722412,
          2.061143159866333,
          -1.2436459064483643,
          -0.8808914422988892,
          0.6400482058525085,
          0.21751736104488373,
          -1.3419809341430664,
          -0.8422324061393738,
          2.058974027633667,
          1.8283823728561401,
          -0.2392318993806839,
          -0.03522703796625137,
          0.7622885704040527,
          -0.8759022951126099,
          -0.008512981235980988,
          0.11854644119739532,
          0.5863438248634338,
          1.1408578157424927,
          -0.9156487584114075,
          0.11989913880825043,
          -0.12877009809017181,
          -0.5929408669471741,
          -0.37766191363334656,
          0.10859224945306778,
          0.22067725658416748,
          0.10049863159656525,
          -0.4176819622516632,
          -0.04831079766154289,
          0.42796993255615234,
          -0.05529822036623955,
          -0.2422959804534912,
          -0.8387901782989502,
          0.4041873812675476,
          0.20468242466449738,
          1.7176220417022705,
          -1.2715446949005127,
          0.43330395221710205,
          -0.6729170680046082,
          -0.26473143696784973,
          1.084366798400879,
          -0.9486895799636841,
          -0.10809919983148575,
          0.5078397989273071,
          -1.2923412322998047,
          1.4271531105041504,
          -1.3353631496429443,
          -0.9319993853569031,
          0.9093436598777771,
          -0.6624491214752197,
          0.9969715476036072,
          -0.07076205313205719,
          -1.1144235134124756,
          -1.4215221405029297,
          0.8610976934432983,
          0.5932019352912903,
          -0.5571049451828003,
          -0.23417606949806213,
          -0.7904955148696899,
          -1.4527130126953125,
          0.4640721082687378,
          -0.9043142795562744,
          -1.0034427642822266,
          -0.2743212878704071,
          -0.4351992905139923,
          -0.43439799547195435,
          0.19645234942436218,
          -0.8031333684921265,
          0.5086663365364075,
          -0.5184102654457092,
          0.508466899394989,
          0.017906036227941513,
          -0.8798094987869263,
          -0.2806360721588135,
          0.12883123755455017,
          0.40957826375961304,
          -0.11278305947780609,
          0.06356607377529144,
          0.8593377470970154,
          -0.6159310936927795,
          0.3964908719062805,
          -0.27078473567962646,
          0.3568114936351776,
          0.0971657782793045,
          -0.3256770074367523,
          0.3509463369846344,
          0.006053541321307421,
          0.1614096313714981,
          1.5302870273590088,
          0.3652041554450989,
          0.4457622170448303,
          -0.9979220628738403,
          -0.8374038338661194,
          -0.5663579702377319,
          -1.476897954940796,
          0.3658486604690552,
          0.20000551640987396,
          -1.0066949129104614,
          -1.094095230102539,
          0.4795152246952057,
          0.6554333567619324,
          -1.0592339038848877,
          -0.5618342161178589,
          -0.1414887011051178,
          -0.5236186385154724,
          0.5582627654075623,
          -0.33961012959480286,
          -0.3556847870349884,
          0.11038099229335785,
          -0.5075246691703796,
          2.0317249298095703,
          0.20691213011741638,
          -0.7558227181434631,
          -0.6651787757873535,
          0.4331400394439697,
          0.41173961758613586,
          0.027997072786092758,
          0.17875362932682037,
          -0.29522785544395447,
          -0.579842746257782,
          0.24977517127990723,
          -0.034864190965890884,
          0.9219361543655396,
          0.46626484394073486,
          -0.12180086970329285,
          0.09925864636898041,
          -0.07181836664676666,
          0.5839194655418396,
          0.7419070601463318,
          1.1737804412841797,
          0.7555115222930908,
          -0.41487938165664673,
          -0.5177406668663025,
          -0.04672137647867203,
          0.16443733870983124,
          0.9315676689147949,
          -0.67924565076828,
          0.009353970177471638,
          -0.151190847158432,
          0.008721877820789814,
          0.6297520399093628,
          -0.4081548750400543,
          -0.07564545422792435,
          -0.24893330037593842,
          -0.6192952990531921,
          0.3757783770561218,
          -0.41959020495414734,
          0.19874782860279083,
          1.1254650354385376,
          0.542624294757843,
          0.5930748581886292,
          -0.5207383036613464,
          -0.07344784587621689,
          -0.8868039846420288,
          0.8059598207473755,
          0.5249277949333191,
          0.3645729720592499,
          -0.5916389226913452,
          0.13126599788665771,
          -0.3389330208301544,
          -0.24302296340465546,
          -0.6533003449440002,
          -0.5579850673675537,
          -0.6470127105712891,
          0.3707311749458313,
          -0.2628139853477478,
          0.023996159434318542,
          -0.5302858948707581,
          -0.2913631498813629,
          -0.8628561496734619,
          -0.2198760062456131,
          -0.22462323307991028,
          -0.5112525820732117,
          1.6572641134262085,
          0.6677079200744629,
          0.259098082780838,
          1.432784914970398,
          -1.2393789291381836,
          -0.685020923614502,
          0.6688525080680847,
          0.6102103590965271,
          -0.2163887917995453,
          -0.547797441482544,
          1.0377355813980103,
          -0.6662624478340149,
          0.8450426459312439,
          0.44078484177589417,
          0.5965894460678101,
          0.45549440383911133,
          -0.6303117275238037,
          0.3607212007045746,
          0.24439120292663574,
          -0.45267435908317566,
          0.04153569042682648,
          0.44590428471565247,
          0.6478371620178223,
          -0.824906587600708,
          0.4509080946445465,
          0.8505274057388306,
          -0.5653313994407654,
          0.2692109942436218,
          -0.9268959164619446,
          0.5320745706558228,
          -0.4345785081386566,
          -0.2890680432319641,
          0.802105724811554,
          0.6331213712692261,
          0.09967327117919922,
          0.22334735095500946,
          -0.2554929852485657,
          0.26795709133148193,
          -0.3340327739715576,
          0.2831042408943176,
          0.7231147885322571,
          0.015515091829001904,
          0.202059805393219,
          -1.1678967475891113,
          0.47077450156211853,
          1.5513938665390015,
          -1.126389741897583,
          0.42785319685935974,
          -0.1688171923160553,
          -0.7535520195960999,
          -0.6261295080184937,
          0.5177339315414429,
          -1.2123446464538574,
          -0.771715521812439,
          0.5496352314949036,
          -0.16132549941539764,
          -0.8469216227531433,
          -0.541445791721344,
          0.26663142442703247,
          -0.27574601769447327,
          0.11335139721632004,
          -0.4073571562767029,
          0.35421162843704224,
          1.0431926250457764,
          -1.1009424924850464,
          0.6000672578811646,
          1.5653094053268433,
          1.0476728677749634,
          0.45233726501464844,
          -0.884308934211731,
          0.20285996794700623,
          -0.8792172074317932,
          -0.21387356519699097,
          -2.0016162395477295,
          -0.4751771092414856,
          -0.06149589642882347,
          0.4968421757221222,
          0.2418222427368164,
          0.7366856932640076,
          -1.0222828388214111,
          0.38922837376594543,
          1.1635531187057495,
          0.7281175255775452,
          0.7528810501098633,
          -0.21677933633327484,
          0.8663945198059082,
          -1.0719307661056519,
          0.1799602210521698,
          -0.19529838860034943,
          0.35968372225761414,
          -0.37597617506980896,
          0.22949500381946564,
          0.6212711334228516,
          1.0475423336029053,
          -0.6580651998519897,
          0.5431980490684509,
          0.5020929574966431,
          -0.05929521471261978,
          -0.0053759291768074036,
          0.5810645222663879,
          0.04798785597085953,
          0.3092471957206726,
          0.8854221105575562,
          0.1828235387802124,
          0.4354681074619293,
          -1.1802771091461182,
          1.6786365509033203,
          0.347566694021225,
          0.26714831590652466,
          -0.9366527199745178,
          0.9361445903778076,
          -0.2984796464443207,
          -0.018759578466415405,
          0.16993555426597595,
          0.377317875623703,
          0.5409466624259949,
          -0.49982836842536926,
          0.17982442677021027,
          -0.40750017762184143,
          0.08356157690286636,
          0.15093478560447693,
          -0.28580906987190247,
          0.9122949242591858,
          -0.43822649121284485,
          0.06075676158070564,
          0.2201559692621231,
          0.20475830137729645,
          0.7501780986785889,
          -0.23493464291095734,
          0.4343361258506775,
          -0.31627362966537476,
          -0.5242064595222473,
          0.24789951741695404,
          -0.3878536820411682,
          0.48250001668930054,
          0.1539963185787201,
          0.6090149879455566,
          0.3585706949234009,
          -0.21281379461288452,
          -1.4702671766281128,
          0.4803334176540375,
          0.2706175148487091,
          0.27689751982688904,
          -0.8315716981887817,
          -1.2840826511383057,
          -0.3654595613479614,
          -1.0540448427200317,
          0.5218439102172852,
          -1.345467209815979,
          -0.04920412227511406,
          0.5257667899131775,
          -0.32364240288734436,
          1.4813159704208374,
          0.07774549722671509,
          -0.0907912328839302,
          0.229720801115036,
          0.5143657922744751,
          0.32984086871147156,
          -0.02873549982905388,
          0.5570101141929626,
          -0.05354348570108414,
          -1.0157719850540161,
          -0.3955395817756653,
          -0.22542579472064972,
          -0.15256181359291077,
          -1.4389771223068237,
          0.02089572511613369,
          -0.017791705206036568,
          -0.17194819450378418,
          0.8439116477966309,
          0.7291908860206604,
          0.5715646147727966,
          0.40390047430992126,
          0.19198063015937805,
          0.8071718215942383,
          -0.08749672770500183,
          -1.2354925870895386,
          0.1961788535118103,
          -0.06496146321296692,
          1.0001548528671265,
          -0.5912701487541199,
          0.3165111541748047,
          0.7948043346405029,
          -0.960426926612854,
          0.37702038884162903,
          0.5705858469009399,
          1.5040392875671387,
          0.5359189510345459,
          0.15304499864578247,
          -0.8316329121589661,
          1.053328275680542,
          -0.3699314594268799,
          0.39219722151756287,
          0.5943754315376282,
          -0.6054291129112244,
          0.2399674952030182,
          0.13100025057792664,
          0.6806848645210266,
          -0.16032958030700684
        ]
      },
      "inputBias": {
        "rows": 20,
        "columns": 1,
        "weights": [
          -1.1761541366577148,
          0.4824855625629425,
          1.045303463935852,
          0.295830637216568,
          0.13156144320964813,
          0.5975659489631653,
          -0.344655841588974,
          -0.5273767113685608,
          0.34263885021209717,
          0.02159813977777958,
          -0.5741584300994873,
          -0.2836713492870331,
          0.38007456064224243,
          0.4341421127319336,
          0.4481407105922699,
          0.5808610320091248,
          -0.047816358506679535,
          -0.3876924514770508,
          0.3376867175102234,
          -0.13642242550849915
        ]
      },
      "forgetMatrix": {
        "rows": 20,
        "columns": 20,
        "weights": [
          -1.1706699132919312,
          0.8760226368904114,
          -0.7495096325874329,
          1.1245701313018799,
          -0.2953747510910034,
          0.08307983726263046,
          -2.030379056930542,
          -0.23272034525871277,
          1.8265644311904907,
          0.5168348550796509,
          -0.21166011691093445,
          0.6690865755081177,
          1.0274629592895508,
          -2.6488311290740967,
          -0.8907648324966431,
          1.144284963607788,
          1.9529982805252075,
          0.5354592800140381,
          0.4930275082588196,
          0.010316360741853714,
          0.9171438217163086,
          0.742177426815033,
          -0.2950385510921478,
          0.4001139998435974,
          0.12041101604700089,
          -0.7884551882743835,
          0.10808759927749634,
          0.12356071174144745,
          0.23963779211044312,
          0.05590621009469032,
          -0.7363442778587341,
          -0.14234617352485657,
          -0.1252301037311554,
          -0.22390156984329224,
          -0.025361251085996628,
          -0.36194753646850586,
          -0.5353007912635803,
          -0.009119784459471703,
          0.6484028100967407,
          -0.052586764097213745,
          -0.09120646864175797,
          0.5961331725120544,
          -0.42474251985549927,
          -0.5345605611801147,
          -0.32802054286003113,
          -0.2727605998516083,
          0.5025187134742737,
          -0.2586551010608673,
          0.6681353449821472,
          0.9880663156509399,
          -0.11307097971439362,
          -0.31707367300987244,
          0.050891000777482986,
          -0.5522953271865845,
          0.5507927536964417,
          -0.5581862330436707,
          0.5309434533119202,
          0.04702569171786308,
          0.2998085021972656,
          0.27482306957244873,
          0.559711754322052,
          -0.19429731369018555,
          0.19118434190750122,
          0.5096253156661987,
          -0.20208363234996796,
          0.7803840637207031,
          -0.5345598459243774,
          -0.345005065202713,
          -0.14540475606918335,
          -0.5006338953971863,
          0.20436900854110718,
          -0.41516947746276855,
          0.16104012727737427,
          0.5654429197311401,
          -0.4064193665981293,
          0.0576973594725132,
          -0.010699178092181683,
          -1.3648401498794556,
          -0.3910829424858093,
          -0.045178961008787155,
          -0.5773107409477234,
          -0.629266619682312,
          -0.05200997367501259,
          -0.284382700920105,
          -0.9651955366134644,
          -0.006500802002847195,
          0.4356917142868042,
          -0.31354662775993347,
          -0.14634838700294495,
          0.56512051820755,
          -0.7179049253463745,
          0.4189683198928833,
          0.06742482632398605,
          1.3122990131378174,
          0.006518757902085781,
          0.01679709553718567,
          -0.5469922423362732,
          0.010931583121418953,
          1.6438943147659302,
          1.414572834968567,
          -0.2178160697221756,
          -0.23696120083332062,
          0.7105989456176758,
          -0.475995808839798,
          -0.023208605125546455,
          -1.0594717264175415,
          0.16986048221588135,
          -0.34586164355278015,
          -0.0467044897377491,
          0.7290246486663818,
          -0.41773882508277893,
          0.7017794847488403,
          0.5690736174583435,
          -0.6586365699768066,
          -0.2858811914920807,
          -0.7696759700775146,
          -0.2781619727611542,
          -0.8613634705543518,
          -0.2121942788362503,
          -0.8733096718788147,
          1.74297297000885,
          -0.969769299030304,
          0.19400034844875336,
          0.8096870183944702,
          0.5345249176025391,
          -0.12197427451610565,
          0.9859469532966614,
          1.9803566932678223,
          0.6760041117668152,
          0.828311026096344,
          -1.1062207221984863,
          -0.4042135179042816,
          0.0330551341176033,
          -1.015061855316162,
          -0.18307986855506897,
          0.09798065572977066,
          -0.8374394178390503,
          0.4340895414352417,
          1.7000586986541748,
          0.05037917569279671,
          -0.5260430574417114,
          0.01816735602915287,
          0.08630163967609406,
          -1.0471100807189941,
          0.23233051598072052,
          0.5529820919036865,
          0.469929039478302,
          -0.17100608348846436,
          0.006689881440252066,
          -1.4169175624847412,
          -0.3625093698501587,
          -0.5591164231300354,
          0.6548004150390625,
          -0.05803346633911133,
          -0.8342189192771912,
          -0.2732364535331726,
          -0.7352851629257202,
          0.7034321427345276,
          -0.049550313502550125,
          -0.11794963479042053,
          0.1368262767791748,
          0.3831077516078949,
          0.04363509267568588,
          -0.3998681604862213,
          0.4567791223526001,
          -0.15423282980918884,
          0.07555466890335083,
          -0.39594241976737976,
          -0.6426092386245728,
          0.09397880733013153,
          0.5574308037757874,
          -0.6796280741691589,
          -0.050537049770355225,
          0.8364294171333313,
          0.030969681218266487,
          0.0076705217361450195,
          -0.34429648518562317,
          0.5380765199661255,
          -0.18412722647190094,
          -0.2946966886520386,
          0.681885302066803,
          -0.02263822592794895,
          0.04604632779955864,
          0.5512513518333435,
          0.10562341660261154,
          -0.3130577504634857,
          -0.20913276076316833,
          -0.9466395378112793,
          0.36070045828819275,
          1.864429235458374,
          0.3279291093349457,
          0.4189010560512543,
          0.14710986614227295,
          -1.8986433744430542,
          -0.002301942789927125,
          0.9802983999252319,
          1.6534498929977417,
          -0.5191913843154907,
          0.40691760182380676,
          0.25244224071502686,
          -0.1381610780954361,
          -0.48610207438468933,
          -0.3444942235946655,
          -1.3179394006729126,
          -0.8237516283988953,
          0.34435904026031494,
          -0.26033538579940796,
          -0.25773489475250244,
          -0.03136257827281952,
          -0.15963749587535858,
          -0.2641512155532837,
          0.030621659010648727,
          -0.5475603938102722,
          0.5012698769569397,
          -0.3577779531478882,
          -1.711354374885559,
          -1.2564582824707031,
          -0.9104511141777039,
          -0.8256611824035645,
          -0.3349645435810089,
          0.6968021392822266,
          -0.3179406225681305,
          -0.3459260165691376,
          0.07372406870126724,
          0.6186908483505249,
          0.05734090507030487,
          0.01394740492105484,
          -0.5831190943717957,
          0.9002214074134827,
          -0.6958234906196594,
          -0.9400636553764343,
          -0.17316214740276337,
          1.0942448377609253,
          -0.6825146079063416,
          0.09734556078910828,
          -0.008836784400045872,
          0.6020139455795288,
          -1.634871006011963,
          -1.1380610466003418,
          0.10164296627044678,
          1.2828770875930786,
          0.03541195020079613,
          -0.9216064214706421,
          0.7751666307449341,
          -0.2167331576347351,
          0.12807337939739227,
          -1.0200207233428955,
          -0.0820760503411293,
          0.05809669569134712,
          -0.2712034285068512,
          0.8824781775474548,
          0.014177604578435421,
          0.8947226405143738,
          0.4664350152015686,
          -0.44259077310562134,
          -0.027498843148350716,
          -1.7830886840820312,
          0.023798175156116486,
          0.31212684512138367,
          -0.7944299578666687,
          0.16545554995536804,
          -1.228118658065796,
          0.21096369624137878,
          -0.10335298627614975,
          0.337836354970932,
          -0.7173407077789307,
          0.2348104566335678,
          0.4032735824584961,
          0.18357032537460327,
          -0.7688989043235779,
          -0.5039520859718323,
          0.823082447052002,
          0.21734866499900818,
          -1.560302972793579,
          -1.2028331756591797,
          0.7535774111747742,
          2.3845887184143066,
          -0.42572546005249023,
          0.4424269497394562,
          0.2571965456008911,
          -0.10271713882684708,
          1.0203121900558472,
          0.18275219202041626,
          -0.1885944902896881,
          0.4535866677761078,
          0.016283497214317322,
          -0.07528675347566605,
          -0.3328890800476074,
          -0.5026721954345703,
          0.14746131002902985,
          1.6761075258255005,
          0.268458753824234,
          -0.4306512773036957,
          -0.6281777024269104,
          -0.21880847215652466,
          -0.8038126230239868,
          -0.2480393648147583,
          -0.25197529792785645,
          0.6611233353614807,
          0.83084636926651,
          1.4504435062408447,
          -0.5881635546684265,
          0.48394009470939636,
          0.4687871038913727,
          0.4192495048046112,
          -0.49600526690483093,
          -1.1982989311218262,
          -0.8667545318603516,
          -0.19006134569644928,
          1.3216276168823242,
          0.7966196537017822,
          -0.5044280290603638,
          -0.3489757776260376,
          -0.40535974502563477,
          -0.30852529406547546,
          0.9281380772590637,
          -0.4802786111831665,
          0.5722224116325378,
          0.3386048376560211,
          -0.6038378477096558,
          -0.17022690176963806,
          0.5561654567718506,
          -0.7236489057540894,
          -0.14646533131599426,
          0.8954625725746155,
          0.5660367012023926,
          -0.09175577014684677,
          -0.6043306589126587,
          -0.20100922882556915,
          -0.12069343030452728,
          0.416905015707016,
          -0.3496752679347992,
          0.2509543001651764,
          1.273208498954773,
          0.2963835895061493,
          0.14943091571331024,
          0.404229998588562,
          -0.028422852978110313,
          -1.2072240114212036,
          -0.26975512504577637,
          -0.06627063453197479,
          -0.6719549298286438,
          0.31577587127685547,
          -0.558523416519165,
          0.180368572473526,
          -0.18137989938259125,
          -0.5029882788658142,
          -0.5748881101608276,
          -0.4355791509151459,
          -0.5992143750190735,
          -0.21139231324195862,
          0.6100209951400757,
          0.24528668820858002,
          1.5484910011291504,
          0.07458528876304626,
          1.0552139282226562,
          -0.0692644938826561,
          -0.3497150242328644,
          -0.2472410351037979,
          0.5221129059791565,
          -0.6434223055839539,
          0.05597794055938721,
          0.0973028838634491,
          0.44341886043548584,
          -0.27941784262657166,
          -0.3874070644378662,
          -0.6241155862808228,
          0.2594507336616516,
          -0.437587171792984,
          1.8846315145492554,
          1.126819372177124,
          -1.962907314300537,
          0.48818546533584595,
          0.5645277500152588,
          0.3135034143924713,
          0.2086312174797058,
          -0.5867517590522766,
          -0.5215166807174683,
          0.273587167263031,
          -0.305040180683136,
          -0.30404701828956604,
          -1.1648190021514893,
          0.6823237538337708,
          -0.23040886223316193,
          -0.2941962480545044,
          1.0224725008010864,
          0.3897130489349365,
          -1.3945879936218262,
          -0.08613669872283936,
          -0.4716964066028595,
          0.25813600420951843,
          -0.14142858982086182,
          0.7792338728904724,
          0.359759122133255,
          0.8752933740615845,
          -0.37784698605537415,
          -0.6669647097587585,
          0.4740029573440552,
          -0.4683111310005188,
          -0.3359994888305664
        ]
      },
      "forgetHidden": {
        "rows": 20,
        "columns": 20,
        "weights": [
          -0.31384238600730896,
          0.4465290904045105,
          -0.805665135383606,
          0.7525267601013184,
          1.4700137376785278,
          -0.15402255952358246,
          -0.5423260927200317,
          0.09822241961956024,
          0.13662214577198029,
          0.16233666241168976,
          -0.2735423445701599,
          0.22383834421634674,
          -0.41911792755126953,
          -0.7466759085655212,
          0.3700748383998871,
          1.3019473552703857,
          0.12194136530160904,
          -1.281062126159668,
          -0.814031720161438,
          0.36943358182907104,
          -0.8246095776557922,
          -0.4710637032985687,
          0.5962892174720764,
          -0.1826726794242859,
          -0.29581135511398315,
          0.49939706921577454,
          0.07409300655126572,
          -0.3357362747192383,
          0.0342874750494957,
          -0.07743453979492188,
          0.5523867011070251,
          0.18385231494903564,
          0.058461759239435196,
          0.08629393577575684,
          0.2507023215293884,
          0.15475712716579437,
          0.7764507532119751,
          -0.9921576976776123,
          -0.1037869080901146,
          -0.7470946907997131,
          0.41179919242858887,
          -0.34377244114875793,
          0.7900949716567993,
          0.3980225622653961,
          0.15657100081443787,
          0.37411797046661377,
          0.005525441840291023,
          -1.1635323762893677,
          -0.16890093684196472,
          0.0338057242333889,
          -0.8361350297927856,
          0.36029252409935,
          0.17613287270069122,
          -0.11399244517087936,
          0.6290722489356995,
          -0.39837586879730225,
          -0.1592966914176941,
          -0.3023061156272888,
          -0.4094613790512085,
          0.10270751267671585,
          -0.05332748219370842,
          -0.663806676864624,
          0.8849298357963562,
          -0.13438180088996887,
          0.19366170465946198,
          0.8864533305168152,
          -0.1580381691455841,
          0.9600667357444763,
          0.317577987909317,
          0.1827217936515808,
          0.895607590675354,
          1.1997970342636108,
          0.16259455680847168,
          0.43631768226623535,
          -0.15755893290042877,
          0.42192888259887695,
          -0.15672540664672852,
          0.23775915801525116,
          -0.15360285341739655,
          0.2857230007648468,
          0.3380868136882782,
          -0.07524944096803665,
          0.17765170335769653,
          -0.04195345565676689,
          -0.5102828145027161,
          -0.5812656879425049,
          -0.19040855765342712,
          -0.5554471015930176,
          -0.19641529023647308,
          1.0703256130218506,
          0.3982846140861511,
          0.25247544050216675,
          0.2708280384540558,
          -0.363047331571579,
          0.15749599039554596,
          -0.3286586403846741,
          -0.1341550648212433,
          0.6936817169189453,
          0.9085549712181091,
          0.6707760691642761,
          0.3585895895957947,
          0.2096131592988968,
          -0.0544293075799942,
          -0.005028286017477512,
          0.9044138789176941,
          -0.8037910461425781,
          -1.1557010412216187,
          -0.5955961346626282,
          0.23013421893119812,
          0.1077025905251503,
          -0.921286404132843,
          -0.6386757493019104,
          -0.21563805639743805,
          -0.03755512461066246,
          0.24592384696006775,
          -0.044076282531023026,
          0.02892935834825039,
          0.03192298114299774,
          0.5032898783683777,
          -0.15284337103366852,
          -0.38008877635002136,
          -0.638698935508728,
          -0.03514735773205757,
          0.01661437191069126,
          0.3736165761947632,
          -1.7981714010238647,
          -0.8639192581176758,
          0.47706732153892517,
          -0.06672030687332153,
          0.014772028662264347,
          0.3612113893032074,
          -0.3588499426841736,
          -0.3937937617301941,
          0.3224520683288574,
          -0.1990489363670349,
          -0.08872967958450317,
          -0.0193928349763155,
          0.12892559170722961,
          0.930541455745697,
          0.16953347623348236,
          -0.38011041283607483,
          -0.07526631653308868,
          0.31659838557243347,
          -0.04003371670842171,
          -0.43441829085350037,
          -0.3262307345867157,
          0.3383654057979584,
          -0.6354398727416992,
          0.012818084098398685,
          -0.723288357257843,
          -0.007643570192158222,
          0.7194017767906189,
          0.23880206048488617,
          0.4044138789176941,
          0.30028846859931946,
          0.2747798562049866,
          -0.0721626877784729,
          0.1754642277956009,
          0.044190019369125366,
          -0.14407400786876678,
          0.13797666132450104,
          0.00037328992038965225,
          -0.1906397044658661,
          0.12265180796384811,
          0.04059136286377907,
          0.5165346264839172,
          1.1750824451446533,
          -0.36025747656822205,
          0.17198219895362854,
          0.12968312203884125,
          0.31507405638694763,
          0.009808064438402653,
          0.22932440042495728,
          0.08000070601701736,
          -0.242270827293396,
          0.616096556186676,
          0.44242456555366516,
          0.10955217480659485,
          -0.18920662999153137,
          -0.17591847479343414,
          -0.36550450325012207,
          -0.6754310131072998,
          -0.16375038027763367,
          -0.09356267005205154,
          0.04273929446935654,
          -0.375505656003952,
          0.6266705393791199,
          0.03810129314661026,
          -0.19324852526187897,
          -0.18564091622829437,
          -0.4051210582256317,
          -0.2777860164642334,
          0.29176077246665955,
          0.0690852627158165,
          -0.20174260437488556,
          0.683208703994751,
          0.07977980375289917,
          -0.503108561038971,
          -0.040823377668857574,
          -0.5737699866294861,
          -0.018608400598168373,
          0.8257746696472168,
          0.35121315717697144,
          0.21303588151931763,
          0.9873322248458862,
          -0.07858742773532867,
          0.1469193398952484,
          0.11641225218772888,
          0.18550080060958862,
          0.08347714692354202,
          0.12677480280399323,
          0.5685701370239258,
          0.050312627106904984,
          -0.15318691730499268,
          0.5240216851234436,
          0.8120690584182739,
          0.0798029750585556,
          0.5814703702926636,
          0.15303762257099152,
          -0.33475375175476074,
          -0.17344443500041962,
          0.5631102919578552,
          -0.6348488330841064,
          -0.17438721656799316,
          -0.06920504570007324,
          -0.17861881852149963,
          -0.5538769364356995,
          1.3328107595443726,
          -0.23491451144218445,
          -0.0241532064974308,
          -1.0838807821273804,
          0.17661051452159882,
          -0.18044203519821167,
          -0.46984854340553284,
          -0.38157910108566284,
          -0.1373002827167511,
          -0.1671985685825348,
          -0.7119112610816956,
          0.3720078766345978,
          -0.17238952219486237,
          0.1785070151090622,
          1.9554001092910767,
          -0.27721646428108215,
          0.5172784328460693,
          -0.5024799704551697,
          0.8672045469284058,
          1.2678393125534058,
          -1.1265209913253784,
          0.4174199104309082,
          -0.11835769563913345,
          -0.003781950334087014,
          0.5505263209342957,
          -0.00239714072085917,
          0.825014054775238,
          0.1900411993265152,
          -0.3555760681629181,
          0.01576876826584339,
          -0.720698893070221,
          -0.5958226323127747,
          0.14526349306106567,
          -0.4168718457221985,
          -0.2916201651096344,
          1.0025269985198975,
          0.0032543810084462166,
          0.06729559600353241,
          -0.22486034035682678,
          0.49132534861564636,
          -0.8691495656967163,
          0.3555968105792999,
          0.012269156984984875,
          0.17325633764266968,
          1.0086439847946167,
          -0.2932910919189453,
          0.45271143317222595,
          -0.3388214707374573,
          0.15813490748405457,
          0.1994200199842453,
          -0.3508741855621338,
          0.16895374655723572,
          -0.35771235823631287,
          -0.22204935550689697,
          -0.7939785122871399,
          1.2547634840011597,
          -0.15813107788562775,
          0.6736937165260315,
          -1.0376908779144287,
          0.05334949865937233,
          -0.8989490866661072,
          -0.2945490777492523,
          -0.7015422582626343,
          -0.3453108072280884,
          -1.6296424865722656,
          -0.0634077712893486,
          0.2440238744020462,
          -0.4809249937534332,
          -0.21313172578811646,
          -0.5065435767173767,
          -0.6941994428634644,
          0.637029230594635,
          0.2582167088985443,
          0.4761469066143036,
          -0.4316609501838684,
          0.463527649641037,
          0.5732089877128601,
          0.07174700498580933,
          0.16080544888973236,
          0.05457663536071777,
          0.03278559446334839,
          0.2450857311487198,
          0.26380467414855957,
          0.966880202293396,
          0.5321291089057922,
          -0.6559857130050659,
          -0.6033474206924438,
          -0.24163681268692017,
          0.21493461728096008,
          0.33518725633621216,
          0.9735308885574341,
          0.6388368606567383,
          0.4322163462638855,
          -0.09629764407873154,
          -0.012196849100291729,
          -0.6042143106460571,
          0.10655730217695236,
          0.962621808052063,
          0.9215053915977478,
          0.18809255957603455,
          0.2358814924955368,
          0.2460213303565979,
          0.3200196623802185,
          1.1228326559066772,
          -0.80266934633255,
          0.17803198099136353,
          -0.08466064184904099,
          -0.21939717233181,
          1.1990357637405396,
          0.346337229013443,
          0.4344302713871002,
          -0.5517169833183289,
          0.3962559401988983,
          -0.07876866310834885,
          -0.5531750917434692,
          -0.06851206719875336,
          -0.5529857277870178,
          0.39893364906311035,
          -0.845199704170227,
          0.18301799893379211,
          0.39792919158935547,
          0.0497698150575161,
          -0.1764657199382782,
          -0.9551573991775513,
          -0.6224973797798157,
          -0.05523974448442459,
          0.03301401436328888,
          -1.5515363216400146,
          0.2226428985595703,
          -0.32310518622398376,
          -0.33833545446395874,
          0.42823976278305054,
          0.09194209426641464,
          -0.23129145801067352,
          -0.5302449464797974,
          -0.8532049059867859,
          -0.44992712140083313,
          -2.127835512161255,
          0.19595123827457428,
          -0.747684121131897,
          -0.15575027465820312,
          -0.23101837933063507,
          -0.8337003588676453,
          1.0243072509765625,
          -0.17618423700332642,
          0.3929018974304199,
          -0.05608200654387474,
          -0.15055306255817413,
          0.055458929389715195,
          -0.2509128749370575,
          -0.39252984523773193,
          0.38408827781677246,
          0.2663625478744507,
          0.6523491740226746,
          -0.6710641384124756,
          0.9326806664466858,
          -0.20278602838516235,
          -1.0223073959350586,
          0.06785451620817184,
          0.6547917127609253,
          0.5892453789710999,
          0.02531513012945652,
          0.06117904931306839,
          0.6869418621063232,
          0.14103850722312927,
          -0.1867513656616211,
          -0.12579688429832458,
          -0.3502236604690552,
          0.7967899441719055,
          0.012739642523229122,
          1.033779501914978,
          0.7999947667121887,
          0.2398662120103836
        ]
      },
      "forgetBias": {
        "rows": 20,
        "columns": 1,
        "weights": [
          0,
          0,
          0,
          0,
          0,
          0,
          0,
          0,
          0,
          0,
          0,
          0,
          0,
          0,
          0,
          0,
          0,
          0,
          0,
          0
        ]
      },
      "outputMatrix": {
        "rows": 20,
        "columns": 20,
        "weights": [
          0.11740126460790634,
          1.7048804759979248,
          -0.5803391337394714,
          0.6409980654716492,
          -0.5797845125198364,
          0.25545769929885864,
          0.2012183964252472,
          0.8076266050338745,
          2.839266538619995,
          0.2516598701477051,
          -0.3164445757865906,
          -0.1681923270225525,
          1.6485228538513184,
          -1.9207141399383545,
          -1.366856575012207,
          0.13784123957157135,
          2.121506452560425,
          -0.9156695008277893,
          1.3302602767944336,
          0.7355945706367493,
          0.6834084391593933,
          0.9061142802238464,
          -0.5366123914718628,
          0.012195047922432423,
          -0.13230837881565094,
          0.30763736367225647,
          -0.11562945693731308,
          0.6691014766693115,
          1.3857978582382202,
          -0.5674120187759399,
          -0.6128840446472168,
          -0.6704754829406738,
          -0.17415669560432434,
          -0.731855034828186,
          -0.938534140586853,
          1.385029673576355,
          -1.7885384559631348,
          -0.7620781064033508,
          1.3976221084594727,
          1.635764479637146,
          1.3377513885498047,
          0.8664730191230774,
          -1.0541890859603882,
          0.15907008945941925,
          -0.1406886875629425,
          -0.10929935425519943,
          1.2990376949310303,
          1.1458144187927246,
          1.5427772998809814,
          0.9011706709861755,
          -1.131011962890625,
          -0.8122381567955017,
          1.2388907670974731,
          0.8220388293266296,
          -0.7384216785430908,
          2.152705669403076,
          1.4648879766464233,
          -0.6617130637168884,
          1.257860541343689,
          1.4261224269866943,
          -0.13440270721912384,
          0.35152238607406616,
          -0.749748706817627,
          -0.17289912700653076,
          -0.5184236764907837,
          0.14265930652618408,
          0.27677515149116516,
          -0.24102945625782013,
          0.3407902121543884,
          -0.17034976184368134,
          -0.3582237660884857,
          -0.3067605793476105,
          0.34648165106773376,
          -0.3580787777900696,
          -0.35444748401641846,
          0.18136467039585114,
          0.4306759834289551,
          -0.6573393940925598,
          0.3488036096096039,
          0.46907860040664673,
          -0.7379010915756226,
          -1.1299782991409302,
          -0.8356372117996216,
          1.3321986198425293,
          0.17952688038349152,
          0.6338438987731934,
          1.094294548034668,
          0.1391419619321823,
          0.9058719277381897,
          1.3582069873809814,
          -0.4724074602127075,
          -0.09435289353132248,
          -0.5222889184951782,
          -0.013603219762444496,
          1.0382534265518188,
          0.5087265372276306,
          1.6568303108215332,
          -0.2761799097061157,
          -0.26829537749290466,
          1.086475133895874,
          -1.0297619104385376,
          0.5748315453529358,
          -0.3947257995605469,
          -0.2385713905096054,
          0.26366376876831055,
          -0.40817710757255554,
          1.0232853889465332,
          -0.8067869544029236,
          0.43838056921958923,
          -0.8030633926391602,
          -0.02389826625585556,
          0.0888291448354721,
          1.02663254737854,
          -1.08359694480896,
          -0.5862839818000793,
          0.14700308442115784,
          0.35345351696014404,
          -0.6133267879486084,
          0.17059697210788727,
          0.5082722902297974,
          0.6837034821510315,
          1.671647310256958,
          -1.4356578588485718,
          -0.20604673027992249,
          0.02441115863621235,
          0.7190409302711487,
          -0.9511018991470337,
          0.10283438861370087,
          -0.6138451099395752,
          0.649210512638092,
          0.42245596647262573,
          -0.2739188075065613,
          0.5598401427268982,
          -1.2025429010391235,
          -0.4581586718559265,
          -0.48045918345451355,
          1.4434576034545898,
          1.1644871234893799,
          1.545961618423462,
          0.19963788986206055,
          -0.2708524465560913,
          -0.05151798203587532,
          -0.43734654784202576,
          -0.8382107019424438,
          0.5418823957443237,
          0.4346364140510559,
          1.158397912979126,
          -0.37190258502960205,
          1.0748144388198853,
          -0.5559042096138,
          -0.4724438190460205,
          -1.2005144357681274,
          -0.4607302248477936,
          -0.2907004654407501,
          -0.7632652521133423,
          0.30842265486717224,
          -0.8978679180145264,
          0.29157310724258423,
          0.9646818041801453,
          0.5939145684242249,
          -0.17427612841129303,
          0.26125025749206543,
          -0.272530734539032,
          -0.41513386368751526,
          -0.47704190015792847,
          0.16033141314983368,
          0.3402872681617737,
          -0.11744913458824158,
          0.35748913884162903,
          0.329664021730423,
          -0.5532271265983582,
          -0.20935319364070892,
          0.2405969500541687,
          -0.5454531311988831,
          -0.7032290101051331,
          0.21151196956634521,
          0.7400878667831421,
          -0.3782980442047119,
          0.5814608335494995,
          0.40256476402282715,
          0.289948970079422,
          0.8633450269699097,
          -0.6923021078109741,
          0.7152236104011536,
          0.6148050427436829,
          0.28423649072647095,
          0.4079965353012085,
          0.8321623802185059,
          1.769561767578125,
          1.2521556615829468,
          -1.2504667043685913,
          -0.046802546828985214,
          1.1644028425216675,
          -1.1689802408218384,
          -2.0705676078796387,
          1.3832236528396606,
          1.4414476156234741,
          -2.256303310394287,
          0.1548001766204834,
          0.062254827469587326,
          -0.42444083094596863,
          -0.5832456946372986,
          -0.06003808602690697,
          0.5987070202827454,
          -0.13149429857730865,
          0.6875842213630676,
          -0.22272330522537231,
          -0.465198278427124,
          -0.0729658380150795,
          1.0642542839050293,
          -0.9579521417617798,
          -0.17030145227909088,
          -0.4829300343990326,
          -1.4374274015426636,
          -1.6863752603530884,
          0.6070647239685059,
          -0.28486010432243347,
          -0.6708402633666992,
          0.07629553973674774,
          0.892692506313324,
          0.6580471396446228,
          -0.2986699044704437,
          0.08286962658166885,
          -0.0905301496386528,
          0.297747939825058,
          0.7250677347183228,
          0.00648850342258811,
          -0.6742132902145386,
          -0.1688825786113739,
          -0.3096602261066437,
          -0.0017434682231396437,
          -0.04572918638586998,
          -0.1388656347990036,
          0.27332499623298645,
          -0.27406981587409973,
          -0.9895826578140259,
          0.12568287551403046,
          -0.30889391899108887,
          -0.14464230835437775,
          -0.0871572270989418,
          0.1047576293349266,
          0.2819230258464813,
          -0.10659531503915787,
          -0.9076496958732605,
          -0.5800396203994751,
          0.5136377811431885,
          1.3815745115280151,
          -1.522857666015625,
          -0.2241896092891693,
          -0.03204772248864174,
          0.3731239438056946,
          -0.8414902091026306,
          0.9551743268966675,
          -1.295472502708435,
          -1.082290530204773,
          -0.8464373350143433,
          1.3829911947250366,
          -1.4466979503631592,
          -0.39775142073631287,
          0.19063372910022736,
          -1.5327749252319336,
          0.01128859631717205,
          -1.0100654363632202,
          0.058886248618364334,
          -0.8008701801300049,
          1.0398004055023193,
          0.1896597146987915,
          -0.6647433042526245,
          -0.146224707365036,
          -0.7008022665977478,
          -0.5374560356140137,
          0.3797447681427002,
          -0.28823626041412354,
          0.9221701622009277,
          0.10115996748209,
          -0.36829906702041626,
          0.6592797040939331,
          0.9880741238594055,
          0.09139982610940933,
          0.9058026671409607,
          0.06017918139696121,
          0.03954654186964035,
          -0.313601553440094,
          -1.041306972503662,
          -0.14003583788871765,
          -0.2640724778175354,
          2.0650432109832764,
          -0.7234829664230347,
          0.2506248652935028,
          0.43432173132896423,
          -0.22663664817810059,
          0.12180528044700623,
          0.36212971806526184,
          -0.7827177047729492,
          -1.0976380109786987,
          -0.7207644581794739,
          1.812396764755249,
          -0.11441915482282639,
          0.8120055198669434,
          0.08115815371274948,
          0.7709530591964722,
          1.0055320262908936,
          0.42032483220100403,
          -1.4621636867523193,
          -1.4810234308242798,
          0.6396438479423523,
          0.9806562662124634,
          -0.03710082173347473,
          0.23021988570690155,
          -0.38346612453460693,
          -1.3667536973953247,
          -0.7010995745658875,
          1.9568618535995483,
          -2.7876312732696533,
          0.412411630153656,
          -0.1329643726348877,
          -0.6174920201301575,
          -0.8928127884864807,
          0.04121353477239609,
          0.3383026123046875,
          -0.15701960027217865,
          0.020414533093571663,
          -0.3478434681892395,
          -0.1460103690624237,
          -0.2691847085952759,
          0.8420542478561401,
          0.09864892065525055,
          -0.051518503576517105,
          0.07307512313127518,
          0.4615408182144165,
          0.05938566476106644,
          -0.38340550661087036,
          0.17388923466205597,
          0.006515405606478453,
          -0.127654567360878,
          -0.1301596462726593,
          0.14156268537044525,
          -0.5180782675743103,
          0.10900098085403442,
          0.11268624663352966,
          -0.7730152606964111,
          0.5616583824157715,
          -0.16176274418830872,
          0.6706898808479309,
          -0.16293811798095703,
          2.7441482543945312,
          -0.8674376606941223,
          -0.7849116325378418,
          -0.11647790670394897,
          0.3270024359226227,
          0.250755250453949,
          0.7868972420692444,
          1.0422126054763794,
          0.21206849813461304,
          0.5098941922187805,
          -1.0692137479782104,
          -0.42272067070007324,
          0.013389241881668568,
          0.48484644293785095,
          0.019611436873674393,
          -0.11668543517589569,
          0.5694751739501953,
          -0.5604763627052307,
          -0.995354413986206,
          -0.2285408228635788,
          0.9482364058494568,
          0.7427678108215332,
          0.44177496433258057,
          -0.17530888319015503,
          0.014787296764552593,
          -0.7687589526176453,
          -0.866462767124176,
          -0.5682952404022217,
          -0.38288527727127075,
          -1.2467623949050903,
          0.06630829721689224,
          -0.9251224398612976,
          0.11158374696969986,
          1.161700963973999,
          0.39509284496307373,
          -0.5145161151885986,
          0.52626633644104,
          -0.3630778193473816,
          -1.8570502996444702,
          -1.1151347160339355,
          0.4694836139678955,
          0.5980331897735596,
          -0.08698778599500656,
          0.1879204660654068,
          0.3894750475883484,
          -0.7685429453849792,
          -0.7677351236343384,
          0.6239104270935059,
          -1.3364275693893433,
          -0.9832794070243835,
          0.07368212938308716,
          2.2292113304138184,
          -0.7358292937278748,
          0.2977086305618286,
          0.12039110064506531
        ]
      },
      "outputHidden": {
        "rows": 20,
        "columns": 20,
        "weights": [
          0.5905371308326721,
          0.033956125378608704,
          -0.8785682916641235,
          0.32283490896224976,
          0.952904224395752,
          0.5895180702209473,
          0.1674763411283493,
          0.3494526147842407,
          0.07374276965856552,
          -0.09464427828788757,
          0.19643153250217438,
          0.25174596905708313,
          -0.8824320435523987,
          -0.682877242565155,
          0.6885553598403931,
          -0.33805200457572937,
          0.12745511531829834,
          -0.4864736795425415,
          0.39448538422584534,
          -0.22030885517597198,
          -0.467368483543396,
          1.7474592924118042,
          -0.8776395916938782,
          0.048816364258527756,
          -0.9489074945449829,
          0.08375059068202972,
          -0.04467061907052994,
          -1.1229113340377808,
          0.08787661790847778,
          -1.1662906408309937,
          0.21803849935531616,
          0.24011801183223724,
          0.8861791491508484,
          -0.1575595587491989,
          -0.10922152549028397,
          -1.0237751007080078,
          -0.3870196044445038,
          -1.5593912601470947,
          -1.2698774337768555,
          0.7657148241996765,
          -0.08502185344696045,
          1.2493809461593628,
          -0.38075533509254456,
          -0.6842272281646729,
          0.9832531213760376,
          0.1857842653989792,
          -0.0386633537709713,
          0.297656774520874,
          -0.568879246711731,
          -0.4124760627746582,
          -1.2306666374206543,
          -0.41305702924728394,
          0.19484391808509827,
          0.10415129363536835,
          0.0022983017843216658,
          -0.8838018774986267,
          -0.6374698281288147,
          -0.4335792064666748,
          0.1876460164785385,
          -0.17276887595653534,
          -1.73079514503479,
          -0.0705060362815857,
          -0.1335517317056656,
          1.792542815208435,
          -1.9155454635620117,
          -0.3670341670513153,
          -0.7614333629608154,
          0.18844157457351685,
          2.0119874477386475,
          -1.594841480255127,
          0.4541883170604706,
          -0.1900184452533722,
          -1.685495376586914,
          0.836710512638092,
          -1.089925765991211,
          -0.3570061922073364,
          1.968436598777771,
          0.08507557958364487,
          1.8091765642166138,
          -1.0590109825134277,
          0.08029944449663162,
          -0.5179965496063232,
          0.16650328040122986,
          0.9270656704902649,
          -0.48027503490448,
          1.147127389907837,
          -0.11031460762023926,
          -1.5805890560150146,
          0.43550416827201843,
          0.007715127430856228,
          -0.975411593914032,
          0.3327776789665222,
          -0.3276388943195343,
          -0.45934104919433594,
          0.24574223160743713,
          0.07207538932561874,
          0.8751655220985413,
          0.4259558618068695,
          0.32777976989746094,
          -0.23265960812568665,
          -0.6629697680473328,
          0.18118926882743835,
          -0.8205642104148865,
          0.2872970402240753,
          -0.2801671326160431,
          -1.249603033065796,
          1.2932095527648926,
          -0.17412619292736053,
          1.1772772073745728,
          -3.9420933723449707,
          1.4878147840499878,
          -0.7094467282295227,
          -0.6831037402153015,
          1.4685323238372803,
          -0.15196841955184937,
          -0.8218264579772949,
          1.0415109395980835,
          0.627004086971283,
          0.3988109827041626,
          -0.5684857368469238,
          -1.7731528282165527,
          1.051324486732483,
          0.27542877197265625,
          0.9626197814941406,
          0.339127779006958,
          -0.14147400856018066,
          -1.4000285863876343,
          -1.147850751876831,
          0.42399391531944275,
          -1.712253451347351,
          0.9262243509292603,
          0.10437744855880737,
          -0.03270220011472702,
          0.7542023062705994,
          -0.44887176156044006,
          -0.8808486461639404,
          -0.05854171887040138,
          -0.5877301692962646,
          -0.2899285852909088,
          0.5282424092292786,
          0.0033601142931729555,
          -0.16171172261238098,
          0.22600725293159485,
          0.0067920866422355175,
          -0.5437350273132324,
          -0.24909552931785583,
          -0.6833812594413757,
          1.0581945180892944,
          0.22559939324855804,
          -0.4625721871852875,
          1.2435994148254395,
          0.13670006394386292,
          -0.6988873481750488,
          -0.5186989903450012,
          -0.5556355118751526,
          0.36860865354537964,
          0.10528343170881271,
          0.5048091411590576,
          2.479064702987671,
          -1.0913902521133423,
          -0.955261766910553,
          -0.15398794412612915,
          0.03044770658016205,
          0.8872567415237427,
          -0.5223330855369568,
          -0.024657053872942924,
          -0.22750693559646606,
          -0.22654388844966888,
          0.6948294043540955,
          -0.4294271469116211,
          0.09836401790380478,
          -0.22382031381130219,
          -0.5725009441375732,
          0.30214956402778625,
          -0.2740744352340698,
          0.07045641541481018,
          1.766716718673706,
          0.1954440027475357,
          0.4769802987575531,
          -0.6617288589477539,
          -0.10321847349405289,
          -0.6444821953773499,
          -0.6945584416389465,
          -0.19121412932872772,
          0.6554062962532043,
          -0.678704023361206,
          0.2639540433883667,
          0.13772252202033997,
          -0.0605657622218132,
          -0.5115249156951904,
          -0.3234010338783264,
          -1.0268371105194092,
          -0.1574842780828476,
          0.18181732296943665,
          1.4841772317886353,
          -1.3331642150878906,
          -0.25013425946235657,
          0.007378679234534502,
          0.7104484438896179,
          -0.32988929748535156,
          -0.2267918735742569,
          -0.264007568359375,
          0.9502445459365845,
          0.6362541317939758,
          -0.6009678840637207,
          0.02414236217737198,
          0.37466147541999817,
          -0.714709997177124,
          0.7405499815940857,
          -0.530511736869812,
          0.25104081630706787,
          0.43243494629859924,
          -0.5114931464195251,
          1.1926199197769165,
          0.5684283971786499,
          0.025526918470859528,
          0.6634290814399719,
          0.9141185879707336,
          0.4873726963996887,
          -0.4490617513656616,
          -2.4857735633850098,
          -0.2961082458496094,
          0.1980191171169281,
          0.48704081773757935,
          -0.3678898513317108,
          0.33324283361434937,
          -0.08094122260808945,
          -0.024622447788715363,
          0.41304633021354675,
          -0.29248449206352234,
          0.47159305214881897,
          0.0719892606139183,
          -0.3822151720523834,
          0.08234930038452148,
          0.15351226925849915,
          0.37353190779685974,
          2.3594534397125244,
          0.153101846575737,
          0.5764596462249756,
          -1.4330050945281982,
          -0.4981113374233246,
          0.30130869150161743,
          0.5499181747436523,
          0.10454141348600388,
          -0.6228724122047424,
          0.796386182308197,
          -0.2819449305534363,
          -0.09699501842260361,
          0.33422043919563293,
          -0.14018063247203827,
          1.2101856470108032,
          -1.1421586275100708,
          -0.36929064989089966,
          0.007292020600289106,
          -0.1363234519958496,
          0.1868777722120285,
          0.5100432634353638,
          0.13899078965187073,
          0.29278817772865295,
          -0.49872228503227234,
          0.3602078855037689,
          0.7198456525802612,
          1.3055771589279175,
          0.18321330845355988,
          -0.1164015606045723,
          -0.2580433785915375,
          -0.30221280455589294,
          0.46344414353370667,
          0.31997185945510864,
          -0.1497238725423813,
          -1.096925139427185,
          0.6791915893554688,
          -0.17400886118412018,
          -0.27124983072280884,
          -0.2721226215362549,
          -1.5862022638320923,
          -0.13411806523799896,
          -1.6989295482635498,
          -0.6612669229507446,
          0.8471710085868835,
          -0.772811233997345,
          -0.3423723876476288,
          0.4914713203907013,
          0.13398168981075287,
          0.6900500059127808,
          -0.18520860373973846,
          -0.4860706329345703,
          0.477597177028656,
          0.21147479116916656,
          -0.14343176782131195,
          -0.5343500375747681,
          -0.8195554614067078,
          -0.34328365325927734,
          -0.19416047632694244,
          -0.5868815183639526,
          -0.0055023119784891605,
          0.47640737891197205,
          -0.2793627679347992,
          0.20574155449867249,
          -1.3035122156143188,
          0.46032559871673584,
          0.03946848586201668,
          1.3960258960723877,
          0.3589445948600769,
          1.1847858428955078,
          -0.8241726160049438,
          0.8253654837608337,
          -0.7120553255081177,
          0.406821072101593,
          -0.06448693573474884,
          0.06554268300533295,
          0.6824385523796082,
          -0.15617363154888153,
          0.15174180269241333,
          -0.8165518641471863,
          -0.32680949568748474,
          0.47554486989974976,
          -1.1048014163970947,
          0.032522354274988174,
          -0.48130160570144653,
          -1.760324239730835,
          0.0870642438530922,
          -0.3095608949661255,
          1.6627912521362305,
          -1.115601658821106,
          -0.402942955493927,
          -0.5050442814826965,
          0.25420358777046204,
          1.5461392402648926,
          -1.1688969135284424,
          0.8991906046867371,
          -0.5307964086532593,
          -1.324016809463501,
          0.7299414277076721,
          -0.9589073061943054,
          -0.02467205561697483,
          1.8978976011276245,
          -0.40245765447616577,
          1.233289122581482,
          -1.0666725635528564,
          -0.9805572032928467,
          -0.34281712770462036,
          -0.2123875766992569,
          0.5448508262634277,
          -1.0496361255645752,
          -0.9696884155273438,
          -1.1172263622283936,
          0.4826839566230774,
          0.8832607269287109,
          -1.417493224143982,
          0.2807227075099945,
          -1.2168949842453003,
          -1.5122182369232178,
          0.07098489999771118,
          -0.39758968353271484,
          -0.15994705259799957,
          0.6582894921302795,
          -0.282819539308548,
          0.7169157266616821,
          -0.17841467261314392,
          -0.17485982179641724,
          1.0172770023345947,
          -1.5627801418304443,
          0.379944771528244,
          -0.8309304118156433,
          0.320944219827652,
          -0.25047433376312256,
          -2.5774412155151367,
          0.21019211411476135,
          -0.6298362612724304,
          0.26214441657066345,
          0.8643459677696228,
          0.3112242519855499,
          0.9697878956794739,
          1.1989154815673828,
          -0.23289212584495544,
          -0.09739149361848831,
          0.2580963671207428,
          -0.6889159679412842,
          0.6033667325973511,
          0.11547064781188965,
          1.0838515758514404,
          -0.3382461965084076,
          0.8219641447067261,
          0.16821201145648956,
          -0.25483202934265137,
          -0.737375795841217,
          -1.4715752601623535,
          0.8089334964752197,
          0.1822451800107956,
          -0.02948320470750332,
          1.0302616357803345,
          -0.5633248686790466,
          1.265822172164917,
          0.8749761581420898,
          0.31918099522590637,
          0.7733258008956909,
          -0.4862680733203888,
          -0.24822324514389038,
          -0.1902981400489807
        ]
      },
      "outputBias": {
        "rows": 20,
        "columns": 1,
        "weights": [
          -1.1474967002868652,
          0.5179622173309326,
          1.1740362644195557,
          0.29154008626937866,
          0.13148581981658936,
          0.6286189556121826,
          -0.33210238814353943,
          -0.5280466079711914,
          0.33914634585380554,
          0.15807974338531494,
          -0.587729275226593,
          -0.2750369906425476,
          0.45703747868537903,
          0.3451942503452301,
          0.4833022654056549,
          0.41198763251304626,
          -0.04335494711995125,
          -0.39077410101890564,
          0.2626990079879761,
          -0.20504987239837646
        ]
      },
      "cellActivationMatrix": {
        "rows": 20,
        "columns": 20,
        "weights": [
          -0.026356292888522148,
          0.19002120196819305,
          -0.06858489662408829,
          -0.9272704124450684,
          0.41343411803245544,
          0.20868709683418274,
          0.15125609934329987,
          -0.6383407115936279,
          0.4495502710342407,
          -0.3245922327041626,
          -0.3401971161365509,
          0.41024529933929443,
          0.3414793610572815,
          -0.6480351090431213,
          -0.5599323511123657,
          0.46767833828926086,
          0.6293987035751343,
          -0.6271432042121887,
          0.34007978439331055,
          0.4963730275630951,
          0.6022424101829529,
          0.6722901463508606,
          -0.04339376837015152,
          -0.18003128468990326,
          0.38215574622154236,
          -1.4685211181640625,
          0.06318692117929459,
          0.0013898920733481646,
          0.28309738636016846,
          -0.43945232033729553,
          -0.6034998893737793,
          0.38458409905433655,
          0.08739767968654633,
          -0.20059360563755035,
          -0.05370320752263069,
          -0.5038993954658508,
          -0.34955909848213196,
          0.2664627134799957,
          0.3433576226234436,
          -0.3344002366065979,
          -0.31559643149375916,
          -0.35015320777893066,
          0.2641933858394623,
          0.8760033845901489,
          0.23479501903057098,
          0.7702032327651978,
          -0.3263232409954071,
          -0.2746085822582245,
          -0.5034511685371399,
          -0.31322231888771057,
          0.2142167091369629,
          0.1481902152299881,
          0.03818363696336746,
          0.6366943717002869,
          -0.11476723849773407,
          0.5222058892250061,
          0.07895885407924652,
          0.05771499499678612,
          0.09243959188461304,
          0.08121256530284882,
          -0.1331706941127777,
          -0.10532338917255402,
          0.13788379728794098,
          0.2884712815284729,
          0.008462346158921719,
          0.590776801109314,
          0.10279074311256409,
          -0.07627063989639282,
          0.3432028591632843,
          -0.2997473478317261,
          0.13113132119178772,
          -0.1091824471950531,
          0.3092581331729889,
          0.31200912594795227,
          0.292766273021698,
          -0.32374829053878784,
          -0.3638967275619507,
          -0.27850115299224854,
          -0.1419883370399475,
          0.23526929318904877,
          0.25459474325180054,
          -0.13607168197631836,
          0.24242614209651947,
          0.3396005630493164,
          1.1331589221954346,
          -0.05864435061812401,
          0.06165166199207306,
          0.3757875859737396,
          -0.8316894173622131,
          -0.158187136054039,
          0.32087892293930054,
          -0.3964734375476837,
          0.2886532247066498,
          -0.7342719435691833,
          1.0100908279418945,
          0.2343905121088028,
          0.3986453413963318,
          0.15752805769443512,
          -2.06227445602417,
          -1.465775728225708,
          -0.09844929724931717,
          -0.6531605124473572,
          -0.23178480565547943,
          0.2710592448711395,
          -0.89309161901474,
          0.8654972910881042,
          -0.2694181203842163,
          0.567676842212677,
          0.04173768684267998,
          0.26799312233924866,
          0.7214359045028687,
          -0.5663101673126221,
          -0.5627498030662537,
          0.519491970539093,
          0.19755712151527405,
          -0.38161513209342957,
          0.32000505924224854,
          -0.8230531215667725,
          0.2688986361026764,
          0.828746497631073,
          -0.03458802402019501,
          0.1034279614686966,
          -0.378261536359787,
          -0.6493972539901733,
          0.1996418982744217,
          0.7281487584114075,
          1.0568114519119263,
          0.3609878122806549,
          0.21015305817127228,
          -0.08109107613563538,
          -0.3340727984905243,
          0.03090004436671734,
          -0.027293872088193893,
          0.14083349704742432,
          -0.7502972483634949,
          -0.8266468048095703,
          0.05483386293053627,
          -0.5502623915672302,
          -0.657868504524231,
          -0.30402830243110657,
          -0.25109606981277466,
          0.3596626818180084,
          0.10594885051250458,
          -0.5207668542861938,
          -0.31957513093948364,
          0.36221814155578613,
          0.6535146236419678,
          -0.35276421904563904,
          -0.46885088086128235,
          -0.484655499458313,
          0.23129302263259888,
          -0.24495787918567657,
          -0.09414498507976532,
          0.4101133942604065,
          -0.1260339766740799,
          -0.2924654185771942,
          0.01834494061768055,
          0.24086108803749084,
          -0.16692230105400085,
          -0.2659664452075958,
          -0.11873683333396912,
          0.11056749522686005,
          -0.07588818669319153,
          -0.4548795223236084,
          -0.3645465075969696,
          0.05857917293906212,
          0.7688162326812744,
          0.0016583793330937624,
          0.2584139108657837,
          -0.31732168793678284,
          -0.05711616203188896,
          -0.02659543603658676,
          0.21499064564704895,
          -0.5155059695243835,
          -0.5513533353805542,
          -0.11971747130155563,
          0.2888316214084625,
          -0.17057980597019196,
          -0.05469829961657524,
          0.1208421140909195,
          0.09118345379829407,
          -0.10106954723596573,
          0.08077112585306168,
          0.36849358677864075,
          0.07451256364583969,
          -0.2897677421569824,
          -0.31071341037750244,
          0.13408581912517548,
          -0.421705961227417,
          -0.887532651424408,
          0.38659071922302246,
          0.45335230231285095,
          0.07253041863441467,
          0.05382010340690613,
          0.10600878298282623,
          -0.11188413202762604,
          0.20834077894687653,
          0.1836298555135727,
          -0.13112510740756989,
          -0.0015984548954293132,
          0.5605172514915466,
          0.44583818316459656,
          -0.46545687317848206,
          -0.17541423439979553,
          -0.34767597913742065,
          0.1275164633989334,
          -0.387020468711853,
          0.0713491216301918,
          -0.049672458320856094,
          -0.1718209683895111,
          0.00022872298723086715,
          -0.11190716177225113,
          -0.01132824458181858,
          -0.536647379398346,
          -0.2672753930091858,
          -0.36054518818855286,
          -0.022020375356078148,
          0.16276074945926666,
          -0.22255250811576843,
          0.590651273727417,
          0.14915743470191956,
          -0.29171988368034363,
          0.4493260383605957,
          1.7044228315353394,
          -0.08530374616384506,
          0.23226505517959595,
          -0.853342592716217,
          0.31069037318229675,
          -0.7053307294845581,
          -0.5272871851921082,
          -0.1703788787126541,
          0.01627039723098278,
          -0.38117852807044983,
          0.41107118129730225,
          -0.08971953392028809,
          1.3103151321411133,
          -0.696564257144928,
          -0.5696677565574646,
          -0.6296291351318359,
          -0.015244746580719948,
          -0.20887309312820435,
          -0.25452956557273865,
          0.5196670293807983,
          0.2416512668132782,
          0.07247333228588104,
          0.015131468884646893,
          -0.22290641069412231,
          -0.08038701862096786,
          -0.7942601442337036,
          0.19875052571296692,
          0.7248297333717346,
          -0.4536183178424835,
          -0.6961385607719421,
          0.23954172432422638,
          0.40512701869010925,
          -0.6396417021751404,
          -0.33928266167640686,
          0.4993645250797272,
          0.3211057484149933,
          -0.48639583587646484,
          0.464099258184433,
          0.11062436550855637,
          0.5597984194755554,
          0.5609689354896545,
          0.2951522767543793,
          0.24532444775104523,
          -0.1834985911846161,
          0.5122859477996826,
          0.05792464315891266,
          0.6632708311080933,
          0.1580229252576828,
          0.14781886339187622,
          0.1943303793668747,
          -0.29852449893951416,
          -0.2812965512275696,
          0.2661307156085968,
          0.6825430989265442,
          -0.6766917705535889,
          0.4631132185459137,
          0.3288916051387787,
          -1.2258654832839966,
          0.0018164884531870484,
          0.02245120145380497,
          -1.1037399768829346,
          0.1835109144449234,
          0.038742776960134506,
          -0.280036598443985,
          -1.3771257400512695,
          -0.20649145543575287,
          0.2250223308801651,
          0.541329026222229,
          -0.8210689425468445,
          -0.7963912487030029,
          -0.167683944106102,
          0.3652156889438629,
          0.12039969861507416,
          0.17053960263729095,
          0.11388065665960312,
          -0.1218496561050415,
          -0.009816840291023254,
          -0.16912391781806946,
          -0.3465413451194763,
          -0.4018086791038513,
          -0.08258922398090363,
          -0.2078089416027069,
          -0.46879684925079346,
          -0.6774362921714783,
          -0.285063236951828,
          -0.5605176687240601,
          0.02998446486890316,
          0.9975376129150391,
          0.30069807171821594,
          -0.532632052898407,
          0.2640150487422943,
          0.32769694924354553,
          0.6709107160568237,
          -0.48366716504096985,
          0.4961664378643036,
          0.8554668426513672,
          -0.2537916898727417,
          -0.07231944054365158,
          -0.11692983657121658,
          0.34292566776275635,
          -0.031253375113010406,
          0.29263582825660706,
          0.4135892391204834,
          0.06516915559768677,
          0.020993437618017197,
          -0.1616399586200714,
          0.08874548226594925,
          0.10784158110618591,
          0.07910183817148209,
          -0.05724121630191803,
          0.1978866457939148,
          -0.1316961944103241,
          -0.1642669290304184,
          0.16557492315769196,
          -0.3424054682254791,
          -0.2466641366481781,
          -0.029531223699450493,
          0.3067716062068939,
          -0.5882295370101929,
          -0.07730042189359665,
          -0.40391281247138977,
          -0.16018953919410706,
          1.3260767459869385,
          0.41421160101890564,
          0.3697112798690796,
          -0.8265175819396973,
          0.16073071956634521,
          1.3325546979904175,
          -0.6839697360992432,
          -0.30930885672569275,
          -0.6649091839790344,
          0.6781290769577026,
          -0.849341630935669,
          -1.1811978816986084,
          0.11433333158493042,
          0.9381205439567566,
          -0.6284102201461792,
          0.023132197558879852,
          0.10394250601530075,
          0.2947481870651245,
          -0.6406991481781006,
          -0.027400122955441475,
          -0.1553836166858673,
          0.4702637195587158,
          -0.08317296206951141,
          0.13190287351608276,
          0.27531394362449646,
          -0.22229190170764923,
          0.20788954198360443,
          0.92923903465271,
          -0.275357186794281,
          0.13048779964447021,
          -0.3472371995449066,
          0.06167680770158768,
          -0.4805368483066559,
          -0.27888283133506775,
          0.12689092755317688,
          0.33214351534843445,
          0.4511163532733917,
          -0.36757856607437134,
          0.003039281815290451,
          0.6114046573638916,
          -0.4605627954006195,
          -0.04751994088292122,
          0.27814510464668274,
          0.10903672873973846,
          -0.5338781476020813,
          0.06548056751489639,
          -0.2107795774936676,
          0.027660131454467773,
          -0.13684166967868805,
          -0.1115732342004776,
          0.21087349951267242,
          0.023234358057379723,
          0.22359514236450195,
          0.035262737423181534,
          0.27008506655693054
        ]
      },
      "cellActivationHidden": {
        "rows": 20,
        "columns": 20,
        "weights": [
          0.24097199738025665,
          -0.5322801470756531,
          0.8410543203353882,
          -1.02432119846344,
          -0.5975027084350586,
          0.45757174491882324,
          -0.8933088183403015,
          0.1710645854473114,
          -0.7984070777893066,
          -0.5918569564819336,
          -0.8959323167800903,
          0.6417726874351501,
          0.41792669892311096,
          0.12787285447120667,
          0.6573911905288696,
          0.7657414078712463,
          -0.5505343675613403,
          -0.6340101361274719,
          0.2309657484292984,
          0.6188188791275024,
          1.0111558437347412,
          -0.014568483456969261,
          -0.02071353979408741,
          -0.29660800099372864,
          0.3102996349334717,
          0.006906254682689905,
          0.008703378029167652,
          0.5248411893844604,
          -0.4415692090988159,
          0.30247458815574646,
          -0.3636932075023651,
          0.23045076429843903,
          0.33919742703437805,
          -0.23080241680145264,
          0.18550950288772583,
          -0.14669328927993774,
          -1.3393573760986328,
          -0.0026421789079904556,
          -0.4284675121307373,
          0.5792713165283203,
          -1.1771299839019775,
          0.031617891043424606,
          0.03352610766887665,
          0.40986010432243347,
          -0.24354025721549988,
          -0.09806632250547409,
          0.11902903765439987,
          0.07276590913534164,
          0.6077523827552795,
          -0.6255327463150024,
          -0.10104463994503021,
          -0.10839376598596573,
          -0.35813793540000916,
          0.24860766530036926,
          -0.23604576289653778,
          0.05219264328479767,
          0.6274936199188232,
          -0.14928163588047028,
          0.6922721862792969,
          -0.7113315463066101,
          -0.5835610032081604,
          -0.37631911039352417,
          0.3409818112850189,
          -0.29776838421821594,
          -0.14605265855789185,
          0.3782291114330292,
          -0.3966296315193176,
          0.7166153192520142,
          0.04394882544875145,
          -0.031824126839637756,
          0.25786712765693665,
          0.26012757420539856,
          0.10484610497951508,
          0.05058366060256958,
          -0.0843757838010788,
          0.23833763599395752,
          0.43390458822250366,
          0.030477730557322502,
          -0.019729487597942352,
          -0.44816499948501587,
          0.01287415623664856,
          -1.146020531654358,
          -0.41912519931793213,
          0.000321203755447641,
          0.007786664646118879,
          0.02525361068546772,
          -0.15745916962623596,
          0.0890549048781395,
          -0.0051284474320709705,
          -0.33406659960746765,
          0.5118107795715332,
          -0.6877039670944214,
          -0.23464883863925934,
          0.537873387336731,
          0.21187244355678558,
          0.00688977399840951,
          -0.06706362962722778,
          -0.02397160418331623,
          0.05746464431285858,
          -0.39953458309173584,
          -0.07724826782941818,
          -0.0003601339994929731,
          -0.14979231357574463,
          0.029048357158899307,
          -0.2170257568359375,
          -0.15827487409114838,
          0.6690554022789001,
          0.029665889218449593,
          -0.28877997398376465,
          0.1569560468196869,
          -0.753206193447113,
          0.05709122493863106,
          0.040910154581069946,
          0.24712897837162018,
          -0.42884886264801025,
          0.0405699722468853,
          0.15274302661418915,
          0.3500828146934509,
          0.14207778871059418,
          0.22468186914920807,
          -0.02149498462677002,
          -0.3346567451953888,
          0.1064329445362091,
          -0.06627701222896576,
          -0.05934429168701172,
          -0.029101883992552757,
          0.28252553939819336,
          0.697813093662262,
          0.1148824691772461,
          -0.0016889070393517613,
          0.049760039895772934,
          0.10818056017160416,
          0.04568688943982124,
          -0.0823298916220665,
          0.47066619992256165,
          0.4145832657814026,
          0.06149554252624512,
          0.0881427749991417,
          0.16038751602172852,
          -0.402433305978775,
          0.09363942593336105,
          0.47787511348724365,
          -0.35313498973846436,
          -0.6180355548858643,
          -0.13121864199638367,
          -0.5595426559448242,
          0.15085765719413757,
          0.6406219601631165,
          -0.44788655638694763,
          0.46757423877716064,
          0.36149147152900696,
          0.34090203046798706,
          0.333720862865448,
          0.3875495195388794,
          -0.03051467053592205,
          0.29924359917640686,
          -0.3882552981376648,
          -0.3194844722747803,
          -0.04860047250986099,
          -0.09405597299337387,
          0.03569190204143524,
          -0.1198674887418747,
          0.09919073432683945,
          0.4651115834712982,
          -0.018447838723659515,
          0.13133321702480316,
          -0.10467268526554108,
          -0.11155495047569275,
          0.17466942965984344,
          0.0006994747673161328,
          -0.12048676609992981,
          -0.1405150443315506,
          -0.1362171471118927,
          -0.03740599378943443,
          0.028867099434137344,
          0.2630985379219055,
          0.5221655964851379,
          0.5173958539962769,
          0.05718085542321205,
          -0.31688910722732544,
          0.4855939447879791,
          0.016411112621426582,
          -0.09702886641025543,
          -0.04521138221025467,
          0.46098679304122925,
          -0.11137156188488007,
          0.1078614667057991,
          0.3635966181755066,
          -0.037768617272377014,
          1.7713541984558105,
          -0.29986485838890076,
          0.45661813020706177,
          -0.1669008880853653,
          -0.08850801736116409,
          0.3648146390914917,
          0.21152622997760773,
          0.10867677628993988,
          -1.130711555480957,
          -0.26512354612350464,
          0.04137696698307991,
          0.602010190486908,
          0.4790620505809784,
          -0.16126902401447296,
          -0.3429604172706604,
          0.2555559575557709,
          -0.1880093663930893,
          0.22842063009738922,
          0.7028673887252808,
          0.06091317534446716,
          -0.21629951894283295,
          0.7273105382919312,
          1.0964198112487793,
          -0.10422444343566895,
          0.034278709441423416,
          -0.5928574204444885,
          0.46895039081573486,
          -0.07378142327070236,
          0.08490287512540817,
          -0.20781022310256958,
          0.44093579053878784,
          -0.2446858286857605,
          -0.5759996175765991,
          -0.4670815169811249,
          0.6344901323318481,
          -0.2908620238304138,
          0.3795700967311859,
          -0.9993790984153748,
          0.741983950138092,
          0.20243650674819946,
          -0.37300607562065125,
          0.3214001953601837,
          -0.5773348808288574,
          -0.12554191052913666,
          -0.5367205739021301,
          -0.3420122265815735,
          0.36331650614738464,
          0.19672776758670807,
          0.24035583436489105,
          0.11308035254478455,
          0.1879291534423828,
          0.6773003339767456,
          0.09991295635700226,
          -0.2740749418735504,
          0.10591855645179749,
          0.39152613282203674,
          -0.21057014167308807,
          1.0232629776000977,
          0.8998256921768188,
          -0.26850900053977966,
          0.33726736903190613,
          -0.829595148563385,
          0.10188087075948715,
          -0.03063902258872986,
          -0.09731143712997437,
          -0.21110786497592926,
          -0.0032779062166810036,
          0.043600186705589294,
          0.24100419878959656,
          -0.1365462839603424,
          0.43084263801574707,
          -0.5121503472328186,
          -0.3163573145866394,
          0.3667725920677185,
          0.14326266944408417,
          -0.1887570023536682,
          0.20694737136363983,
          0.3286345303058624,
          -0.28209108114242554,
          0.04267546162009239,
          -0.050637464970350266,
          0.5777055621147156,
          0.5137425065040588,
          -0.05225598067045212,
          0.33568909764289856,
          0.20161136984825134,
          0.24934887886047363,
          0.17967896163463593,
          -0.6030344367027283,
          -0.030707931146025658,
          -0.43960678577423096,
          -0.14438287913799286,
          -0.2573128640651703,
          0.39408230781555176,
          -0.14414827525615692,
          0.011919153854250908,
          0.5450255870819092,
          0.06490011513233185,
          -0.8927944898605347,
          -0.13522954285144806,
          0.19137844443321228,
          0.27949729561805725,
          -0.3160693645477295,
          -0.009123008698225021,
          -0.26392388343811035,
          -0.3403635323047638,
          0.12238050252199173,
          0.041693322360515594,
          -0.11348218470811844,
          -0.24752071499824524,
          -0.6710351705551147,
          -0.3539026379585266,
          0.06277697533369064,
          -0.12010446935892105,
          0.561006486415863,
          -1.2251911163330078,
          -0.7432078719139099,
          0.17150887846946716,
          -0.2138734757900238,
          0.4555037021636963,
          -0.7156115174293518,
          0.6356266736984253,
          -0.36433255672454834,
          -1.2376673221588135,
          0.7428694367408752,
          -0.2972804307937622,
          -0.7137380838394165,
          0.2173295021057129,
          0.8834502100944519,
          0.8107539415359497,
          0.5685572028160095,
          0.37520667910575867,
          -0.040110956877470016,
          -0.29223448038101196,
          0.13089674711227417,
          -0.24046695232391357,
          0.003784837666898966,
          -0.19159607589244843,
          0.49437668919563293,
          0.49943777918815613,
          -0.10785716027021408,
          0.9575820565223694,
          -0.24379749596118927,
          -0.35506191849708557,
          -0.08600661903619766,
          -0.47910404205322266,
          -0.14617671072483063,
          0.45556211471557617,
          -0.24918006360530853,
          0.37276631593704224,
          -0.2721600830554962,
          0.08241075277328491,
          -0.29160067439079285,
          -0.15566040575504303,
          -0.017742466181516647,
          0.4462396502494812,
          -0.06912297010421753,
          -0.45699816942214966,
          -0.637631356716156,
          -0.1390581578016281,
          0.3352239429950714,
          -0.1604538857936859,
          0.3318260908126831,
          0.19106552004814148,
          0.8888285756111145,
          0.14510659873485565,
          0.17808635532855988,
          -0.1430818736553192,
          -0.5226621627807617,
          0.21168404817581177,
          0.18090525269508362,
          -0.6463695168495178,
          0.4571771025657654,
          -0.22946548461914062,
          0.22409668564796448,
          -0.5951029658317566,
          -0.2631039321422577,
          -0.8637459874153137,
          0.8668649792671204,
          0.07852484285831451,
          -0.4306797981262207,
          -0.3733620345592499,
          -1.1911450624465942,
          -0.11799021065235138,
          -0.2632307708263397,
          -0.4635472595691681,
          0.5842450857162476,
          0.18781104683876038,
          -0.3711719214916229,
          0.1976526528596878,
          -0.5690438151359558,
          -0.5360296368598938,
          -0.43704164028167725,
          -0.029194122180342674,
          0.04029353708028793,
          1.1186223030090332,
          0.2840951383113861,
          0.2808811068534851,
          0.8436158299446106,
          -0.20847636461257935,
          0.9087103009223938,
          -0.6540707349777222,
          -0.38740986585617065,
          0.27748584747314453,
          -0.16784778237342834,
          0.22562211751937866,
          -0.029899340122938156,
          0.0900636613368988,
          -0.7518187761306763,
          -0.34201061725616455,
          -0.3564406633377075
        ]
      },
      "cellActivationBias": {
        "rows": 20,
        "columns": 1,
        "weights": [
          -2.0569067001342773,
          0.6198415756225586,
          -1.0167986154556274,
          0.32338353991508484,
          -0.2281987965106964,
          -0.5209627151489258,
          -0.2741745710372925,
          0.03326248377561569,
          0.30569297075271606,
          -0.09732897579669952,
          0.01629660651087761,
          0.3871496021747589,
          -0.3541405200958252,
          0.46506091952323914,
          -0.42618846893310547,
          -0.5103350877761841,
          -0.0830165296792984,
          0.3131890296936035,
          0.23456797003746033,
          -0.05906439572572708
        ]
      }
    }
  ],
  "outputConnector": {
    "rows": 29,
    "columns": 20,
    "weights": [
      -2.067467451095581,
      -2.3266208171844482,
      0.5518993735313416,
      -0.9674509167671204,
      -2.3284151554107666,
      1.4146820306777954,
      1.7282726764678955,
      -1.1231114864349365,
      -0.9959827065467834,
      -1.3123159408569336,
      -3.619123697280884,
      -0.5079469084739685,
      0.01455020997673273,
      -0.5354921817779541,
      2.80074143409729,
      1.9326767921447754,
      -1.7457096576690674,
      5.6511125564575195,
      0.06426068395376205,
      0.5449737906455994,
      0.19037571549415588,
      -0.5045483708381653,
      0.34269458055496216,
      -0.07928761839866638,
      -1.6565145254135132,
      -1.8010770082473755,
      -1.9005306959152222,
      -0.1427197903394699,
      -0.30604973435401917,
      -0.33172497153282166,
      -0.16895057260990143,
      -2.6831605434417725,
      0.43646928668022156,
      2.902419328689575,
      1.303856611251831,
      1.5511924028396606,
      -0.25114452838897705,
      -2.7671868801116943,
      -2.6908421516418457,
      0.15872600674629211,
      5.1105756759643555,
      0.27208423614501953,
      -0.08588369190692902,
      1.2619297504425049,
      4.469042778015137,
      0.6441868543624878,
      -0.5286898612976074,
      0.7785988450050354,
      0.9792055487632751,
      0.43083035945892334,
      -2.6252410411834717,
      -1.584240436553955,
      -0.47076207399368286,
      -0.11388375610113144,
      -1.7432479858398438,
      0.6212011575698853,
      0.7300322651863098,
      0.19325080513954163,
      -0.007609263528138399,
      -0.5637478232383728,
      -0.31173306703567505,
      0.16832080483436584,
      1.9480105638504028,
      -0.4561498165130615,
      -1.0265069007873535,
      2.194638729095459,
      -0.5627180337905884,
      -0.7287813425064087,
      -0.16055898368358612,
      -0.5842882990837097,
      0.10072748363018036,
      -0.3845289945602417,
      0.9008299112319946,
      -0.3113984167575836,
      2.066793918609619,
      -3.4601919651031494,
      0.1694433093070984,
      -2.041020154953003,
      3.035984754562378,
      1.5059945583343506,
      2.7510125637054443,
      -0.2395266443490982,
      -2.217287063598633,
      -0.2543385922908783,
      2.4238667488098145,
      -0.9624606370925903,
      -0.5313840508460999,
      -1.7114951610565186,
      0.5828548073768616,
      1.2584969997406006,
      1.1309856176376343,
      3.2081501483917236,
      -1.381706714630127,
      -2.999260902404785,
      0.0680152103304863,
      0.5220440626144409,
      0.46954870223999023,
      1.5430201292037964,
      2.226316452026367,
      -1.4390984773635864,
      -0.7508550882339478,
      2.7392916679382324,
      -0.14913909137248993,
      -0.1445915400981903,
      3.26930832862854,
      -3.0844573974609375,
      1.5604212284088135,
      0.841532289981842,
      -0.11104245483875275,
      -0.3618956208229065,
      -0.05496785044670105,
      -1.348885416984558,
      0.9749199151992798,
      -0.9009696841239929,
      0.38900598883628845,
      1.8176828622817993,
      0.09851598739624023,
      -2.2792105674743652,
      -2.019568920135498,
      -0.786117434501648,
      -1.0157358646392822,
      -0.6430590152740479,
      0.06696202605962753,
      -0.546901285648346,
      -0.4618844985961914,
      0.6828096508979797,
      2.07027006149292,
      -1.008512020111084,
      -0.35179173946380615,
      -0.49118882417678833,
      0.8498388528823853,
      3.0851967334747314,
      0.7494847774505615,
      0.6018944382667542,
      -2.4832608699798584,
      -1.127138614654541,
      -0.1372998207807541,
      -2.2317771911621094,
      -0.8772793412208557,
      0.4281737804412842,
      -0.7905910611152649,
      1.2663183212280273,
      0.2926255166530609,
      0.1091008186340332,
      0.04637308791279793,
      1.5555965900421143,
      -0.9438745379447937,
      3.626770496368408,
      0.00998772494494915,
      -0.5198758840560913,
      -0.6106716990470886,
      0.7090333104133606,
      -0.9876207113265991,
      0.1009494736790657,
      -0.4528076648712158,
      -0.7562388181686401,
      -0.014760888181626797,
      2.841381549835205,
      -2.2818033695220947,
      -0.2589259445667267,
      1.2270071506500244,
      0.9481894373893738,
      -0.5880311131477356,
      0.8158347010612488,
      -1.8367773294448853,
      0.29831159114837646,
      0.8660638928413391,
      -0.46345987915992737,
      0.4820025861263275,
      5.666565418243408,
      1.221799373626709,
      -3.2464308738708496,
      -0.3987603783607483,
      1.1840547323226929,
      -0.5447407364845276,
      0.8583070635795593,
      0.7017291188240051,
      3.4322216510772705,
      0.2632838189601898,
      -0.7205899953842163,
      3.792145252227783,
      1.8097301721572876,
      -1.5857610702514648,
      0.3451765477657318,
      -0.29196426272392273,
      0.0010317855048924685,
      2.9146978855133057,
      2.706867218017578,
      0.0429525263607502,
      1.1100324392318726,
      -3.415947437286377,
      2.403911590576172,
      -0.3964028060436249,
      -0.38720351457595825,
      2.166347026824951,
      0.3174643814563751,
      0.20758283138275146,
      0.8078084588050842,
      1.2388595342636108,
      -0.7743185758590698,
      -1.893319010734558,
      -1.2817944288253784,
      0.18646356463432312,
      0.1328245997428894,
      -0.9376559257507324,
      0.6551494598388672,
      1.6264574527740479,
      2.081580400466919,
      -0.15810073912143707,
      5.311105251312256,
      0.43341588973999023,
      1.529384970664978,
      -0.6767878532409668,
      0.5367945432662964,
      2.2618958950042725,
      0.9843801856040955,
      -0.09407023340463638,
      -0.46671339869499207,
      0.251379132270813,
      1.6712048053741455,
      -1.1686656475067139,
      -2.013481378555298,
      2.512648105621338,
      0.32973259687423706,
      1.8282928466796875,
      -4.130365371704102,
      0.017021387815475464,
      0.5657801032066345,
      -0.24588213860988617,
      -0.23046939074993134,
      -1.5226274728775024,
      0.23840118944644928,
      -0.7409423589706421,
      -2.654273509979248,
      -1.125239610671997,
      -0.7617971301078796,
      0.21587806940078735,
      0.9137519001960754,
      0.9488398432731628,
      1.2091739177703857,
      -1.5228698253631592,
      0.06847789138555527,
      -2.0060417652130127,
      -0.4192864000797272,
      3.749922752380371,
      -0.2118084877729416,
      0.9669901132583618,
      0.18530772626399994,
      -0.20981895923614502,
      -1.850213646888733,
      1.998777985572815,
      -1.2015458345413208,
      1.3545818328857422,
      -1.1913503408432007,
      2.2359049320220947,
      0.5922577977180481,
      -0.18399851024150848,
      3.653085947036743,
      0.19937245547771454,
      0.01803894154727459,
      4.000879764556885,
      1.0806281566619873,
      -0.6149613857269287,
      0.45277711749076843,
      0.36190205812454224,
      0.8982449769973755,
      -0.5748624801635742,
      1.1286590099334717,
      0.1744246929883957,
      1.8266825675964355,
      -1.7326258420944214,
      -0.8721080422401428,
      -0.5926202535629272,
      1.716414451599121,
      1.5847337245941162,
      -1.928615927696228,
      0.34367144107818604,
      -1.6516764163970947,
      -2.3690762519836426,
      -1.23562753200531,
      0.08864140510559082,
      0.862928569316864,
      0.4309287369251251,
      -0.15324723720550537,
      3.1535160541534424,
      0.36732232570648193,
      1.159720540046692,
      -0.6186832189559937,
      -0.33559951186180115,
      -0.020740585401654243,
      0.8027486205101013,
      -2.479581117630005,
      0.36018988490104675,
      -1.4147140979766846,
      -1.948280692100525,
      -0.2882494032382965,
      -0.4891620874404907,
      -0.9178557991981506,
      -2.5617311000823975,
      1.1787468194961548,
      1.2255080938339233,
      -0.15004976093769073,
      -0.4456418454647064,
      0.6870702505111694,
      -0.8707989454269409,
      0.7030313611030579,
      -2.420626163482666,
      -0.5232452750205994,
      0.5614064335823059,
      2.1958680152893066,
      -0.2610146403312683,
      2.1087496280670166,
      0.47893521189689636,
      0.04959621652960777,
      -1.3868626356124878,
      -1.1408239603042603,
      0.23353183269500732,
      2.102764129638672,
      -0.0714126005768776,
      1.6003884077072144,
      6.5847907066345215,
      -0.5756950974464417,
      0.7974560260772705,
      -0.8405594229698181,
      -0.6043794751167297,
      0.8397717475891113,
      1.915328025817871,
      -0.5952479243278503,
      -0.4455517828464508,
      -1.230268955230713,
      -0.1241181418299675,
      0.6265453100204468,
      0.7576277256011963,
      0.3015364408493042,
      -1.4926767349243164,
      -0.9028276205062866,
      -0.46905142068862915,
      3.3133275508880615,
      0.7382029891014099,
      0.3708421587944031,
      8.235219955444336,
      0.2794420123100281,
      0.6037148237228394,
      -0.5243343114852905,
      0.6496820449829102,
      -0.7052509784698486,
      0.2461429238319397,
      2.0193357467651367,
      -0.19215378165245056,
      0.5056540966033936,
      2.5230937004089355,
      -2.4846415519714355,
      -0.18786755204200745,
      0.7242749929428101,
      1.19870924949646,
      0.43308570981025696,
      -0.31151312589645386,
      -1.8295807838439941,
      -0.2878302335739136,
      -0.01008711289614439,
      0.7037802338600159,
      -1.134345293045044,
      0.4534674286842346,
      -0.1057039424777031,
      -0.5917609930038452,
      1.674851417541504,
      -0.6079092621803284,
      1.5216898918151855,
      -1.0646517276763916,
      -0.5872989892959595,
      -1.6288939714431763,
      -1.7289066314697266,
      1.9760557413101196,
      1.0498011112213135,
      -3.21856689453125,
      0.9757890701293945,
      -2.212263584136963,
      -0.6288431286811829,
      -0.2658194303512573,
      0.16305825114250183,
      -1.5203396081924438,
      -1.713250994682312,
      0.24154533445835114,
      -0.6857669949531555,
      -0.9262596964836121,
      -2.2514219284057617,
      -2.051459312438965,
      -0.19285818934440613,
      1.5057933330535889,
      -1.600540280342102,
      1.422029972076416,
      -0.16919991374015808,
      -1.5787508487701416,
      1.4248565435409546,
      -1.8564553260803223,
      -2.334104537963867,
      1.5123393535614014,
      -1.7314385175704956,
      1.5876880884170532,
      -1.2537668943405151,
      -0.42013463377952576,
      1.5252978801727295,
      -1.9810246229171753,
      -0.39409875869750977,
      -1.5090179443359375,
      1.1985723972320557,
      -1.884932518005371,
      -1.5286473035812378,
      -0.5437072515487671,
      0.5830673575401306,
      0.7399993538856506,
      1.8900392055511475,
      -0.8699390292167664,
      -0.8161425590515137,
      0.5141452550888062,
      2.5223889350891113,
      -0.543623685836792,
      -1.7361867427825928,
      -0.9910156726837158,
      -0.8906244039535522,
      6.405575752258301,
      -0.9407662749290466,
      -0.4950072467327118,
      0.36808547377586365,
      0.08956058323383331,
      0.3432343602180481,
      1.936219573020935,
      0.1599084883928299,
      0.10515066236257553,
      0.6556284427642822,
      0.6877411603927612,
      1.416483759880066,
      -0.24862785637378693,
      -0.26686376333236694,
      0.8681357502937317,
      0.022502215579152107,
      0.2167990356683731,
      -1.2148678302764893,
      -2.2432963848114014,
      2.1178927421569824,
      4.57290506362915,
      1.5793569087982178,
      0.24917177855968475,
      0.6760677695274353,
      1.3189480304718018,
      0.9541279077529907,
      -2.616943836212158,
      1.6587772369384766,
      0.21771392226219177,
      1.230127215385437,
      1.1647467613220215,
      1.539023756980896,
      -0.580462634563446,
      -1.1091747283935547,
      0.9259893298149109,
      -0.259208619594574,
      -0.11495336145162582,
      -1.4058811664581299,
      -0.5047965049743652,
      -0.0757465735077858,
      -0.9373783469200134,
      -1.0712668895721436,
      0.9560671448707581,
      0.4865872263908386,
      -1.2135217189788818,
      -0.32052740454673767,
      -2.1327614784240723,
      -1.263319492340088,
      0.3158769905567169,
      -0.49827322363853455,
      -2.598034620285034,
      1.6897133588790894,
      -0.3538952171802521,
      -0.6255851984024048,
      -1.6211744546890259,
      0.821718692779541,
      0.12913577258586884,
      2.010751485824585,
      1.2431937456130981,
      -0.5333503484725952,
      0.21961623430252075,
      -0.7660706043243408,
      -0.9243580102920532,
      -0.7253404855728149,
      -1.2291619777679443,
      -2.3215949535369873,
      1.2194905281066895,
      -0.857361376285553,
      -0.5706751346588135,
      -0.3907521963119507,
      -1.0338664054870605,
      2.733344078063965,
      2.391676664352417,
      -1.5876318216323853,
      -1.5041528940200806,
      1.778051733970642,
      -0.52590012550354,
      -0.09962131828069687,
      -0.20845258235931396,
      -0.9770046472549438,
      5.6469268798828125,
      -0.6873030662536621,
      1.6563539505004883,
      0.029655061662197113,
      0.8936071395874023,
      1.6519168615341187,
      1.0845942497253418,
      -2.763105630874634,
      -0.22837147116661072,
      -0.6988519430160522,
      1.4231983423233032,
      -2.411219358444214,
      -0.18544679880142212,
      -4.102992534637451,
      -2.023853302001953,
      0.5513250231742859,
      -0.12016500532627106,
      -2.0027120113372803,
      0.6550149321556091,
      -0.4458441734313965,
      -0.07610887289047241,
      -0.5723877549171448,
      0.4368201494216919,
      -0.43991678953170776,
      0.07397975027561188,
      -0.3997137248516083,
      1.365653395652771,
      0.28087636828422546,
      -0.4001346826553345,
      -0.12628565728664398,
      0.7587825059890747,
      -0.5581145882606506,
      1.6119250059127808,
      0.28918060660362244,
      1.3034279346466064,
      0.09819995611906052,
      -0.7063069939613342,
      0.9994096159934998,
      -1.4463781118392944,
      3.4424517154693604,
      5.136092662811279,
      -0.11636783927679062,
      -0.22582511603832245,
      0.22108523547649384,
      1.4525915384292603,
      0.8501914143562317,
      0.9640800356864929,
      -0.9243865609169006,
      0.015612039715051651,
      1.0332427024841309,
      0.8888536691665649,
      0.6011701226234436,
      -0.4766976833343506,
      0.20221655070781708,
      0.1530434787273407,
      0.5828205347061157,
      0.04009978100657463,
      -1.5392050743103027,
      -1.3798437118530273,
      2.90559983253479,
      0.8190048336982727,
      -0.30700039863586426,
      0.8267889022827148,
      -1.7099168300628662,
      1.629878044128418,
      0.8267548680305481,
      0.2931404113769531,
      -0.21354103088378906,
      -2.848726272583008,
      1.90074622631073,
      -0.39876788854599,
      0.2725026309490204,
      2.1062464714050293,
      -0.862906813621521,
      1.0036672353744507,
      0.568495512008667,
      -1.4670888185501099,
      0.17478534579277039,
      -1.7413195371627808,
      0.828623354434967
    ]
  },
  "output": {
    "rows": 29,
    "columns": 1,
    "weights": [
      -4.3578290939331055,
      -0.04171869531273842,
      0.504553496837616,
      -0.5091832280158997,
      -0.10033050924539566,
      -0.4629136621952057,
      -0.5590330362319946,
      -0.18719875812530518,
      -0.7672128081321716,
      -0.008642951026558876,
      -5.284017562866211,
      -0.37238404154777527,
      0.16113024950027466,
      -0.14977742731571198,
      0.017014149576425552,
      0.5589230060577393,
      0.21089717745780945,
      0.12859377264976501,
      0.39254429936408997,
      -15.324081420898438,
      -1.5382513999938965,
      -0.09826809167861938,
      -0.07583894580602646,
      -8.230710983276367,
      -1.2368242740631104,
      -6.616947174072266,
      -0.05601891502737999,
      -0.2859880030155182,
      -2.44844651222229
    ]
  }
}