{
  "type": "LSTM",
  "options": {
    "inputSize": 27,
    "inputRange": 27,
    "hiddenLayers": [
      20,
      20
    ],
    "outputSize": 27,
    "decayRate": 0.999,
    "smoothEps": 1e-8,
    "regc": 0.000001,
    "clipval": 5,
    "maxPredictionLength": 100,
    "dataFormatter": {
      "indexTable": {
        "a": 0,
        "k": 1,
        "h": 2,
        "o": 3,
        "n": 4,
        "m": 5,
        "e": 6,
        "l": 7,
        "g": 8,
        "i": 9,
        "s": 10,
        "r": 11,
        "b": 12,
        "y": 13,
        "d": 14,
        "w": 15,
        "t": 16,
        "p": 17,
        "u": 18,
        "c": 19,
        "z": 20,
        "f": 21,
        "j": 22,
        "v": 23,
        "x": 24,
        "q": 25,
        "unrecognized": 26
      },
      "characterTable": {
        "0": "a",
        "1": "k",
        "2": "h",
        "3": "o",
        "4": "n",
        "5": "m",
        "6": "e",
        "7": "l",
        "8": "g",
        "9": "i",
        "10": "s",
        "11": "r",
        "12": "b",
        "13": "y",
        "14": "d",
        "15": "w",
        "16": "t",
        "17": "p",
        "18": "u",
        "19": "c",
        "20": "z",
        "21": "f",
        "22": "j",
        "23": "v",
        "24": "x",
        "25": "q",
        "26": null
      },
      "values": [
        "akhona",
        "amaka",
        "amohelang",
        "anele",
        "anisha",
        "arabang",
        "ayanda",
        "ayele",
        "babalwa",
        "baliwe",
        "basetsana",
        "bhekisisa",
        "bikwaphi",
        "bohlokwa",
        "bokang",
        "boniswa",
        "bonolo",
        "bontle",
        "buang",
        "busisiwe",
        "cebile",
        "chenzira",
        "chineso",
        "chipo",
        "chuma",
        "diboko",
        "didi",
        "dikeledi",
        "dikgang",
        "dimakatso",
        "dimpho",
        "dineo",
        "dipalesa",
        "disebo",
        "dithole",
        "ditsheho",
        "ditswanelo",
        "duduzile",
        "dumisile",
        "dyondzeka",
        "fabana",
        "felleng",
        "fezeka",
        "fikile",
        "fumane",
        "fundiswa",
        "gabisile",
        "gugu",
        "gugulethu",
        "hlengiwe",
        "inaambura",
        "inah",
        "inam",
        "itumeleng",
        "jabulile",
        "jabulisile",
        "kagiso",
        "kamohelo",
        "kananelo",
        "katleho",
        "keneuwe",
        "khanyisile",
        "khothatso",
        "khulelaphi",
        "khuselwa",
        "leabie",
        "lebohang",
        "lerato",
        "letsatsi",
        "lindiwe",
        "londiwe",
        "lulama",
        "lungile",
        "luzuko",
        "lyanda",
        "magano",
        "maideyi",
        "majobo",
        "makaziwe",
        "makhokolotso",
        "makhosazana",
        "makhulu",
        "makhutswana",
        "maki",
        "maletsatsi",
        "mandisa",
        "mantso",
        "mariha",
        "mashama",
        "masoabi",
        "mathona",
        "matlakala",
        "maudisa",
        "mavivi",
        "mbakondja",
        "mbalenhle",
        "mbhali",
        "mmaabo",
        "mosa",
        "mosela",
        "moshidi",
        "mosimodi",
        "mosimotsana",
        "motle",
        "mpho",
        "mphonyana",
        "mponeng",
        "mpumelelo",
        "muchaneta",
        "mudiwa",
        "mxolisi",
        "naledi",
        "nande",
        "nandi",
        "nandiphe",
        "ndapewa",
        "ndileka",
        "ndindi",
        "nelisiwe",
        "nhlahla",
        "nikelwa",
        "nkazimulo",
        "nkosazana",
        "nkosinathi",
        "nobantu",
        "nobini",
        "nobuhle",
        "nobuntu",
        "nocawe",
        "nodathembu",
        "nodayimni",
        "nofanele",
        "nokhanyo",
        "nokhwezi",
        "nokukhanya",
        "nokulunga",
        "nokuthula",
        "nolitha",
        "nolwandle",
        "nomabaso",
        "nomafu",
        "nomagugu",
        "nomakholwa",
        "nomalanga",
        "nomampondo",
        "nomandla",
        "nomasonto",
        "nomatha",
        "nomathalente",
        "nomathamsanqa",
        "nomathemba",
        "nomazizi",
        "nombeko",
        "nomble",
        "nombulelo",
        "nombuso",
        "nombuyiselo",
        "nomcebo",
        "nomgcobo",
        "nomlanga",
        "nomonde",
        "nomphelo",
        "nompilo",
        "nompumelelo",
        "nomqondiso",
        "nomsa",
        "nomthandazo",
        "nomusa",
        "nomvula",
        "nomzano",
        "nonduddumo",
        "nondummiso",
        "nonggawuse",
        "nonhlanhla",
        "nonhle",
        "nonjabulo",
        "nonkulukeko",
        "nontando",
        "nontiupheko",
        "nontobeko",
        "nontothuzelo",
        "nontsikelelo",
        "nonyameko",
        "nonzenzele",
        "nonzwakazi",
        "nosekeni",
        "nosine",
        "nosipho",
        "notancu",
        "notando",
        "noxolo",
        "nozibele",
        "nozibusiso",
        "nozipho",
        "nozizwe",
        "nqobile",
        "ntathu",
        "ntatu",
        "nthabiseng",
        "nthati",
        "ntombentle",
        "ntombi",
        "ntombifuthi",
        "ntombikayise",
        "ntombizanele",
        "ntombizine",
        "ntombizodidi",
        "ntombizodwa",
        "ntozake",
        "ntsebo",
        "ntswaki",
        "nyakallo",
        "oarona",
        "olwethu",
        "ontibile",
        "owethu",
        "paballo",
        "palesa",
        "pepukayi",
        "phathiwe",
        "phenyo",
        "phetuxolo",
        "phindile",
        "phutheho",
        "pula",
        "pulane",
        "pumla",
        "ramatla",
        "ramona",
        "ratsebo",
        "reabetswe",
        "reabilwe",
        "refilwe",
        "reneilwe",
        "rethabile",
        "ripuree",
        "rudo",
        "rufaro",
        "runako",
        "sakile",
        "samukelisiwe",
        "sanele",
        "sekayi",
        "setai",
        "shange",
        "sibongile",
        "sibusisiwe",
        "sihle",
        "sikhumbuzo",
        "sikose",
        "silondile",
        "simphiwe",
        "simthembele",
        "sindisiwe",
        "sinethemba",
        "siphesihle",
        "siphiwe",
        "sipo",
        "sithabile",
        "sithokozile",
        "siyabulele",
        "siyamthanda",
        "siyanda",
        "sonto",
        "spiwe",
        "thabisa",
        "thabisile",
        "thalente",
        "thandazile",
        "thandeka",
        "thandekile",
        "thandi",
        "thandiswa",
        "thandiwe",
        "thathani",
        "thato",
        "themba",
        "thembeka",
        "thembekile",
        "thembelihle",
        "thembi",
        "thembile",
        "thembisile",
        "thoko",
        "thokozile",
        "tholakele",
        "thuthukile",
        "tlotliso",
        "tokoloho",
        "tshepiso",
        "tumelo",
        "unathi",
        "uvatera",
        "vela",
        "vumile",
        "vuyelwa",
        "vuyisa",
        "vuyiswa",
        "xola",
        "xolelwa",
        "zanele",
        "zaziwe",
        "zeni",
        "zenzele",
        "zenzile",
        "zibuyile",
        "zindziwa",
        "zine",
        "zinhle",
        "zintle",
        "zola",
        "zondlile",
        "zukisa"
      ],
      "characters": [
        "a",
        "k",
        "h",
        "o",
        "n",
        "m",
        "e",
        "l",
        "g",
        "i",
        "s",
        "r",
        "b",
        "y",
        "d",
        "w",
        "t",
        "p",
        "u",
        "c",
        "z",
        "f",
        "j",
        "v",
        "x",
        "q",
        "unrecognized"
      ],
      "specialIndexes": [
        26
      ]
    }
  },
  "trainOpts": {
    "iterations": "10000",
    "errorThresh": "0.04",
    "log": false,
    "logPeriod": 1,
    "learningRate": "0.0001",
    "callbackPeriod": 1,
    "timeout": "Infinity",
    "activation": "tanh"
  },
  "input": {
    "rows": 28,
    "columns": 27,
    "weights": [
      -0.3127693831920624,
      -0.09624841809272766,
      -0.4145270586013794,
      0.11328766494989395,
      0.258154034614563,
      -0.6698963642120361,
      0.2196398377418518,
      0.39999908208847046,
      -0.48430928587913513,
      0.2625727355480194,
      -0.17116758227348328,
      0.002249338198453188,
      0.09301730990409851,
      0.38676196336746216,
      -0.09121979773044586,
      -0.2835389971733093,
      0.03232518583536148,
      0.15577386319637299,
      -0.42905473709106445,
      -0.11984675377607346,
      -0.362978994846344,
      -0.427074670791626,
      -0.13058526813983917,
      0.592212975025177,
      -0.3402591347694397,
      0.6083874106407166,
      -0.6562745571136475,
      0.710317075252533,
      0.3582723140716553,
      0.7643808126449585,
      -1.3111222982406616,
      -0.12728986144065857,
      2.220388889312744,
      0.5912652015686035,
      0.04737599194049835,
      1.4180071353912354,
      -1.1414903402328491,
      -0.9817385077476501,
      -2.133876085281372,
      -1.524519681930542,
      2.373882293701172,
      -1.390200138092041,
      -1.9586118459701538,
      1.6333203315734863,
      -1.3256728649139404,
      0.3845631182193756,
      -0.9478265643119812,
      0.8076558113098145,
      0.4939737915992737,
      -0.13104407489299774,
      -0.5446174144744873,
      1.0320825576782227,
      -1.2217719554901123,
      3.5385537147521973,
      0.03638086095452309,
      0.06528861820697784,
      -3.3708274364471436,
      -0.7681409120559692,
      0.5665645003318787,
      0.8074987530708313,
      0.07169877737760544,
      -0.7468169927597046,
      0.9684348702430725,
      2.01037859916687,
      -0.6652679443359375,
      -1.3221086263656616,
      -4.288551330566406,
      1.457274317741394,
      -0.0029478271026164293,
      0.6006457209587097,
      -2.9181854724884033,
      0.6858688592910767,
      -0.15305101871490479,
      1.8774564266204834,
      -1.0264277458190918,
      -0.7090586423873901,
      2.2834699153900146,
      2.4853107929229736,
      0.25506722927093506,
      2.5063579082489014,
      -0.12752081453800201,
      -0.20911353826522827,
      0.07785019278526306,
      -0.44057542085647583,
      -1.517277479171753,
      1.0645405054092407,
      -0.2564220130443573,
      -1.657105565071106,
      1.0236512422561646,
      -1.2055460214614868,
      1.102012276649475,
      -0.07954122126102448,
      0.12116392701864243,
      0.47437962889671326,
      -0.1545184701681137,
      -0.0032227037008851767,
      0.11031673848628998,
      0.827263355255127,
      -0.021164949983358383,
      0.2642565071582794,
      0.28470632433891296,
      -0.2369452863931656,
      -0.06991414725780487,
      -0.2062530517578125,
      0.2762143611907959,
      0.06154663860797882,
      -0.04060353711247444,
      2.0674285888671875,
      1.28020441532135,
      1.3698605298995972,
      1.0972936153411865,
      0.07169943302869797,
      1.7267436981201172,
      3.492859125137329,
      1.6419093608856201,
      0.8193365931510925,
      1.1800165176391602,
      -2.6046643257141113,
      -0.4435657560825348,
      -0.4423358738422394,
      0.9920621514320374,
      1.8898167610168457,
      0.22158735990524292,
      -1.8199918270111084,
      1.4347840547561646,
      -0.7600090503692627,
      -0.4812791347503662,
      -2.0246827602386475,
      0.6178143620491028,
      0.4375971853733063,
      -0.9671792387962341,
      -2.895164966583252,
      1.1629551649093628,
      -0.7152210474014282,
      1.3547507524490356,
      0.4201854467391968,
      0.6356357336044312,
      -2.459345817565918,
      0.20615597069263458,
      0.8510406613349915,
      -0.038210444152355194,
      -0.24669267237186432,
      -0.3352274000644684,
      -0.848154604434967,
      -0.06845792382955551,
      -0.27961933612823486,
      -1.2123812437057495,
      -0.9012910723686218,
      1.1597763299942017,
      0.3692163825035095,
      0.6023572087287903,
      -0.1370510756969452,
      0.11921781301498413,
      0.6749911308288574,
      -0.4262312352657318,
      -0.6111941337585449,
      -0.6253963708877563,
      0.996245265007019,
      1.5272470712661743,
      -0.5541300177574158,
      0.8268000483512878,
      -0.4347206950187683,
      -0.531091034412384,
      0.5988686084747314,
      -0.48916345834732056,
      -0.39191558957099915,
      -1.107637882232666,
      0.8608605861663818,
      -1.029923677444458,
      0.40896639227867126,
      -0.742688000202179,
      -0.601018488407135,
      -0.1605348289012909,
      -0.4951377809047699,
      0.11088991165161133,
      1.7207822799682617,
      0.29851168394088745,
      -0.35844218730926514,
      -0.40425431728363037,
      0.27785158157348633,
      0.6255354881286621,
      -0.4590921700000763,
      -0.0657181665301323,
      -0.7604519128799438,
      1.0415186882019043,
      0.20277880132198334,
      0.9355297088623047,
      2.2493317127227783,
      -0.6445112824440002,
      0.9430232644081116,
      0.8806798458099365,
      0.03717474639415741,
      -0.9296559691429138,
      0.2005438357591629,
      1.021701455116272,
      0.7939490675926208,
      -0.8026915788650513,
      0.6326436400413513,
      0.4160448908805847,
      0.4112747013568878,
      -1.4670014381408691,
      -0.4270358383655548,
      1.2146254777908325,
      -0.10960160195827484,
      -2.1886329650878906,
      2.2605185508728027,
      0.13595357537269592,
      0.48624104261398315,
      0.42786237597465515,
      0.22660018503665924,
      1.2006113529205322,
      0.6760832667350769,
      -1.8684940338134766,
      0.758533775806427,
      -0.9247667193412781,
      1.494886040687561,
      0.7397088408470154,
      0.7540632486343384,
      -4.03902006149292,
      0.5028372406959534,
      1.9598478078842163,
      -0.5325008630752563,
      -1.3818937540054321,
      0.18198172748088837,
      -1.7198030948638916,
      0.5510947108268738,
      -0.783480167388916,
      -0.6493638753890991,
      -1.5272892713546753,
      0.9042443633079529,
      0.688951313495636,
      0.6866329908370972,
      -1.2074074745178223,
      0.68806391954422,
      1.1869159936904907,
      0.011851989664137363,
      0.12067438662052155,
      -1.0293099880218506,
      0.37426209449768066,
      2.3916749954223633,
      -0.07210096716880798,
      2.2112717628479004,
      -0.9422593712806702,
      0.4411345422267914,
      0.1212221309542656,
      -1.4245424270629883,
      -0.07613658905029297,
      1.1882785558700562,
      2.536799192428589,
      -0.999830961227417,
      -0.6013222336769104,
      0.5551407933235168,
      -1.174568772315979,
      -1.0690399408340454,
      -0.12219046801328659,
      0.023818856105208397,
      1.1883642673492432,
      -0.31298717856407166,
      -0.834636390209198,
      -0.00459469947963953,
      -1.1335722208023071,
      -0.2175000011920929,
      0.8853793740272522,
      -0.7255342602729797,
      -0.3884561061859131,
      1.3767633438110352,
      0.5226552486419678,
      -0.5824520587921143,
      1.8595985174179077,
      2.3916800022125244,
      -0.11111564189195633,
      0.02175741270184517,
      1.2069556713104248,
      -0.2954340875148773,
      -1.7871874570846558,
      0.9814465641975403,
      0.601824939250946,
      0.27790701389312744,
      0.25375896692276,
      -1.1738262176513672,
      -0.0946241170167923,
      -1.4514524936676025,
      -0.15854158997535706,
      0.857353687286377,
      -1.0355191230773926,
      -1.584054708480835,
      1.7802650928497314,
      -0.2323097139596939,
      -0.5148053169250488,
      -0.17207783460617065,
      -0.02339203841984272,
      0.10082846134901047,
      0.24945056438446045,
      -1.4184722900390625,
      1.5160865783691406,
      -1.1754601001739502,
      0.4543049931526184,
      0.5671538710594177,
      0.7672979235649109,
      0.6870406866073608,
      -0.09094531834125519,
      -1.922749638557434,
      -0.665697455406189,
      -0.14758548140525818,
      -0.6215662360191345,
      2.8037893772125244,
      -0.5170923471450806,
      -0.523537814617157,
      -1.8403923511505127,
      -2.730020046234131,
      3.48089861869812,
      -0.7245296239852905,
      0.5412917137145996,
      -1.0274978876113892,
      -0.8714362978935242,
      0.3647717237472534,
      -1.0949649810791016,
      -1.0145926475524902,
      -0.6050118207931519,
      -0.22932198643684387,
      -0.4667609632015228,
      0.41965243220329285,
      1.0568443536758423,
      1.0317316055297852,
      1.557344913482666,
      -0.7114341259002686,
      0.021593064069747925,
      1.3612521886825562,
      -3.096837043762207,
      0.4782291054725647,
      -4.415776252746582,
      -1.4019910097122192,
      1.0008196830749512,
      2.5129311084747314,
      -1.9113588333129883,
      0.7452369332313538,
      -0.6352874636650085,
      2.255964517593384,
      -1.0512580871582031,
      -0.32396653294563293,
      -3.8321805000305176,
      0.37321585416793823,
      -2.094721555709839,
      0.9546666741371155,
      0.9871003031730652,
      1.5083142518997192,
      1.0019094944000244,
      -0.8626012206077576,
      1.2808557748794556,
      5.650149822235107,
      1.50484037399292,
      1.8323979377746582,
      0.8678160905838013,
      -2.8276870250701904,
      -2.4889793395996094,
      -0.9329167008399963,
      2.018247365951538,
      0.7161528468132019,
      -0.6472184658050537,
      -1.829987645149231,
      -1.7098450660705566,
      -0.23323951661586761,
      -3.156717538833618,
      -1.505894660949707,
      1.8119868040084839,
      2.3546788692474365,
      0.3194630444049835,
      0.56905597448349,
      0.35298097133636475,
      -0.8999980688095093,
      -1.8609240055084229,
      -0.6918299794197083,
      -0.22333605587482452,
      0.6899791955947876,
      4.7913970947265625,
      0.7183936834335327,
      -0.2359878271818161,
      -0.47320836782455444,
      3.9530422687530518,
      0.3548555374145508,
      -2.861701011657715,
      -0.13807976245880127,
      -0.8131365776062012,
      -0.6049529314041138,
      1.0063469409942627,
      -0.12455020844936371,
      -3.8984382152557373,
      1.6886740922927856,
      -1.673233985900879,
      0.1576729118824005,
      -2.3755767345428467,
      -0.3266764283180237,
      -0.6171481013298035,
      2.3596580028533936,
      -1.8959770202636719,
      -0.016664426773786545,
      -0.7295324206352234,
      2.1571714878082275,
      -2.3333427906036377,
      0.29419317841529846,
      0.9973378777503967,
      3.0987071990966797,
      1.162390112876892,
      3.0872015953063965,
      -0.36293983459472656,
      1.7014644145965576,
      -3.48148512840271,
      2.4823107719421387,
      -0.8182451725006104,
      -3.3797593116760254,
      -0.23075824975967407,
      -0.5199037790298462,
      -0.6250781416893005,
      3.314666271209717,
      -0.5657975673675537,
      -0.49977946281433105,
      0.0012074854457750916,
      -1.3671094179153442,
      3.3904786109924316,
      0.016453798860311508,
      -1.5334960222244263,
      -0.558325469493866,
      -2.5300817489624023,
      1.2810052633285522,
      -1.157331109046936,
      2.4264166355133057,
      0.5241162180900574,
      1.4025713205337524,
      -4.995028495788574,
      0.06346888840198517,
      2.881350517272949,
      4.296121597290039,
      0.4704003632068634,
      0.6839820742607117,
      -2.8148367404937744,
      -0.1913483589887619,
      1.6185758113861084,
      0.8332222104072571,
      2.111246347427368,
      -1.0385679006576538,
      -1.5279650688171387,
      0.5616862177848816,
      -0.1570516973733902,
      -1.232312798500061,
      1.0907716751098633,
      1.3335970640182495,
      1.0662530660629272,
      2.734020948410034,
      0.6485400199890137,
      0.7923546433448792,
      -0.9548951387405396,
      0.8604145646095276,
      -1.59418523311615,
      1.8308957815170288,
      1.192734718322754,
      0.6587608456611633,
      -2.713228225708008,
      1.3468601703643799,
      -1.1539047956466675,
      0.31737127900123596,
      -0.8076026439666748,
      0.055937498807907104,
      0.6580244898796082,
      -1.7771703004837036,
      0.5930188298225403,
      -1.0465680360794067,
      0.10470564663410187,
      1.5247952938079834,
      1.0727338790893555,
      0.15117745101451874,
      -2.6206014156341553,
      -1.3528999090194702,
      1.2789398431777954,
      0.8681250214576721,
      0.12934254109859467,
      1.0032548904418945,
      -0.3131592869758606,
      -0.2195081263780594,
      -1.170230507850647,
      -0.3318920135498047,
      -0.459229439496994,
      0.2984696328639984,
      -1.025726556777954,
      1.138241171836853,
      0.5180085301399231,
      1.8903100490570068,
      1.899283528327942,
      0.3316274583339691,
      1.5342823266983032,
      -2.184549331665039,
      -2.96506929397583,
      1.39683198928833,
      0.1397610753774643,
      -0.4428878724575043,
      -1.2271296977996826,
      0.10926523804664612,
      -2.3947675228118896,
      -1.6591861248016357,
      0.20307505130767822,
      -0.4258740246295929,
      -0.8815581798553467,
      1.700154423713684,
      -0.3448687195777893,
      -0.5488755106925964,
      -2.5334479808807373,
      0.06725013256072998,
      0.49304211139678955,
      2.8797550201416016,
      2.0311436653137207,
      -3.4697670936584473,
      -0.42078444361686707,
      -1.9435104131698608,
      -1.1462370157241821,
      -0.6961545348167419,
      0.34295225143432617,
      1.7534101009368896,
      -1.5667107105255127,
      -0.9049355983734131,
      1.5187395811080933,
      -0.3837936222553253,
      1.558702826499939,
      -0.33528780937194824,
      -3.7683329582214355,
      -0.6456772089004517,
      1.030281901359558,
      2.7786452770233154,
      2.0452845096588135,
      1.1601208448410034,
      -2.711602210998535,
      2.170445203781128,
      -0.37217482924461365,
      -0.9660533666610718,
      -3.1106622219085693,
      0.3367444574832916,
      -1.1206544637680054,
      0.07585087418556213,
      -2.6181447505950928,
      2.039478063583374,
      -0.03577113524079323,
      -0.08125666528940201,
      -0.9771735072135925,
      -1.9377467632293701,
      5.798035144805908,
      -0.6810096502304077,
      -2.213531970977783,
      -2.3985283374786377,
      -3.7363016605377197,
      -1.2211045026779175,
      0.7557392716407776,
      1.7484296560287476,
      -0.45267412066459656,
      -2.960282802581787,
      -2.509500503540039,
      0.22833585739135742,
      -0.4791986644268036,
      1.1259055137634277,
      2.4729223251342773,
      0.1409609615802765,
      -3.402977228164673,
      -0.6163296103477478,
      -0.24013954401016235,
      -2.9802637100219727,
      0.9494439363479614,
      -2.9151663780212402,
      0.7377525568008423,
      2.8205411434173584,
      -1.2941617965698242,
      -1.2499334812164307,
      3.5160093307495117,
      -4.764721393585205,
      3.4076876640319824,
      4.222422122955322,
      1.966139554977417,
      -0.45020073652267456,
      -1.7695564031600952,
      2.957948684692383,
      0.5507512092590332,
      1.4175399541854858,
      -3.8309316635131836,
      -5.425656318664551,
      -0.6534618139266968,
      -1.7134839296340942,
      -3.79472279548645,
      -0.6739086508750916,
      -4.302953720092773,
      0.3626106083393097,
      2.044543981552124,
      -1.7032631635665894,
      0.7592669129371643,
      2.5281059741973877,
      1.7092366218566895,
      0.09469520300626755,
      0.04489884898066521,
      3.017925500869751,
      2.7685627937316895,
      3.3904435634613037,
      -1.9040330648422241,
      -2.301203966140747,
      5.22104024887085,
      2.3194470405578613,
      0.9866839647293091,
      1.3510370254516602,
      -2.5158915519714355,
      -0.15431909263134003,
      -0.052968043833971024,
      -0.6436499953269958,
      -0.5542459487915039,
      0.930684506893158,
      1.4582732915878296,
      3.7069873809814453,
      -2.5951733589172363,
      5.0074286460876465,
      3.1732113361358643,
      -3.576798915863037,
      4.303617000579834,
      -3.7034480571746826,
      -1.9237080812454224,
      -0.5627216100692749,
      1.5099132061004639,
      3.8441221714019775,
      -6.989288806915283,
      1.794000506401062,
      1.9127883911132812,
      -1.1115882396697998,
      -0.409635066986084,
      0.6840487718582153,
      -1.7322297096252441,
      -4.16462516784668,
      -0.38710206747055054,
      -1.1025878190994263,
      -2.090364694595337,
      0.8397924304008484,
      -1.7310377359390259,
      -4.388072967529297,
      -1.3292467594146729,
      -2.732553482055664,
      0.8885715007781982,
      -2.939955472946167,
      0.11858168244361877,
      -3.334523916244507,
      -0.1571311205625534,
      0.34091395139694214,
      -1.9579322338104248,
      0.1101251170039177,
      2.5048165321350098,
      -2.9011199474334717,
      1.3104699850082397,
      0.30466389656066895,
      3.849134683609009,
      0.13781830668449402,
      -6.066561222076416,
      5.6883344650268555,
      6.799805164337158,
      0.3111253082752228,
      0.09876473248004913,
      0.8384116888046265,
      2.524115800857544,
      1.483609914779663,
      0.25479307770729065,
      -5.942135334014893,
      -1.2634503841400146,
      1.3501778841018677,
      -1.9792828559875488,
      -2.164902925491333,
      -2.359544038772583,
      -2.22577166557312,
      2.5461935997009277,
      6.215364456176758,
      -0.7831425666809082,
      -0.21427199244499207,
      4.254707336425781,
      5.155643939971924,
      -1.8202433586120605,
      5.401710510253906,
      1.6084436178207397,
      1.7685335874557495,
      -1.2314167022705078,
      -1.1238762140274048,
      -5.133071422576904,
      -0.5793072581291199,
      -1.4933080673217773,
      3.3539841175079346,
      1.3366849422454834,
      3.5325777530670166,
      0.9484111666679382,
      -1.9827921390533447,
      0.5152888298034668,
      -9.374717712402344,
      -0.3663736581802368,
      -0.27544620633125305,
      -4.232939720153809,
      -6.3313727378845215,
      -1.9816699028015137,
      -4.0221333503723145,
      -0.306599497795105,
      1.0535675287246704,
      2.172565221786499,
      1.8835922479629517,
      6.997334957122803,
      3.075585126876831,
      1.3304898738861084,
      -7.073539733886719,
      3.1145501136779785,
      0.09212999045848846,
      1.4648905992507935,
      -1.2605253458023071,
      0.8454812169075012,
      -1.4288073778152466,
      -2.5559206008911133,
      2.346583843231201,
      0.2856947183609009,
      0.030665753409266472,
      3.6848881244659424,
      -1.7781047821044922,
      -8.192963600158691,
      -0.1361442655324936,
      -4.651703357696533,
      2.159193754196167,
      0.4909398853778839,
      -0.29907140135765076,
      -0.4064912497997284,
      1.960411548614502,
      -1.393975019454956,
      0.773998498916626,
      -1.326801061630249,
      -1.6726230382919312,
      0.3111612796783447,
      2.428105115890503,
      -0.06656970083713531,
      0.0009732518810778856,
      -0.014470269903540611,
      0.01731804758310318,
      0.010444234125316143,
      -0.00860073696821928,
      -0.011883772909641266,
      -0.01033140067011118,
      0.004102162551134825,
      -0.010121870785951614,
      0.014326701872050762,
      -0.009142489172518253,
      0.015707850456237793,
      0.013489198870956898,
      0.010835126973688602,
      0.0024629279505461454,
      -0.00420995382592082,
      -0.018364643678069115,
      -0.01328972727060318,
      -0.018557336181402206,
      -0.008639647625386715,
      -0.004717770032584667,
      0.008292038924992085,
      -0.00970268901437521,
      0.012591092847287655,
      0.018102385103702545,
      0.017599279060959816,
      0.013919059187173843
    ]
  },
  "hiddenLayers": [
    {
      "inputMatrix": {
        "rows": 20,
        "columns": 27,
        "weights": [
          0.3354009985923767,
          -0.18103128671646118,
          -0.6497060060501099,
          -0.0510701946914196,
          -0.10496656596660614,
          0.3449653089046478,
          -0.10510291904211044,
          0.43565070629119873,
          0.1927596628665924,
          0.2576357424259186,
          0.05620969459414482,
          0.10050293058156967,
          -0.07343544065952301,
          -0.10771859437227249,
          -0.3202485144138336,
          -0.04013653099536896,
          -0.21972247958183289,
          -0.1881813257932663,
          -0.007808500435203314,
          -0.260314404964447,
          -0.3097233474254608,
          -0.0039955563843250275,
          0.28007739782333374,
          0.21371863782405853,
          0.2086540162563324,
          0.38401779532432556,
          -0.0823102593421936,
          0.10297079384326935,
          -0.25644150376319885,
          -0.3164820969104767,
          -0.20242224633693695,
          0.04724055156111717,
          -0.01610025390982628,
          -0.19661945104599,
          0.9216190576553345,
          -0.3660094738006592,
          0.2266993373632431,
          -0.3951480984687805,
          0.21247126162052155,
          0.00811921339482069,
          0.32070067524909973,
          0.40215176343917847,
          -0.20502448081970215,
          -0.14430269598960876,
          -0.04710954427719116,
          0.008626882918179035,
          0.26076096296310425,
          0.15982189774513245,
          -0.13490380346775055,
          0.06600314378738403,
          -0.07434109598398209,
          -0.3716591000556946,
          0.07110504806041718,
          0.09063395112752914,
          -0.18080690503120422,
          0.43782615661621094,
          -0.023456374183297157,
          -0.25987890362739563,
          0.2584148645401001,
          0.07865668833255768,
          -0.8384951949119568,
          0.3589309751987457,
          -0.09496480226516724,
          -0.20418639481067657,
          -0.143559068441391,
          -0.22185440361499786,
          -0.30607572197914124,
          -0.0925297811627388,
          -0.5162186622619629,
          -0.02309355139732361,
          0.08389470726251602,
          -0.2836616635322571,
          -0.25294217467308044,
          0.037617940455675125,
          -0.20649239420890808,
          -0.5208919644355774,
          0.14605236053466797,
          -0.2935444712638855,
          -0.29617300629615784,
          0.17961663007736206,
          -0.11391492187976837,
          -0.15687552094459534,
          0.04118819907307625,
          -0.6230221390724182,
          -0.07227067649364471,
          0.06472711265087128,
          0.1009347140789032,
          0.506611168384552,
          -0.4630747437477112,
          0.1793639063835144,
          0.32167088985443115,
          -0.643064022064209,
          -0.053846072405576706,
          0.07739926129579544,
          -0.032738447189331055,
          -0.03277995064854622,
          -0.31695467233657837,
          -0.22497257590293884,
          0.26573824882507324,
          0.5127025842666626,
          -0.06980909407138824,
          -0.27397140860557556,
          -0.13726496696472168,
          0.22082430124282837,
          -0.17739012837409973,
          -0.5157830715179443,
          0.7702393531799316,
          -0.08265130966901779,
          -0.15384793281555176,
          0.029786350205540657,
          -0.7871091961860657,
          -0.8997589945793152,
          0.3462776243686676,
          -0.40859687328338623,
          0.05211631953716278,
          0.8478026390075684,
          -0.15247006714344025,
          0.1551600843667984,
          -0.5140644311904907,
          0.13293711841106415,
          -0.08564573526382446,
          -0.06874574720859528,
          0.13669519126415253,
          -0.38802286982536316,
          -0.029556335881352425,
          -0.09341861307621002,
          -0.5863155722618103,
          -0.3476243019104004,
          -0.14295151829719543,
          -0.3168013393878937,
          0.015014472417533398,
          -0.35365501046180725,
          -0.6037396192550659,
          -0.014081060886383057,
          -0.04699037969112396,
          0.06009194999933243,
          0.28829631209373474,
          -0.40933582186698914,
          -0.07706204801797867,
          -0.11880034953355789,
          0.12154147773981094,
          0.21590851247310638,
          0.17817814648151398,
          0.006927007809281349,
          -0.26871582865715027,
          0.028456592932343483,
          -0.03545166179537773,
          0.16448968648910522,
          0.2915699779987335,
          0.3570454716682434,
          0.13693612813949585,
          0.2917690575122833,
          0.24298635125160217,
          -0.017725640907883644,
          0.1597491353750229,
          -0.24572210013866425,
          -0.20705272257328033,
          0.1589810848236084,
          0.2060997039079666,
          -0.6172317862510681,
          0.26818403601646423,
          -0.10187214612960815,
          -0.2688656151294708,
          -0.4347877502441406,
          -0.04232024401426315,
          -0.2801903188228607,
          0.01721419394016266,
          0.3315836191177368,
          -0.5223709940910339,
          -0.09116772562265396,
          0.3374665379524231,
          -0.13941678404808044,
          0.36264538764953613,
          -0.23134759068489075,
          0.07598970830440521,
          0.6196755766868591,
          -0.5168406367301941,
          0.3916037976741791,
          0.15037621557712555,
          -0.35294246673583984,
          -0.44526243209838867,
          -0.23740710318088531,
          -0.014283748343586922,
          -0.09063896536827087,
          -0.30752918124198914,
          0.2975101172924042,
          -0.0705561712384224,
          -0.28199484944343567,
          -0.34279850125312805,
          0.39453309774398804,
          -0.24596107006072998,
          -0.174264058470726,
          -0.5259129405021667,
          0.10937617719173431,
          -0.5214887857437134,
          0.3287116587162018,
          -0.08368977904319763,
          0.09951890259981155,
          0.1197582334280014,
          -0.7390892505645752,
          0.2578338384628296,
          0.014781871810555458,
          0.1689746230840683,
          -0.19533607363700867,
          -0.45898962020874023,
          -0.03622462972998619,
          -0.254022479057312,
          -0.5089609026908875,
          -0.11278291791677475,
          -0.8294165134429932,
          -0.32532998919487,
          0.3836438059806824,
          0.22516357898712158,
          0.29106855392456055,
          0.5673701167106628,
          -0.07302794605493546,
          0.09097468107938766,
          0.6671218872070312,
          -0.0234599057585001,
          0.026913538575172424,
          0.33633434772491455,
          -0.16269004344940186,
          -0.2712889015674591,
          -0.24810366332530975,
          0.18106220662593842,
          -0.16009017825126648,
          -0.42155227065086365,
          -0.6378479599952698,
          -0.8733938336372375,
          -0.36467766761779785,
          -0.6210471987724304,
          -0.4316057860851288,
          0.5628221035003662,
          0.2812022566795349,
          -0.15789325535297394,
          -0.34213903546333313,
          -0.9074651598930359,
          -0.14706812798976898,
          0.15131083130836487,
          -0.31860020756721497,
          -0.12090893089771271,
          0.3969457745552063,
          -0.23096874356269836,
          0.0830707848072052,
          0.19578365981578827,
          -0.4409588575363159,
          0.31946098804473877,
          0.34026771783828735,
          0.18813028931617737,
          0.37367525696754456,
          0.325407475233078,
          0.13531547784805298,
          0.7671268582344055,
          -0.3463975787162781,
          0.1289999783039093,
          -0.5547257661819458,
          0.05034255608916283,
          0.3132970929145813,
          -0.35663241147994995,
          0.04516949877142906,
          -0.20076829195022583,
          0.17849624156951904,
          0.023581191897392273,
          0.02681482397019863,
          -0.5707804560661316,
          0.45764273405075073,
          0.7336500287055969,
          0.4342379570007324,
          0.5648646354675293,
          0.5467609167098999,
          -0.12004914879798889,
          -0.08795210719108582,
          -0.12268727272748947,
          -0.42729777097702026,
          0.08239240199327469,
          0.10949403792619705,
          -0.208103746175766,
          0.11678995937108994,
          0.0012529208324849606,
          0.02862396091222763,
          -0.3467472195625305,
          -0.32890385389328003,
          0.14474160969257355,
          0.2994401752948761,
          -0.41829749941825867,
          -0.036838654428720474,
          0.11590621620416641,
          -0.39897653460502625,
          -0.7750573754310608,
          -0.5081251263618469,
          -0.6679019927978516,
          -0.3543030321598053,
          0.19167204201221466,
          -0.15433305501937866,
          -0.3826717436313629,
          0.16900283098220825,
          -0.3549070656299591,
          0.022309008985757828,
          0.5089397430419922,
          -0.16174866259098053,
          -0.24915069341659546,
          -0.22526168823242188,
          -0.17115674912929535,
          -0.13247135281562805,
          0.2635718882083893,
          -0.552349328994751,
          0.22868822515010834,
          -0.36943525075912476,
          0.2981500029563904,
          0.12746065855026245,
          0.054687753319740295,
          -0.31022799015045166,
          -0.40399467945098877,
          0.24314862489700317,
          -0.672040581703186,
          -0.34182289242744446,
          -0.024822408333420753,
          0.28799372911453247,
          -0.2384304255247116,
          0.03198692947626114,
          -0.1822386533021927,
          -0.10004782676696777,
          0.3508360981941223,
          -0.08451710641384125,
          0.2185809165239334,
          0.390160471200943,
          -0.41708657145500183,
          -0.434057354927063,
          0.0962376520037651,
          -0.14445753395557404,
          0.5266799330711365,
          0.3449667990207672,
          -0.021378759294748306,
          0.4098573327064514,
          0.17355558276176453,
          0.0384119488298893,
          -0.05728326365351677,
          0.40297701954841614,
          -0.17890270054340363,
          -0.3179163932800293,
          -0.184795081615448,
          0.14183931052684784,
          -0.6609126925468445,
          0.19942618906497955,
          -0.3438972234725952,
          -0.29765892028808594,
          -0.08715277165174484,
          -0.018546070903539658,
          -0.7230692505836487,
          0.3533848524093628,
          -0.13552026450634003,
          0.3127864599227905,
          -0.014615965075790882,
          -0.6364580988883972,
          -0.05508941411972046,
          -0.0029135425575077534,
          -0.2832563519477844,
          0.1648460179567337,
          0.8425337672233582,
          0.03533176705241203,
          0.3989652395248413,
          0.6744118928909302,
          0.039815664291381836,
          0.024748051539063454,
          0.08077942579984665,
          0.14061792194843292,
          -0.03739120066165924,
          -0.0006674860487692058,
          -0.3564700484275818,
          -0.8407694697380066,
          -0.16798140108585358,
          -0.40044257044792175,
          -0.7792336344718933,
          0.17747054994106293,
          -0.029767300933599472,
          -0.12898586690425873,
          0.27270495891571045,
          -0.28028589487075806,
          0.14422748982906342,
          0.13998089730739594,
          -0.06447143852710724,
          -0.6330087184906006,
          -0.048164788633584976,
          -0.45793086290359497,
          0.10769093036651611,
          0.40418967604637146,
          -0.025493010878562927,
          0.378658652305603,
          0.429237961769104,
          -0.23166467249393463,
          0.005150234326720238,
          0.7461591362953186,
          -0.3080787658691406,
          -0.20305109024047852,
          0.10802893340587616,
          -0.5810546875,
          -0.46701228618621826,
          -0.09649945795536041,
          0.18865971267223358,
          -0.25756847858428955,
          -0.11498641222715378,
          -0.049082301557064056,
          -0.2246450036764145,
          0.11910119652748108,
          -0.39569953083992004,
          0.4495362639427185,
          -0.38297775387763977,
          -0.404608815908432,
          0.18657447397708893,
          0.0714130625128746,
          -0.19806964695453644,
          0.3062358796596527,
          0.7475121021270752,
          -0.14442697167396545,
          -0.06204933673143387,
          -0.19498026371002197,
          0.10886719822883606,
          -0.4895727336406708,
          0.3113813102245331,
          0.21190105378627777,
          0.20948882400989532,
          0.2042979747056961,
          0.44382408261299133,
          -0.34618252515792847,
          -0.08577986806631088,
          -0.04219076782464981,
          -0.4005175530910492,
          -0.7036741971969604,
          0.20930711925029755,
          0.010743005201220512,
          0.06512047350406647,
          0.02012922428548336,
          0.1181359738111496,
          -0.09865541756153107,
          -0.035235628485679626,
          -0.07936850935220718,
          -0.28723248839378357,
          -0.0058062076568603516,
          0.48870575428009033,
          0.023742014542222023,
          -0.46260738372802734,
          0.05829213187098503,
          0.15540212392807007,
          0.5582045316696167,
          0.03240249305963516,
          0.03856898844242096,
          0.2623877227306366,
          0.006740789394825697,
          -0.1897958219051361,
          0.3431231677532196,
          -0.5015981197357178,
          0.1522633284330368,
          -0.6228727102279663,
          -0.682572066783905,
          0.3738959729671478,
          0.11286050081253052,
          -0.4655655324459076,
          0.5681964755058289,
          -0.10351452231407166,
          0.5388274192810059,
          0.2520446181297302,
          0.17823442816734314,
          -0.26825398206710815,
          0.09887057542800903,
          0.024200962856411934,
          0.6671905517578125,
          0.2219506800174713,
          -0.07670699805021286,
          0.16282065212726593,
          0.5405537486076355,
          0.29748255014419556,
          -0.07615996152162552,
          -0.27891430258750916,
          -0.29601866006851196,
          -0.1441914439201355,
          -0.2917926609516144,
          0.09897615760564804,
          -0.7954228520393372,
          0.23492871224880219,
          -1.1594152450561523,
          -0.42720577120780945,
          0.5088959336280823,
          -0.03302173316478729,
          0.009649444371461868,
          0.9890725016593933,
          -0.24890200793743134,
          0.30029287934303284,
          -0.09297460317611694,
          -0.17443549633026123,
          -0.3536332845687866,
          0.4068635404109955,
          -0.1204891949892044,
          0.5333511829376221,
          -0.35045117139816284,
          0.17894819378852844,
          0.19243541359901428,
          -0.42447996139526367,
          0.03143755719065666,
          0.22080637514591217,
          0.05301463603973389,
          0.140387162566185,
          -0.6982477307319641,
          -0.17902077734470367,
          0.20202623307704926,
          -0.13149169087409973,
          -0.29460951685905457,
          -0.8095589280128479,
          0.191976860165596,
          0.4315832853317261,
          0.09207815676927567,
          -0.42379215359687805,
          0.3597746193408966,
          -0.052870623767375946,
          -0.21528615057468414,
          -0.20316928625106812,
          -0.17642217874526978,
          -0.11806455999612808,
          -0.047684043645858765,
          -0.08136484026908875,
          0.2495487481355667,
          -0.3657645881175995,
          -0.47121214866638184,
          0.15203744173049927,
          -0.5671655535697937,
          -0.14662373065948486,
          -0.05467984452843666,
          0.09609897434711456,
          -0.10494363307952881,
          -0.7466821074485779,
          0.13664309680461884,
          0.164642333984375,
          0.4337847828865051,
          0.19573357701301575,
          -0.25935131311416626,
          0.19895412027835846,
          0.6037834286689758,
          0.12248782813549042,
          0.031148353591561317,
          0.5657520294189453,
          -0.23948875069618225
        ]
      },
      "inputHidden": {
        "rows": 20,
        "columns": 20,
        "weights": [
          -0.8873527646064758,
          -1.8442052602767944,
          -0.38956764340400696,
          -0.8527937531471252,
          0.9582610726356506,
          -0.6987898349761963,
          1.418108582496643,
          0.06483729928731918,
          -0.17180925607681274,
          -0.6160953044891357,
          0.40355798602104187,
          0.25477614998817444,
          0.22699765861034393,
          0.5718064904212952,
          -1.2220133543014526,
          0.36353304982185364,
          0.7091372013092041,
          1.0651079416275024,
          0.4817008078098297,
          0.46279987692832947,
          -0.183365136384964,
          -1.1494981050491333,
          -1.1068066358566284,
          -0.17306718230247498,
          0.3027482330799103,
          0.7968741059303284,
          -0.2881091237068176,
          -0.6053269505500793,
          -0.024999501183629036,
          -0.4237731695175171,
          0.09211187064647675,
          0.7059586644172668,
          -0.8665554523468018,
          1.2827751636505127,
          -0.5425924062728882,
          0.5684722065925598,
          0.013538320548832417,
          -0.11139009892940521,
          0.3839240074157715,
          0.12341351807117462,
          -0.06648093461990356,
          0.595674991607666,
          -0.5904036164283752,
          -0.04051770269870758,
          -0.06329628825187683,
          0.03388727828860283,
          -0.8524932861328125,
          -0.9973821640014648,
          0.49886173009872437,
          -0.49025535583496094,
          0.5438058376312256,
          0.90181565284729,
          -0.5094152688980103,
          0.9327386617660522,
          -0.5467650890350342,
          0.15952979028224945,
          1.5301899909973145,
          -0.7839257121086121,
          -0.6751948595046997,
          0.20249789953231812,
          -2.0492372512817383,
          -0.13299071788787842,
          0.10619872063398361,
          -0.1814880073070526,
          -0.05057678371667862,
          0.04408349096775055,
          -0.9681605696678162,
          1.048877477645874,
          0.28917843103408813,
          0.8453037738800049,
          0.19866116344928741,
          -0.10099633038043976,
          -0.19458584487438202,
          0.8220707774162292,
          -0.48858901858329773,
          1.7569983005523682,
          0.380776584148407,
          -0.28466230630874634,
          -0.21972410380840302,
          0.296526163816452,
          -0.67811119556427,
          -0.194297656416893,
          -0.15035800635814667,
          -0.9597790241241455,
          0.8492039442062378,
          1.1858620643615723,
          -0.20858341455459595,
          1.0560680627822876,
          0.24210278689861298,
          -1.103985071182251,
          1.2991493940353394,
          0.049693889915943146,
          -0.16907204687595367,
          -0.0769759938120842,
          -1.0643069744110107,
          1.8302342891693115,
          -0.26172930002212524,
          -0.22609207034111023,
          0.4687148332595825,
          0.1668851673603058,
          -1.3747551441192627,
          -0.39693814516067505,
          -0.4408126771450043,
          0.2984389364719391,
          1.1604697704315186,
          -1.2811795473098755,
          -1.1196717023849487,
          -0.30873844027519226,
          0.7358131408691406,
          0.8111473321914673,
          0.5422326326370239,
          -0.1942344605922699,
          -0.2864328920841217,
          0.4701121747493744,
          -0.6935673952102661,
          0.13228639960289001,
          -0.33648136258125305,
          -0.40956076979637146,
          0.6862924695014954,
          -1.050628662109375,
          -0.2467959225177765,
          -0.05043821781873703,
          -0.027559544891119003,
          -0.027061136439442635,
          0.5540520548820496,
          -0.30802521109580994,
          -0.6057208776473999,
          -0.045488014817237854,
          0.7454800605773926,
          0.17292502522468567,
          0.10289324074983597,
          -0.10450740903615952,
          0.592943549156189,
          1.4414341449737549,
          -0.9009279012680054,
          1.0134576559066772,
          1.6779134273529053,
          -0.5495505928993225,
          -0.07731270045042038,
          -0.1699368804693222,
          -0.21545790135860443,
          0.6746454238891602,
          0.28838419914245605,
          0.2510553300380707,
          0.16631653904914856,
          -1.350266933441162,
          -0.6003007888793945,
          -0.27778592705726624,
          1.1859049797058105,
          -0.19655990600585938,
          1.0192649364471436,
          -1.3428549766540527,
          0.04290315881371498,
          -0.2778131365776062,
          0.05556413158774376,
          0.24400705099105835,
          -0.4398486912250519,
          -0.20105670392513275,
          1.2684898376464844,
          0.8181599378585815,
          -0.49152424931526184,
          0.3997161388397217,
          -0.02350654825568199,
          0.5515748858451843,
          -0.26350581645965576,
          -0.8548773527145386,
          -0.25237467885017395,
          0.5289302468299866,
          0.7677294015884399,
          1.3438618183135986,
          0.22458377480506897,
          -0.3432627320289612,
          0.6144351959228516,
          0.8028178811073303,
          0.018727686256170273,
          0.7089320421218872,
          -0.8688794374465942,
          -0.18356050550937653,
          -0.2658306360244751,
          0.3241369128227234,
          -0.47012484073638916,
          -0.0821872279047966,
          -0.5380460619926453,
          0.09483330696821213,
          0.36207205057144165,
          -0.11001447588205338,
          -0.41191720962524414,
          0.8885148763656616,
          0.7989152073860168,
          0.15677814185619354,
          -0.2249860167503357,
          -0.4024147093296051,
          -0.5458967089653015,
          0.23646512627601624,
          -0.6134741306304932,
          0.6702144145965576,
          0.9424110651016235,
          -1.2773438692092896,
          0.482950896024704,
          -1.276474952697754,
          -0.2095717340707779,
          0.1455502063035965,
          -0.1930612474679947,
          0.6432850956916809,
          -0.6568522453308105,
          0.9975188970565796,
          0.8912814259529114,
          -0.142521932721138,
          -0.5100075602531433,
          -0.42271825671195984,
          -0.5967268347740173,
          0.7585355639457703,
          -0.6393764615058899,
          -0.30386847257614136,
          -0.15903471410274506,
          0.39708977937698364,
          -0.08926817029714584,
          -1.3273402452468872,
          0.562497079372406,
          -0.9429000616073608,
          -0.505407452583313,
          0.23646627366542816,
          -0.4050717353820801,
          0.897278904914856,
          -0.8111457228660583,
          -1.0880882740020752,
          -0.05993182212114334,
          -0.4496520161628723,
          0.7213709950447083,
          -0.08328264951705933,
          1.375900387763977,
          -1.3924225568771362,
          1.485715389251709,
          -0.0908011943101883,
          -0.635430097579956,
          0.574730634689331,
          -0.1652746945619583,
          0.7759010195732117,
          -0.10408148914575577,
          0.6318281292915344,
          -0.31609249114990234,
          -0.3796858787536621,
          -0.4884570837020874,
          0.0847436711192131,
          1.877098560333252,
          0.34797054529190063,
          -0.014892484992742538,
          -0.8985483050346375,
          -0.19764024019241333,
          -0.0873524621129036,
          0.5085998177528381,
          0.6767705082893372,
          0.6077784895896912,
          -0.23907092213630676,
          -0.5343735814094543,
          1.1191046237945557,
          0.3415602445602417,
          0.3498677611351013,
          0.022134307771921158,
          -0.2538052797317505,
          -1.5274101495742798,
          -0.9596044421195984,
          -1.1834787130355835,
          0.2890980839729309,
          0.06573399156332016,
          0.7498571872711182,
          -1.3927032947540283,
          -0.11555653810501099,
          0.8445918560028076,
          0.8194656372070312,
          0.27217596769332886,
          -0.7898402214050293,
          -0.16389329731464386,
          0.41800230741500854,
          -0.9486749172210693,
          0.49697837233543396,
          1.1342486143112183,
          -1.9232604503631592,
          -0.041975993663072586,
          -0.26887020468711853,
          -0.193216934800148,
          -0.2941663861274719,
          -0.1449851393699646,
          0.33656734228134155,
          0.9669808745384216,
          1.2673470973968506,
          -0.24528926610946655,
          -0.14995312690734863,
          -0.36416637897491455,
          0.07135935127735138,
          -1.0739202499389648,
          0.35872194170951843,
          0.24185386300086975,
          0.05788882076740265,
          -0.8620880842208862,
          -0.34617146849632263,
          0.33706793189048767,
          -0.25863128900527954,
          1.7724741697311401,
          -0.08057957142591476,
          -0.1970522552728653,
          0.4204961657524109,
          -0.004318463150411844,
          0.6351673603057861,
          -0.37459099292755127,
          -1.2482260465621948,
          -0.48834899067878723,
          -0.6103907823562622,
          0.5553579330444336,
          0.05416983366012573,
          -0.47913503646850586,
          0.04102751240134239,
          0.15194003283977509,
          0.4763058125972748,
          -0.48827478289604187,
          1.3962252140045166,
          0.42689943313598633,
          -1.449008584022522,
          1.4959602355957031,
          -0.9237167835235596,
          -0.46576830744743347,
          -0.8375564217567444,
          -0.9145559668540955,
          -0.19837068021297455,
          0.1555391252040863,
          0.581521213054657,
          -0.6659907698631287,
          0.6912859678268433,
          0.14563685655593872,
          -0.02493322640657425,
          -0.3697809875011444,
          -0.478511780500412,
          -0.19580817222595215,
          0.8021585941314697,
          -0.8088074922561646,
          0.716297447681427,
          0.8177696466445923,
          -0.02813703753054142,
          0.330267071723938,
          -0.9518823623657227,
          -0.26879170536994934,
          0.15018047392368317,
          -0.8586091995239258,
          -1.015660285949707,
          0.243547260761261,
          -0.050146788358688354,
          -0.14514175057411194,
          -0.17231762409210205,
          0.40709978342056274,
          -0.30338338017463684,
          0.34853217005729675,
          -0.8285133242607117,
          -0.05543437600135803,
          1.1608844995498657,
          -1.3818477392196655,
          0.11173055320978165,
          -0.029229940846562386,
          0.024612192064523697,
          0.10426315665245056,
          -0.7775439620018005,
          0.01031841617077589,
          0.32423293590545654,
          -0.38056716322898865,
          -0.43679001927375793,
          0.37546902894973755,
          0.7098885774612427,
          0.17809396982192993,
          -0.1250523179769516,
          0.6416320204734802,
          -0.593956708908081,
          -0.24886491894721985,
          -0.19525185227394104,
          -0.37789613008499146,
          -0.6525800824165344,
          -0.24090969562530518,
          0.1310163140296936,
          0.32320693135261536,
          0.06775473803281784,
          0.20667412877082825,
          -0.08143828064203262,
          0.16666796803474426,
          -0.09589411318302155,
          -0.617326557636261,
          0.7071541547775269,
          1.095709204673767,
          -0.31686919927597046,
          -0.9816853404045105,
          -0.2581510543823242,
          0.22206129133701324,
          -0.3971732556819916,
          -0.2735472321510315,
          -1.0574597120285034,
          -0.40408724546432495,
          -0.08197888731956482,
          -0.7799832224845886,
          0.5085480809211731,
          0.025395948439836502,
          -0.08895261585712433,
          0.0593411922454834,
          -0.6077943444252014
        ]
      },
      "inputBias": {
        "rows": 20,
        "columns": 1,
        "weights": [
          0.15720878541469574,
          -0.12963604927062988,
          0.05007809400558472,
          0.7994116544723511,
          0.19519662857055664,
          -0.1339990794658661,
          0.28899163007736206,
          0.2735934853553772,
          0.5736166834831238,
          -0.006384992506355047,
          0.7064096331596375,
          0.14267343282699585,
          0.7446033954620361,
          0.2520309388637543,
          0.3462264835834503,
          0.8371934294700623,
          0.24182899296283722,
          0.38423046469688416,
          0.48230868577957153,
          0.0449308305978775
        ]
      },
      "forgetMatrix": {
        "rows": 20,
        "columns": 27,
        "weights": [
          -0.3342684507369995,
          -0.09274303168058395,
          -0.08532001823186874,
          -0.4523966908454895,
          0.018842440098524094,
          0.3479241132736206,
          0.19693723320960999,
          0.48322030901908875,
          -0.12782248854637146,
          -0.28536590933799744,
          -0.7653714418411255,
          -0.02336762845516205,
          0.11384692043066025,
          0.3704514503479004,
          -0.12260684370994568,
          -0.15115861594676971,
          -0.08571517467498779,
          -0.10854879021644592,
          -0.20453640818595886,
          0.4591444730758667,
          -0.45963233709335327,
          0.01313670352101326,
          -0.1092420369386673,
          -0.14992046356201172,
          -0.134206622838974,
          0.4168080687522888,
          0.26971128582954407,
          0.16788679361343384,
          0.038926053792238235,
          -0.15027260780334473,
          -0.1974894404411316,
          0.003598051844164729,
          -0.10365929454565048,
          0.5865011215209961,
          1.092452883720398,
          -0.09489963948726654,
          -0.23286013305187225,
          1.007753849029541,
          -0.3279567360877991,
          -0.1649651974439621,
          -0.1312679946422577,
          0.05072787404060364,
          0.0806586742401123,
          0.2385401427745819,
          -0.009740044362843037,
          -0.8930478692054749,
          0.2776713967323303,
          -0.6066105961799622,
          -0.6894444227218628,
          0.2187202274799347,
          0.23984822630882263,
          -0.19218508899211884,
          0.26220405101776123,
          -0.11205852031707764,
          -0.7387570142745972,
          -0.2558811604976654,
          -0.2980996370315552,
          0.49213096499443054,
          0.023934729397296906,
          -0.0007448455435223877,
          0.07128233462572098,
          0.38799673318862915,
          0.24152125418186188,
          -0.11417342722415924,
          0.1793150007724762,
          -0.5739779472351074,
          0.09910956025123596,
          0.2825973331928253,
          0.2792874872684479,
          0.04304792359471321,
          0.08223727345466614,
          0.1434154212474823,
          0.48109328746795654,
          -0.020312540233135223,
          -0.12128816545009613,
          -0.4115087687969208,
          0.22380295395851135,
          0.4451224207878113,
          0.052315063774585724,
          0.06238739565014839,
          -0.2532416880130768,
          0.8633031249046326,
          -0.010123885236680508,
          -0.16519753634929657,
          -0.19999410212039948,
          0.1977495402097702,
          0.31844964623451233,
          0.9152142405509949,
          0.2761163115501404,
          0.009188574738800526,
          -0.0690595954656601,
          0.008398739621043205,
          0.2867606580257416,
          0.42629823088645935,
          0.1215272918343544,
          0.46525847911834717,
          -0.04516072943806648,
          -0.2953680753707886,
          0.23005104064941406,
          -0.38061872124671936,
          0.62314373254776,
          0.3271973431110382,
          0.20894324779510498,
          -0.33018383383750916,
          -0.0837399885058403,
          -0.45388704538345337,
          -0.1789211928844452,
          0.330122709274292,
          0.13658104836940765,
          0.11476875096559525,
          0.07847155630588531,
          -0.10245895385742188,
          0.14209423959255219,
          0.06648579984903336,
          0.31121063232421875,
          -0.6586030721664429,
          0.12241353839635849,
          -0.05935925990343094,
          -0.3796752393245697,
          0.36843374371528625,
          0.14652463793754578,
          0.005368122365325689,
          0.010001187212765217,
          -0.2051740437746048,
          -0.05557232350111008,
          -0.15107902884483337,
          -0.010959246195852757,
          0.11544173955917358,
          -0.2293860763311386,
          0.1666371375322342,
          0.12482234835624695,
          0.21398073434829712,
          -0.5367119908332825,
          0.35577213764190674,
          -0.16648851335048676,
          -0.6938678622245789,
          0.6310730576515198,
          -0.28874585032463074,
          -0.2025526762008667,
          -0.29489728808403015,
          -0.22150418162345886,
          -0.3841911256313324,
          -0.47591379284858704,
          -0.5406603813171387,
          -0.03410464897751808,
          -1.4987441301345825,
          0.5943267345428467,
          -0.0938088595867157,
          0.20720507204532623,
          -0.5231538414955139,
          -0.6195480227470398,
          0.0500962994992733,
          -0.4181598722934723,
          0.4992011487483978,
          -0.3486148416996002,
          0.029038233682513237,
          0.7228761911392212,
          -0.0062378281727433205,
          -0.0742301270365715,
          -0.4310586154460907,
          0.09392577409744263,
          -0.0670144334435463,
          -0.18695692718029022,
          0.0049599092453718185,
          0.07486091554164886,
          -0.5006441473960876,
          0.16267837584018707,
          -0.0726560726761818,
          0.1304275095462799,
          -0.5963488817214966,
          0.3211410641670227,
          -0.007343108765780926,
          -0.0595310814678669,
          0.02918584644794464,
          0.28396716713905334,
          0.031611088663339615,
          -0.6071655750274658,
          -0.6741241216659546,
          -0.06641882658004761,
          0.2619878947734833,
          -0.175709068775177,
          0.07008696347475052,
          -0.26813673973083496,
          0.402638703584671,
          0.25425827503204346,
          -0.328631728887558,
          0.4112660586833954,
          0.10045768320560455,
          0.03521675243973732,
          -0.4349362552165985,
          0.09086146205663681,
          0.4057977795600891,
          0.5098469853401184,
          -0.277029812335968,
          -0.4261038303375244,
          -1.0478525161743164,
          -0.43803685903549194,
          -0.17562007904052734,
          0.2750655710697174,
          0.35047850012779236,
          0.14820066094398499,
          -0.1335650533437729,
          -0.11380665004253387,
          -0.11365808546543121,
          0.08949440717697144,
          0.4251641035079956,
          -0.3583105206489563,
          0.4478549659252167,
          0.1210077553987503,
          1.3905906677246094,
          0.4808991253376007,
          -0.47530198097229004,
          0.1706310659646988,
          0.7164691090583801,
          -0.9755764603614807,
          0.14153535664081573,
          0.35250017046928406,
          -0.2356989085674286,
          -0.2295243889093399,
          0.06884849816560745,
          -0.34250473976135254,
          0.20285703241825104,
          0.051638852804899216,
          0.0935978889465332,
          -0.10387277603149414,
          0.28718075156211853,
          0.8145840167999268,
          0.36600223183631897,
          -0.1436367928981781,
          0.2108723372220993,
          0.08991944789886475,
          0.6654194593429565,
          -0.046606726944446564,
          0.3528288006782532,
          -0.3614490330219269,
          -0.028274204581975937,
          0.1460810899734497,
          -0.32264620065689087,
          -0.0801125168800354,
          0.015164905227720737,
          -0.01793627440929413,
          -0.174224391579628,
          -0.027890171855688095,
          -0.2250809669494629,
          0.04459356516599655,
          0.2643857002258301,
          -0.5766661763191223,
          -0.08703777194023132,
          -0.0019646096043288708,
          0.06957555562257767,
          -0.1461857706308365,
          0.3249472677707672,
          0.04412621259689331,
          -0.36304789781570435,
          -0.22932910919189453,
          0.34874218702316284,
          0.08172519505023956,
          -0.5813694596290588,
          -0.7210103273391724,
          0.39630451798439026,
          0.018290743231773376,
          0.21142074465751648,
          0.30287525057792664,
          -0.6639179587364197,
          -0.07251977920532227,
          0.39194485545158386,
          -0.15471577644348145,
          -0.1516348421573639,
          0.46324142813682556,
          0.48445257544517517,
          -0.175030916929245,
          -0.12501104176044464,
          0.04205553978681564,
          0.3260517716407776,
          -0.11236481368541718,
          0.39414358139038086,
          0.3048632740974426,
          0.6954385042190552,
          -0.2835198938846588,
          -0.7839678525924683,
          0.9902468323707581,
          0.5136357545852661,
          0.014602498151361942,
          0.1437973827123642,
          -0.16378530859947205,
          -0.05011024698615074,
          0.7028537392616272,
          -0.1651960015296936,
          0.0636400580406189,
          0.3993196189403534,
          -0.03155338019132614,
          -0.10191717743873596,
          0.21164295077323914,
          0.20938420295715332,
          0.41138651967048645,
          0.22923636436462402,
          -0.42955753207206726,
          -0.037625961005687714,
          -0.06249788776040077,
          0.036268096417188644,
          0.6310721039772034,
          0.5951431393623352,
          0.09820257127285004,
          -0.5059632658958435,
          -0.36678391695022583,
          0.09594862163066864,
          0.15145401656627655,
          -0.12135973572731018,
          0.17400944232940674,
          -0.7156277298927307,
          -0.18837256729602814,
          0.4159199595451355,
          0.1256512850522995,
          -0.018468687310814857,
          -0.33329716324806213,
          -0.02473369799554348,
          0.056654978543519974,
          -0.11173877120018005,
          0.39806580543518066,
          -0.4289170801639557,
          0.23875507712364197,
          -0.5548680424690247,
          -0.14874331653118134,
          -0.35771748423576355,
          -0.2456730604171753,
          0.0805775597691536,
          -0.46135056018829346,
          -0.4001920223236084,
          0.2262587696313858,
          -0.0916253998875618,
          -0.06135079637169838,
          -0.42696714401245117,
          -0.19541092216968536,
          -0.14984728395938873,
          -1.4878935813903809,
          0.2849780321121216,
          0.06554919481277466,
          0.18262749910354614,
          -0.15331485867500305,
          -0.646034300327301,
          -0.4457366168498993,
          -0.3256785571575165,
          0.2492801994085312,
          -0.06501437723636627,
          0.43277642130851746,
          0.4772409498691559,
          0.213155135512352,
          0.057562366127967834,
          -0.5868021845817566,
          0.20661213994026184,
          -0.22658824920654297,
          -0.122687429189682,
          0.27570420503616333,
          0.0026631506625562906,
          -0.01010753121227026,
          -0.5319635272026062,
          -0.06315786391496658,
          0.3864358365535736,
          -0.8621896505355835,
          -0.455357164144516,
          -0.1846189945936203,
          -0.18119676411151886,
          0.2043255716562271,
          0.09027273952960968,
          0.08889748156070709,
          -0.20757877826690674,
          -0.14872027933597565,
          0.07977356016635895,
          0.326447069644928,
          0.26776185631752014,
          0.3744937479496002,
          -0.1872165948152542,
          -0.20041559636592865,
          0.13502147793769836,
          -0.5042130947113037,
          -0.15842151641845703,
          0.13932934403419495,
          0.003527589375153184,
          -0.2980324625968933,
          0.4942797124385834,
          0.2610478103160858,
          -0.73687344789505,
          -0.1519254893064499,
          0.22703522443771362,
          0.5044532418251038,
          -0.023513764142990112,
          0.6646517515182495,
          0.16520944237709045,
          0.19966435432434082,
          -0.5780290961265564,
          0.2921788990497589,
          0.25308170914649963,
          -0.8037254810333252,
          -0.12253334373235703,
          -0.4234786033630371,
          0.38245224952697754,
          -0.1418638527393341,
          -0.3057858347892761,
          0.3120700716972351,
          -0.08194645494222641,
          -0.07677068561315536,
          -0.36268383264541626,
          0.20929564535617828,
          -0.14502327144145966,
          0.5317897200584412,
          -0.45206713676452637,
          0.16816820204257965,
          0.1889776885509491,
          -0.010312655009329319,
          -0.07942739129066467,
          -0.39177992939949036,
          -0.48899146914482117,
          0.006616140250116587,
          -0.38417109847068787,
          0.29740139842033386,
          0.27227696776390076,
          -0.278476744890213,
          0.1826116442680359,
          -0.18598459661006927,
          0.05546702444553375,
          -0.3411169946193695,
          0.4278789162635803,
          -0.40413898229599,
          -0.02212098054587841,
          0.15742707252502441,
          -0.26655763387680054,
          0.5758426785469055,
          0.21845479309558868,
          -0.4004749655723572,
          0.20727486908435822,
          0.017810365185141563,
          -0.0493987537920475,
          0.3423018157482147,
          -0.07241059094667435,
          -0.16505122184753418,
          -0.4309355914592743,
          -0.127043679356575,
          -0.14896179735660553,
          0.24977853894233704,
          -0.06448109447956085,
          -0.03636369854211807,
          -0.07635201513767242,
          -0.1406186819076538,
          0.17602814733982086,
          0.2794589102268219,
          0.14157241582870483,
          0.15320903062820435,
          0.20490944385528564,
          0.19798628985881805,
          0.4806651473045349,
          -0.33131924271583557,
          -0.1703786998987198,
          0.12199895083904266,
          -0.11583605408668518,
          -0.5316377878189087,
          -0.1289970874786377,
          -0.16173046827316284,
          0.3627265989780426,
          -0.3052397668361664,
          0.5746766924858093,
          -0.24266506731510162,
          -0.5888399481773376,
          0.07174305617809296,
          -0.16014346480369568,
          -0.06262341141700745,
          0.042007021605968475,
          -0.017639046534895897,
          -0.17359794676303864,
          0.6377593874931335,
          0.5888708233833313,
          0.6451839208602905,
          -0.20791053771972656,
          0.24952833354473114,
          0.49703341722488403,
          0.23780128359794617,
          -0.1066976860165596,
          0.049818746745586395,
          0.023366691544651985,
          0.141647070646286,
          0.20955699682235718,
          -0.027308877557516098,
          -0.2248663306236267,
          0.14991866052150726,
          0.038297612220048904,
          -0.08209460973739624,
          -0.36435627937316895,
          0.24780692160129547,
          -0.15641941130161285,
          -0.4079777002334595,
          0.2756205201148987,
          -0.0029577778186649084,
          -0.08869172632694244,
          -0.1420641541481018,
          0.6551777720451355,
          -0.06596453487873077,
          -0.7223707437515259,
          -0.29366037249565125,
          -0.40053021907806396,
          -0.07040443271398544,
          0.20042577385902405,
          0.23967956006526947,
          0.1110970601439476,
          0.17547982931137085,
          -0.002936837263405323,
          -0.18039417266845703,
          -0.03843691945075989,
          -0.5139657855033875,
          -0.6699504852294922,
          -0.11152920871973038,
          0.2184583842754364,
          0.04962862655520439,
          -0.012526126578450203,
          -0.03081679530441761,
          -0.05125516280531883,
          0.0008690838003531098,
          0.0007086083642207086,
          -0.1625022441148758,
          0.1671232134103775,
          0.07935502380132675,
          -0.17364250123500824,
          0.0497552789747715,
          0.20352719724178314,
          -0.1710791289806366,
          0.28234171867370605,
          -0.23521475493907928,
          -0.23352020978927612,
          -0.004697680007666349,
          -0.07723121345043182,
          -0.03513511270284653,
          -0.22595524787902832,
          0.38000673055648804,
          0.20090700685977936,
          -0.38840052485466003,
          0.7315579056739807,
          -0.08645269274711609,
          0.20074474811553955,
          0.04638213664293289,
          0.16037403047084808,
          -0.17156417667865753,
          -0.18334448337554932
        ]
      },
      "forgetHidden": {
        "rows": 20,
        "columns": 20,
        "weights": [
          -0.7237452268600464,
          0.5121631026268005,
          -0.29677534103393555,
          -0.6065146923065186,
          -0.011084605008363724,
          -0.205972820520401,
          -0.7403056621551514,
          0.2091396003961563,
          -0.08718658983707428,
          0.3469960689544678,
          0.4116874039173126,
          -0.5251548886299133,
          0.21575133502483368,
          -0.4265725612640381,
          0.21424463391304016,
          -0.16929857432842255,
          -1.1420934200286865,
          -0.017429711297154427,
          -1.265140414237976,
          0.32506948709487915,
          -0.3495246171951294,
          -0.801999032497406,
          -0.18288545310497284,
          -0.16033783555030823,
          0.4252932369709015,
          -0.11959458887577057,
          -0.9099116921424866,
          0.14562474191188812,
          0.7833601832389832,
          0.33063840866088867,
          0.32707682251930237,
          -0.6563420295715332,
          0.2607843577861786,
          -0.04973234236240387,
          -0.2938017249107361,
          -0.6100043654441833,
          1.29963219165802,
          -0.9700250029563904,
          -0.0881032943725586,
          -0.02014397643506527,
          -0.9394792914390564,
          0.324214369058609,
          -0.570756733417511,
          -1.0292012691497803,
          0.5412068367004395,
          -1.2878684997558594,
          0.44879376888275146,
          0.12173421680927277,
          -0.17594218254089355,
          -1.3400293588638306,
          0.331502765417099,
          -0.34471914172172546,
          0.40441980957984924,
          0.501099169254303,
          -0.005878152791410685,
          0.6097679138183594,
          -0.2181159406900406,
          -0.34113162755966187,
          0.38063856959342957,
          -0.029601285234093666,
          0.8729321360588074,
          0.3411446511745453,
          -0.1758795529603958,
          1.040615439414978,
          0.1362272948026657,
          -0.5906195640563965,
          -0.8787474036216736,
          0.4702686369419098,
          0.09045004099607468,
          0.22839541733264923,
          -0.8718501925468445,
          -0.3461493253707886,
          -0.14925602078437805,
          -0.7604066729545593,
          0.10580295324325562,
          -0.23002074658870697,
          0.7044071555137634,
          0.1571868658065796,
          0.9656071662902832,
          -1.3600825071334839,
          0.36303645372390747,
          -0.3095668852329254,
          -0.7602510452270508,
          -0.9405036568641663,
          0.2770368456840515,
          0.6158435344696045,
          0.1576533168554306,
          0.5460125207901001,
          0.022333165630698204,
          -1.523431420326233,
          -0.027311446145176888,
          0.8731653690338135,
          -0.2748461663722992,
          0.38752418756484985,
          0.09732998162508011,
          0.3462056517601013,
          -0.18876288831233978,
          -0.41702690720558167,
          -0.31894922256469727,
          0.39301735162734985,
          0.1696220338344574,
          0.3453471064567566,
          0.29366910457611084,
          0.3821072578430176,
          -1.0130417346954346,
          1.0027847290039062,
          0.14236462116241455,
          -0.23328030109405518,
          0.22398340702056885,
          0.6025575399398804,
          -0.21069785952568054,
          0.022984543815255165,
          0.6681607365608215,
          -0.40612277388572693,
          -0.3572840988636017,
          0.5817294716835022,
          1.0444331169128418,
          0.24344965815544128,
          -0.12874120473861694,
          -0.2982986569404602,
          0.6224703788757324,
          -0.05205390229821205,
          0.8721295595169067,
          0.15930771827697754,
          -0.14094792306423187,
          -0.5727550387382507,
          0.010496078059077263,
          -0.6196256875991821,
          0.2674313187599182,
          -0.15165676176548004,
          -0.5186047554016113,
          -0.08040924370288849,
          -0.31943798065185547,
          0.4474089443683624,
          -0.2911551594734192,
          0.06336531043052673,
          -0.05324781686067581,
          0.21891561150550842,
          -0.2586015462875366,
          -0.7100499272346497,
          -0.43155479431152344,
          0.6557083129882812,
          0.5642820596694946,
          0.3710537254810333,
          -1.3181425333023071,
          1.442344307899475,
          0.19071193039417267,
          0.338561475276947,
          -0.6850806474685669,
          -0.08629573881626129,
          -0.016440894454717636,
          0.6013579368591309,
          -0.7806065678596497,
          -0.9548100829124451,
          0.46122410893440247,
          0.037032660096883774,
          -0.5591338872909546,
          -0.6232336163520813,
          -0.2587531507015228,
          -0.7554239630699158,
          -0.25066235661506653,
          0.02759857289493084,
          0.45814651250839233,
          -0.2969939112663269,
          0.08905233442783356,
          0.6143842935562134,
          0.3008730113506317,
          0.2508348226547241,
          0.5300987362861633,
          0.3237913250923157,
          0.4213128089904785,
          -0.26059290766716003,
          0.08064489811658859,
          0.2718111574649811,
          -0.3570757806301117,
          0.19846582412719727,
          0.029028918594121933,
          -0.8717857003211975,
          0.11848732084035873,
          0.13340166211128235,
          -1.6847565174102783,
          -0.31511420011520386,
          -0.23905730247497559,
          0.9158141016960144,
          -0.6552809476852417,
          -1.0872867107391357,
          -1.2626415491104126,
          -0.3698180019855499,
          -0.1607709527015686,
          -0.26438361406326294,
          0.4211089611053467,
          -0.269731342792511,
          -0.4301089644432068,
          -0.06318310648202896,
          -0.5409559607505798,
          1.2331676483154297,
          -0.027056049555540085,
          -0.0289675984531641,
          0.004730217158794403,
          -0.7084162831306458,
          -0.6192238330841064,
          -0.5426157712936401,
          -0.8952677249908447,
          0.837122917175293,
          -1.8571995496749878,
          -0.6955229043960571,
          -1.0251144170761108,
          0.09721110016107559,
          -0.045919690281152725,
          -0.34736356139183044,
          0.2678142189979553,
          -0.4341587722301483,
          -0.9714257121086121,
          0.3895147442817688,
          -0.006256930064409971,
          -0.13957475125789642,
          -0.13638678193092346,
          0.3255539536476135,
          -0.2023034542798996,
          -0.03872663900256157,
          -0.5084538459777832,
          0.0320904478430748,
          -0.5003411769866943,
          0.1385474056005478,
          0.5215651392936707,
          0.012216457165777683,
          -0.07451001554727554,
          0.24759390950202942,
          0.1835584193468094,
          0.2417541742324829,
          0.10355652868747711,
          0.4118853211402893,
          0.020643405616283417,
          0.3208819627761841,
          -0.061673056334257126,
          0.5500326156616211,
          -0.280141681432724,
          0.9768878817558289,
          -0.11755732446908951,
          -0.31406673789024353,
          -0.5949095487594604,
          -0.35371634364128113,
          0.8192492723464966,
          0.10051217675209045,
          0.03855711966753006,
          -0.022191694006323814,
          0.6571628451347351,
          -0.30203837156295776,
          -0.17885780334472656,
          0.0320873036980629,
          -0.29791590571403503,
          -0.123564712703228,
          -0.18186165392398834,
          -0.44709041714668274,
          -0.04498276486992836,
          -0.02898303046822548,
          -0.1623905748128891,
          0.8468759059906006,
          -0.07980164885520935,
          -0.233843132853508,
          -0.07498594373464584,
          -0.3945215940475464,
          0.9341020584106445,
          -0.8336794972419739,
          0.9645596742630005,
          0.3191133439540863,
          -0.06879125535488129,
          0.42121613025665283,
          -0.9870386123657227,
          0.04813172295689583,
          -1.2776576280593872,
          0.17469261586666107,
          -0.19276893138885498,
          0.35597503185272217,
          -0.24167634546756744,
          -0.809087336063385,
          0.18175441026687622,
          0.2657167315483093,
          0.3807357847690582,
          1.3492997884750366,
          0.28536924719810486,
          0.800092339515686,
          0.1098436564207077,
          0.09735193848609924,
          0.3182268738746643,
          -0.39313608407974243,
          -0.5539532899856567,
          0.2263808250427246,
          -0.0340326651930809,
          -0.43336308002471924,
          -0.9739546179771423,
          -0.9151151776313782,
          1.0478929281234741,
          0.6825873255729675,
          -0.6360471844673157,
          0.088045135140419,
          0.06513625383377075,
          0.41413000226020813,
          -0.46610012650489807,
          -0.070126973092556,
          -0.6307055950164795,
          -0.07189913094043732,
          -0.14890475571155548,
          0.3202592730522156,
          -0.07709372043609619,
          0.34945788979530334,
          0.26668572425842285,
          -0.471749871969223,
          -0.9070033431053162,
          -0.03198729828000069,
          -0.5574889183044434,
          0.48586350679397583,
          -0.34267762303352356,
          0.21920189261436462,
          -0.43796125054359436,
          0.46125465631484985,
          0.077998585999012,
          0.5817659497261047,
          -0.036979641765356064,
          0.05775327607989311,
          1.0047097206115723,
          -0.9624506831169128,
          0.1398354321718216,
          0.6591105461120605,
          -0.09115201979875565,
          0.9049273729324341,
          -0.7337798476219177,
          -0.1983385980129242,
          -0.20222075283527374,
          0.7008302211761475,
          0.05787600576877594,
          0.6687173843383789,
          0.23930075764656067,
          0.2374429702758789,
          -0.38795197010040283,
          -0.2645653188228607,
          0.4596778452396393,
          0.42859530448913574,
          0.3266434669494629,
          -0.22469095885753632,
          0.6876842975616455,
          -0.7106928825378418,
          -0.3388462960720062,
          0.9148373007774353,
          0.4160195291042328,
          0.3809831142425537,
          -0.9052177667617798,
          0.4516013264656067,
          -0.038941774517297745,
          -0.24715077877044678,
          -1.0724258422851562,
          -0.210862398147583,
          -0.10201200097799301,
          0.4831048250198364,
          -0.705381453037262,
          0.8825830221176147,
          0.8535264134407043,
          0.26936033368110657,
          0.12627556920051575,
          0.21776366233825684,
          -0.3748680353164673,
          -0.399848610162735,
          -0.33260104060173035,
          -0.41018009185791016,
          -0.004126370884478092,
          0.012111750431358814,
          -0.15399117767810822,
          0.7122461795806885,
          -0.39074182510375977,
          -0.23069360852241516,
          -0.06323963403701782,
          0.13923439383506775,
          -0.5329484939575195,
          0.39774811267852783,
          0.5851181149482727,
          -0.11558420211076736,
          -0.13408681750297546,
          -0.24992629885673523,
          0.07216491550207138,
          0.5367716550827026,
          0.7671790719032288,
          -0.591377317905426,
          -0.2931390106678009,
          1.74945068359375,
          -0.8554337024688721,
          -0.4561305344104767,
          1.0553059577941895,
          0.8273164629936218,
          -0.166841059923172,
          0.6218954920768738,
          -0.4192233979701996,
          -0.6157383322715759,
          0.8155652284622192,
          -1.2352298498153687,
          -0.18628232181072235,
          -0.10403041541576385,
          0.3217727243900299,
          -0.028594909235835075,
          1.086883783340454,
          -0.4608567953109741
        ]
      },
      "forgetBias": {
        "rows": 20,
        "columns": 1,
        "weights": [
          0,
          0,
          0,
          0,
          0,
          0,
          0,
          0,
          0,
          0,
          0,
          0,
          0,
          0,
          0,
          0,
          0,
          0,
          0,
          0
        ]
      },
      "outputMatrix": {
        "rows": 20,
        "columns": 27,
        "weights": [
          0.37484073638916016,
          0.22828556597232819,
          -0.046764958649873734,
          -0.4450964629650116,
          0.07329621911048889,
          0.027272164821624756,
          -0.01728774979710579,
          0.5938627123832703,
          -0.19095613062381744,
          0.8505250811576843,
          -0.02068185992538929,
          0.2481258511543274,
          -0.29466328024864197,
          0.270927757024765,
          -0.3420950472354889,
          -0.19407455623149872,
          -0.20056748390197754,
          -0.539247453212738,
          -0.42304274439811707,
          -0.058065347373485565,
          0.15449081361293793,
          0.22546307742595673,
          -0.0417012982070446,
          -0.11763500422239304,
          0.1253434419631958,
          0.09957035630941391,
          -0.11916698515415192,
          0.10272888094186783,
          -0.08095873147249222,
          0.10865674167871475,
          -0.6244110465049744,
          -0.0841113030910492,
          0.5700158476829529,
          -0.17740757763385773,
          0.9572916030883789,
          0.10058967024087906,
          -0.2594044506549835,
          0.3637462556362152,
          0.006358177866786718,
          -0.18938048183918,
          0.018586302176117897,
          -0.26979249715805054,
          0.14147484302520752,
          -0.3788648545742035,
          -0.5041002035140991,
          -0.6635773777961731,
          -0.15325839817523956,
          -0.5833376049995422,
          -1.0400909185409546,
          0.48077473044395447,
          -0.020744217559695244,
          -0.36105334758758545,
          0.07249996811151505,
          0.2390424907207489,
          0.07929326593875885,
          -0.32924818992614746,
          0.05083142966032028,
          -0.23008237779140472,
          -0.2705674469470978,
          0.10079848021268845,
          -0.44959381222724915,
          0.17318981885910034,
          0.2950049936771393,
          0.07842604070901871,
          0.9479539394378662,
          -0.4987383484840393,
          0.22412730753421783,
          0.12458793073892593,
          -0.1977909654378891,
          0.32609298825263977,
          -0.054085586220026016,
          -0.43907415866851807,
          -0.8599392175674438,
          0.2453136295080185,
          -0.10780437290668488,
          -0.4282325208187103,
          0.11451534181833267,
          0.006373582407832146,
          0.04666614532470703,
          0.17587889730930328,
          -0.12246019393205643,
          0.38673174381256104,
          0.22858142852783203,
          -0.43909788131713867,
          -0.39963874220848083,
          -0.05102486535906792,
          -0.34335100650787354,
          0.13720892369747162,
          0.7826758623123169,
          -0.14872229099273682,
          0.24270407855510712,
          0.5092176795005798,
          -0.012904387898743153,
          0.14623090624809265,
          0.2860884368419647,
          0.18025898933410645,
          -0.16423183679580688,
          -0.18397317826747894,
          0.08074592798948288,
          -1.4360249042510986,
          0.14829444885253906,
          -0.6287277340888977,
          -0.6544156670570374,
          0.5711604356765747,
          -0.429054856300354,
          -0.1555885523557663,
          0.6025484800338745,
          -0.26765209436416626,
          0.20290270447731018,
          0.18450504541397095,
          -0.29099321365356445,
          -0.8271466493606567,
          0.2596108615398407,
          0.19534923136234283,
          -0.11578425765037537,
          -0.25722187757492065,
          0.28452736139297485,
          0.020477520301938057,
          -0.4678329527378082,
          -0.007783812005072832,
          0.10210760682821274,
          0.2034849375486374,
          -0.15913380682468414,
          -0.4828472137451172,
          -0.33337146043777466,
          0.15976852178573608,
          -0.3977554440498352,
          -0.048616647720336914,
          -0.973328709602356,
          -0.1973130702972412,
          0.3959733843803406,
          -0.21451698243618011,
          -0.4593775272369385,
          0.6523804068565369,
          -0.317148894071579,
          -0.10574916750192642,
          -0.03449687734246254,
          -0.7292366623878479,
          -0.40302324295043945,
          0.11030830442905426,
          -0.04818757250905037,
          0.6089709997177124,
          -1.113993525505066,
          0.07224668562412262,
          0.055671412497758865,
          -0.4478764235973358,
          0.13322027027606964,
          0.551408052444458,
          0.3708767592906952,
          -0.1695811003446579,
          -0.7286987900733948,
          0.20635008811950684,
          0.42591947317123413,
          -0.10304483771324158,
          0.2801488935947418,
          -0.6393626928329468,
          0.2269318699836731,
          -0.18184161186218262,
          -0.18223801255226135,
          -0.7020501494407654,
          0.6513444185256958,
          0.3513013422489166,
          0.371954083442688,
          -0.4133762717247009,
          -0.17826472222805023,
          -0.1574448049068451,
          -0.1350959688425064,
          -0.03142797574400902,
          -0.16704174876213074,
          0.7046701908111572,
          0.24253419041633606,
          0.051888443529605865,
          0.1739630550146103,
          0.09319230169057846,
          0.37801676988601685,
          -0.3838249146938324,
          -0.39185813069343567,
          -0.4983491599559784,
          -0.508278489112854,
          -0.29262346029281616,
          -0.967188835144043,
          0.07624251395463943,
          -0.7005525827407837,
          -0.7278016805648804,
          0.67383873462677,
          0.027463100850582123,
          0.6682483553886414,
          0.2811635732650757,
          -0.08520215004682541,
          -0.10734803974628448,
          0.41980910301208496,
          0.2641862630844116,
          -0.3052123785018921,
          -0.20083008706569672,
          0.07668469101190567,
          0.30501484870910645,
          0.013597466051578522,
          0.2308758944272995,
          -0.15655213594436646,
          -0.18947404623031616,
          0.32202503085136414,
          0.2358362227678299,
          0.15587598085403442,
          -0.3854411840438843,
          -0.7911174893379211,
          0.22763417661190033,
          -0.30405062437057495,
          -0.4137204587459564,
          0.15533730387687683,
          -0.21652813255786896,
          -0.3199392855167389,
          -0.33647528290748596,
          0.12205708026885986,
          -0.6383126378059387,
          0.26855096220970154,
          0.42708680033683777,
          -0.09134740382432938,
          0.11613477021455765,
          -0.7273020148277283,
          -0.11391892284154892,
          -0.28300559520721436,
          0.1808675229549408,
          0.487515926361084,
          -0.3820215165615082,
          -0.29698941111564636,
          0.09928033500909805,
          -0.21398106217384338,
          0.03253311291337013,
          -0.12216071039438248,
          0.4551026523113251,
          0.023532072082161903,
          -0.27195194363594055,
          0.17274150252342224,
          0.2845715880393982,
          0.07477638125419617,
          0.2953527867794037,
          -0.8601495623588562,
          -0.35210782289505005,
          0.33626270294189453,
          0.12655766308307648,
          -0.504038393497467,
          0.6134762167930603,
          -0.08641290664672852,
          -0.039943140000104904,
          0.217174232006073,
          -0.23706220090389252,
          -0.38555485010147095,
          0.06622340530157089,
          0.18660014867782593,
          0.7998235821723938,
          0.641228199005127,
          -0.14579124748706818,
          0.572887122631073,
          -0.11892622709274292,
          0.27960994839668274,
          -0.14443832635879517,
          0.15833184123039246,
          -0.09409646689891815,
          -0.5813072919845581,
          -0.03050137683749199,
          0.08930382132530212,
          0.09804629534482956,
          0.42190781235694885,
          -0.09178715944290161,
          0.02796996384859085,
          0.3905053734779358,
          0.2982771694660187,
          0.25615090131759644,
          0.2966439127922058,
          0.053792525082826614,
          -0.029261264950037003,
          0.21220619976520538,
          0.11709742248058319,
          -0.32082706689834595,
          0.057369645684957504,
          -0.072111576795578,
          -0.1470642387866974,
          0.3831654191017151,
          -0.07614535838365555,
          0.3121565878391266,
          0.009579499252140522,
          0.002008609240874648,
          -0.047774720937013626,
          -0.17735067009925842,
          -0.5836285352706909,
          -0.2427961677312851,
          0.07767412066459656,
          -0.11350817233324051,
          -0.44318461418151855,
          -0.026176342740654945,
          -0.6151071786880493,
          -0.39331191778182983,
          0.03673722594976425,
          -0.048514384776353836,
          -0.39784061908721924,
          0.7389301657676697,
          -0.4491863548755646,
          -0.015284739434719086,
          -0.06134264916181564,
          0.0451982244849205,
          -0.17066515982151031,
          -0.08793579041957855,
          0.19011074304580688,
          -0.43861550092697144,
          1.4252076148986816,
          -0.02244916744530201,
          0.138257697224617,
          0.5393310189247131,
          0.022841766476631165,
          0.19810433685779572,
          0.13028740882873535,
          -0.24527785181999207,
          0.11837612837553024,
          0.11237199604511261,
          -0.28055018186569214,
          -0.5306909680366516,
          0.2555214464664459,
          -0.3971813917160034,
          -0.6783730983734131,
          0.16635294258594513,
          0.14885681867599487,
          -0.055074293166399,
          0.12640830874443054,
          -0.2005518227815628,
          -0.1227547824382782,
          -0.0004620301479008049,
          -0.3691061735153198,
          -0.33398789167404175,
          -0.24183882772922516,
          -0.1831045299768448,
          0.16217924654483795,
          0.5636510252952576,
          -0.237504780292511,
          -0.14138980209827423,
          0.0639997348189354,
          0.04627450183033943,
          -0.14867423474788666,
          -0.024243999272584915,
          -0.691562831401825,
          -0.17434190213680267,
          -0.11481271684169769,
          -0.24640008807182312,
          -0.5937461256980896,
          -0.044690072536468506,
          -0.2894194424152374,
          -0.7081714272499084,
          0.04197292402386665,
          0.18738247454166412,
          -0.15214379131793976,
          0.40768423676490784,
          -0.10513582825660706,
          0.5635823011398315,
          0.09899159520864487,
          0.2785051167011261,
          -0.9939534664154053,
          0.20471125841140747,
          0.02223854698240757,
          0.18966569006443024,
          0.3972245752811432,
          -0.058678414672613144,
          0.15340714156627655,
          0.6893503665924072,
          -0.1545848697423935,
          -0.04998099058866501,
          0.3976716101169586,
          0.1083284392952919,
          0.1151915043592453,
          -0.028881413862109184,
          -0.7400765419006348,
          -0.964963972568512,
          0.02519066259264946,
          -0.6164778470993042,
          -0.6091448068618774,
          0.21826861798763275,
          -0.05027230456471443,
          -0.8430999517440796,
          0.12101560086011887,
          0.0039793397299945354,
          -0.006195310037583113,
          0.18690286576747894,
          0.14399203658103943,
          -0.5015996694564819,
          0.20003925263881683,
          0.1442093402147293,
          0.10166604071855545,
          0.7505349516868591,
          -0.39808082580566406,
          0.360348105430603,
          0.033608414232730865,
          0.049389731138944626,
          -0.2406563013792038,
          0.129342183470726,
          -0.4085676074028015,
          -0.4723037779331207,
          0.2958064377307892,
          -0.17844106256961823,
          -0.9313649535179138,
          0.01337630208581686,
          -0.030845975503325462,
          -0.5188375115394592,
          0.3624138832092285,
          -0.24023471772670746,
          -0.185098335146904,
          -0.11893048882484436,
          -0.0944451168179512,
          0.24699579179286957,
          0.3560675084590912,
          -0.4868275821208954,
          -0.15794311463832855,
          -0.06996241211891174,
          -0.2794930934906006,
          0.02733575738966465,
          0.35180795192718506,
          -0.3557285964488983,
          0.639473557472229,
          0.46356695890426636,
          -0.017566220834851265,
          -0.13607695698738098,
          -0.10735519230365753,
          -0.16673482954502106,
          -0.6931036710739136,
          0.3536546528339386,
          0.07276773452758789,
          -0.4448096752166748,
          -0.07121071964502335,
          0.027625733986496925,
          0.038644492626190186,
          0.20154082775115967,
          -0.3426026403903961,
          0.14417539536952972,
          0.05099891498684883,
          -0.5519378781318665,
          -0.08502917736768723,
          -0.6647590398788452,
          -0.28657692670822144,
          -0.4511575400829315,
          -0.2833210825920105,
          -0.08402824401855469,
          -0.34191644191741943,
          0.21056996285915375,
          0.3227179944515228,
          -0.21206066012382507,
          0.13539427518844604,
          -0.2822130024433136,
          0.5028805136680603,
          0.23891451954841614,
          -0.5834847688674927,
          0.38048121333122253,
          0.028239332139492035,
          -0.20634573698043823,
          -1.2199575901031494,
          -0.1337510496377945,
          0.05847951024770737,
          -0.6413699984550476,
          0.23324193060398102,
          -0.25174084305763245,
          -0.3714284896850586,
          0.2744143009185791,
          -0.38571491837501526,
          0.3702484965324402,
          -0.4671667218208313,
          -0.31256023049354553,
          -0.09668700397014618,
          0.06547405570745468,
          0.09206274896860123,
          0.017789626494050026,
          0.4170069992542267,
          -0.17668494582176208,
          0.4092958867549896,
          0.1782967895269394,
          -0.24309544265270233,
          -0.13649538159370422,
          0.42252179980278015,
          -0.21332934498786926,
          0.15865132212638855,
          0.32574397325515747,
          0.209314227104187,
          -0.5001425743103027,
          -0.39314964413642883,
          -0.15755540132522583,
          -0.6370407342910767,
          0.19588062167167664,
          0.14690379798412323,
          0.2002892643213272,
          0.352821409702301,
          -0.2167385369539261,
          -0.01002983283251524,
          -0.03961025923490524,
          -0.27928218245506287,
          -0.1668694019317627,
          -0.10776525735855103,
          -0.007105069700628519,
          -0.21826480329036713,
          0.07341648638248444,
          -0.00021956286218483,
          0.11544240266084671,
          -0.03725552186369896,
          -0.10074812173843384,
          -0.143906831741333,
          0.2577383518218994,
          -0.46421581506729126,
          -0.18660803139209747,
          -0.035205066204071045,
          0.15972357988357544,
          -0.4086809754371643,
          -0.44752100110054016,
          -0.46947550773620605,
          -0.5526785850524902,
          0.07746277004480362,
          -0.11558184772729874,
          -0.17106510698795319,
          0.4313034117221832,
          -0.29536163806915283,
          0.470522403717041,
          0.16291700303554535,
          -0.31604039669036865,
          -0.544926643371582,
          0.27289196848869324,
          0.1342754065990448,
          0.08387769758701324,
          0.35255107283592224,
          0.2837545871734619,
          0.1849411278963089,
          0.05096140131354332,
          0.08889158070087433,
          -0.16044774651527405,
          -0.10223636031150818,
          -0.20612390339374542,
          -0.2312404066324234,
          -0.19783398509025574,
          0.07594862580299377,
          -0.09423021972179413,
          -0.09660562127828598,
          -0.5678579211235046,
          -0.05388365313410759,
          -0.08861732482910156,
          -0.014216403476893902,
          -0.16495829820632935,
          0.12474658340215683,
          -0.008177927695214748
        ]
      },
      "outputHidden": {
        "rows": 20,
        "columns": 20,
        "weights": [
          -0.171914741396904,
          -1.442518949508667,
          -0.772708535194397,
          -0.7704435586929321,
          0.31932154297828674,
          0.5659647583961487,
          -0.3837324380874634,
          0.3812064230442047,
          1.3870843648910522,
          -0.29889464378356934,
          0.7268086671829224,
          -1.177321195602417,
          0.5459455251693726,
          1.3738856315612793,
          -0.5163933634757996,
          0.8756814002990723,
          0.5739718079566956,
          0.848957359790802,
          -0.5247539281845093,
          -0.5485393404960632,
          0.2404102087020874,
          0.13192810118198395,
          -0.5439061522483826,
          1.0993255376815796,
          1.2430639266967773,
          0.40300118923187256,
          -0.4506402313709259,
          -0.8243575096130371,
          0.08808305114507675,
          -1.0671154260635376,
          -0.21688996255397797,
          -0.4120616912841797,
          -0.15661489963531494,
          0.2561667263507843,
          -0.7620082497596741,
          0.5220528841018677,
          0.3573795258998871,
          -0.24028052389621735,
          0.239496111869812,
          -0.7925058007240295,
          -0.24223275482654572,
          -0.03381691128015518,
          -0.10797490179538727,
          0.7197187542915344,
          0.3028806746006012,
          0.49896910786628723,
          -0.313056081533432,
          -0.8098376989364624,
          1.2997055053710938,
          0.7558213472366333,
          0.021801188588142395,
          0.4101400375366211,
          -0.16640549898147583,
          0.2539779543876648,
          -0.6426790356636047,
          1.2798492908477783,
          0.7381500005722046,
          -1.7543797492980957,
          -0.4636356234550476,
          -0.5800819993019104,
          0.10010936856269836,
          0.05356157198548317,
          0.34428438544273376,
          -0.14842289686203003,
          -0.0002579072315711528,
          -0.45827144384384155,
          -1.128833293914795,
          -0.42671942710876465,
          0.8144626617431641,
          -0.012827521190047264,
          0.16435472667217255,
          -1.175593376159668,
          1.2151572704315186,
          0.7589162588119507,
          -2.8812625408172607,
          0.8816152215003967,
          0.9745643138885498,
          -0.9496912360191345,
          0.33622726798057556,
          -0.18005205690860748,
          -0.7132382988929749,
          -0.1945008784532547,
          -0.7399041056632996,
          -0.6948748826980591,
          0.32160356640815735,
          1.363735318183899,
          -0.043747786432504654,
          -0.5153830647468567,
          -0.0714273750782013,
          -1.1606078147888184,
          -0.6984906196594238,
          0.6125591397285461,
          -0.3660731017589569,
          0.5008080005645752,
          -1.1980589628219604,
          0.389411598443985,
          -0.18202060461044312,
          0.4462681710720062,
          0.03530358150601387,
          -0.19882886111736298,
          -0.46463942527770996,
          -0.8253474235534668,
          -0.7871991395950317,
          -0.036429475992918015,
          1.3029342889785767,
          -0.43700164556503296,
          -0.6463203430175781,
          -0.5362878441810608,
          0.7514629364013672,
          1.6518663167953491,
          0.9401116967201233,
          0.4465983808040619,
          1.1280244588851929,
          1.3959481716156006,
          -1.2735769748687744,
          0.7552370429039001,
          0.2630598843097687,
          -0.602954626083374,
          -0.09520974010229111,
          -0.5548694133758545,
          0.1679029017686844,
          0.21698366105556488,
          0.012383152730762959,
          0.1987530142068863,
          -0.3094947338104248,
          0.4269106984138489,
          -0.17343147099018097,
          -0.08990129083395004,
          0.29367586970329285,
          -0.9512544870376587,
          -0.7756934762001038,
          -1.1800377368927002,
          0.5449444651603699,
          1.0526715517044067,
          -1.0587531328201294,
          1.1965223550796509,
          0.3742189109325409,
          -0.4065225124359131,
          -0.28163427114486694,
          -0.5311833620071411,
          -0.15754172205924988,
          -1.0327098369598389,
          -0.8434995412826538,
          -0.06360446661710739,
          0.08348415791988373,
          0.867087721824646,
          -1.6518656015396118,
          -1.7198184728622437,
          0.09632661938667297,
          0.7144834399223328,
          0.21341264247894287,
          0.6825605034828186,
          -0.37625327706336975,
          0.8945583701133728,
          -1.2673393487930298,
          0.6919184923171997,
          1.084693431854248,
          0.7246606349945068,
          0.11951320618391037,
          -0.9643188118934631,
          -0.7201024293899536,
          -1.280938982963562,
          -1.169193983078003,
          -0.5415492057800293,
          0.7834775447845459,
          2.2311713695526123,
          -1.551529884338379,
          1.2612398862838745,
          0.39021462202072144,
          0.39189818501472473,
          -0.1818152517080307,
          -0.8353514671325684,
          -0.1215200424194336,
          1.577797770500183,
          -0.2449842393398285,
          0.5133684277534485,
          0.6291382908821106,
          -1.3341877460479736,
          0.7148268818855286,
          -0.46864908933639526,
          -0.19139060378074646,
          -0.3957803547382355,
          -1.1813246011734009,
          0.8078799247741699,
          0.6159999370574951,
          0.16056782007217407,
          -0.3029003441333771,
          0.5279941558837891,
          0.3635771870613098,
          -0.47098320722579956,
          -0.3750198185443878,
          -0.7232534289360046,
          -0.4861699342727661,
          0.2956412136554718,
          -0.7128374576568604,
          0.12907731533050537,
          1.1022653579711914,
          -0.6390167474746704,
          1.027474045753479,
          -0.6790794730186462,
          -1.9502180814743042,
          -0.09080364555120468,
          -1.3213506937026978,
          -0.4604891240596771,
          0.00893737468868494,
          -0.027915168553590775,
          -0.21264037489891052,
          -0.20618480443954468,
          0.7245303988456726,
          -0.7009605765342712,
          -0.42288365960121155,
          0.14195546507835388,
          0.0756630003452301,
          0.08573716878890991,
          -0.6442806720733643,
          1.083182454109192,
          -0.1713830828666687,
          -0.9258102178573608,
          -0.350197970867157,
          -1.0042744874954224,
          -0.7239835858345032,
          -0.781458854675293,
          -0.45609259605407715,
          0.7793104648590088,
          0.712282121181488,
          0.07142103463411331,
          -1.0423756837844849,
          -0.4119892120361328,
          1.1509809494018555,
          0.2714996337890625,
          -0.05987333506345749,
          0.15406620502471924,
          0.4408206641674042,
          -0.4994322955608368,
          -0.6163333058357239,
          0.7018175721168518,
          1.259277105331421,
          -1.5930495262145996,
          1.5551716089248657,
          -0.6639531254768372,
          -0.6724464893341064,
          -0.4789620637893677,
          -0.13947135210037231,
          0.1212821677327156,
          -0.04742927849292755,
          1.8348395824432373,
          -0.6163456439971924,
          -0.5519890785217285,
          1.3538401126861572,
          -0.5103327631950378,
          0.09852037578821182,
          0.6082542538642883,
          0.18206794559955597,
          -0.8475486040115356,
          -0.8390669822692871,
          0.8827698230743408,
          0.9590892791748047,
          -0.3913472592830658,
          0.5557485222816467,
          -0.19702403247356415,
          -0.13113611936569214,
          -2.957951784133911,
          -0.18721571564674377,
          0.6638949513435364,
          -0.44489505887031555,
          1.0169386863708496,
          -0.2517102360725403,
          0.02546270191669464,
          0.8479302525520325,
          -0.16526755690574646,
          1.3865286111831665,
          0.31160521507263184,
          0.9899590611457825,
          -0.91667240858078,
          -0.6162523627281189,
          0.06113402545452118,
          2.526494026184082,
          -0.8176801800727844,
          -0.2281636744737625,
          -0.6829009652137756,
          -0.9804419875144958,
          -0.30901286005973816,
          -0.38899141550064087,
          0.8045603036880493,
          0.12425534427165985,
          -0.03323898836970329,
          -0.9614332914352417,
          0.21382057666778564,
          0.11742638051509857,
          0.006893250625580549,
          -0.2649365961551666,
          -0.019881099462509155,
          -0.07004639506340027,
          1.0383591651916504,
          -1.093984842300415,
          0.9796314835548401,
          -0.866046667098999,
          -0.3578428328037262,
          0.68792724609375,
          -0.5662371516227722,
          -0.46795716881752014,
          0.317378431558609,
          -0.569888174533844,
          0.2853861153125763,
          -0.8498879075050354,
          1.1055924892425537,
          -0.6802719235420227,
          -0.19537730515003204,
          0.4040142297744751,
          -0.5114858150482178,
          0.46620166301727295,
          0.12709879875183105,
          0.08710261434316635,
          0.9751884341239929,
          -0.9183251857757568,
          0.14430272579193115,
          0.1910940259695053,
          -1.2349774837493896,
          0.7991406917572021,
          -0.8904014825820923,
          0.20476114749908447,
          -1.461065649986267,
          0.09723867475986481,
          -0.03116130642592907,
          0.10518047213554382,
          -0.3632407486438751,
          0.06273537129163742,
          0.4266898036003113,
          0.313069224357605,
          -0.5832008719444275,
          -0.9916464686393738,
          -0.5347916483879089,
          0.5389766693115234,
          0.3648746907711029,
          -0.8425267338752747,
          0.26688769459724426,
          0.2695384621620178,
          0.4931027889251709,
          0.20620816946029663,
          -0.8194354772567749,
          -1.4674464464187622,
          -1.0494853258132935,
          -0.45475175976753235,
          0.3282395601272583,
          0.18751230835914612,
          -0.9477635622024536,
          -0.3367866575717926,
          0.07852889597415924,
          1.3670698404312134,
          1.2693331241607666,
          -0.18798226118087769,
          -1.1572883129119873,
          0.16765417158603668,
          0.02328682877123356,
          -0.5848574638366699,
          2.120001792907715,
          1.1965913772583008,
          -0.6977431774139404,
          -0.1360023319721222,
          -0.4456319212913513,
          -0.5861807465553284,
          -0.41560640931129456,
          0.24938622117042542,
          1.2651629447937012,
          0.30680254101753235,
          0.0977649986743927,
          -0.3626905083656311,
          -0.7896153926849365,
          0.16908366978168488,
          -0.07496410608291626,
          0.5696290731430054,
          -0.6143196225166321,
          0.30295273661613464,
          0.4927286207675934,
          -0.6719247102737427,
          -0.08615753054618835,
          1.4772891998291016,
          0.9893857836723328,
          1.463387370109558,
          -0.4720059335231781,
          -1.2251497507095337,
          -0.4558461010456085,
          -0.6552624106407166,
          0.6841484308242798,
          0.26203832030296326,
          0.3372572958469391,
          -1.0633256435394287,
          1.2497905492782593,
          0.6943319439888,
          0.40609171986579895,
          0.26580387353897095,
          -1.501084804534912,
          -0.10890815407037735,
          -0.42071446776390076,
          -0.11156497895717621,
          0.09357059001922607,
          0.6545665860176086,
          -0.16024063527584076,
          0.0738067626953125,
          -0.6640521883964539
        ]
      },
      "outputBias": {
        "rows": 20,
        "columns": 1,
        "weights": [
          0.1513844132423401,
          -0.13250848650932312,
          0.05014936625957489,
          0.7750929594039917,
          0.179325133562088,
          -0.12748248875141144,
          0.28631922602653503,
          0.2930062413215637,
          0.5862926840782166,
          -0.00985152367502451,
          0.7191948294639587,
          0.14106027781963348,
          0.7477360367774963,
          0.2539065480232239,
          0.33667731285095215,
          0.8432273864746094,
          0.24474649131298065,
          0.37737512588500977,
          0.47077521681785583,
          0.03557802364230156
        ]
      },
      "cellActivationMatrix": {
        "rows": 20,
        "columns": 27,
        "weights": [
          -0.006494791712611914,
          0.038749340921640396,
          0.45643898844718933,
          0.34598278999328613,
          -0.13585416972637177,
          -0.28459712862968445,
          0.005566345527768135,
          -0.3405584990978241,
          0.1412242203950882,
          0.14111843705177307,
          0.5219444632530212,
          0.4945622384548187,
          -0.2241404503583908,
          -0.12844589352607727,
          0.4398801922798157,
          0.028083093464374542,
          0.14074179530143738,
          -0.10032381117343903,
          0.290127694606781,
          0.04399849474430084,
          0.2913890480995178,
          0.37450799345970154,
          -0.16426455974578857,
          0.5034825205802917,
          -0.0809071809053421,
          -0.48427584767341614,
          -0.3753262758255005,
          -0.4591962397098541,
          0.12535907328128815,
          0.6803893446922302,
          0.43436935544013977,
          -0.2591572403907776,
          0.05820648372173309,
          -0.06462599337100983,
          -0.3543703854084015,
          0.018125737085938454,
          -0.2846020460128784,
          -0.006199417635798454,
          -0.25337618589401245,
          -0.07020300626754761,
          -0.15691041946411133,
          0.029771720990538597,
          0.2026890367269516,
          0.13526788353919983,
          -0.19572949409484863,
          -0.11054573953151703,
          0.38999199867248535,
          -0.052992381155490875,
          -0.11663777381181717,
          0.11715083569288254,
          0.23801520466804504,
          0.0041049774736166,
          0.07122974097728729,
          0.09625336527824402,
          -0.25838249921798706,
          0.2354087233543396,
          0.22474470734596252,
          -0.12739689648151398,
          -0.05895106866955757,
          -0.07619773596525192,
          0.13274525105953217,
          0.4642288386821747,
          -0.01815134286880493,
          0.3014889061450958,
          0.6548874974250793,
          -0.026583431288599968,
          -0.1480933278799057,
          0.07645309716463089,
          -0.059978142380714417,
          0.047647301107645035,
          -0.051194433122873306,
          -0.15428206324577332,
          -0.29372379183769226,
          -0.0992458239197731,
          0.5569806694984436,
          0.14083346724510193,
          -0.2860202491283417,
          0.116856649518013,
          0.044255755841732025,
          0.052918169647455215,
          -0.37062421441078186,
          0.10475554317235947,
          0.3616551458835602,
          0.08038599044084549,
          0.22893227636814117,
          -0.015423936769366264,
          0.06142266467213631,
          0.32188454270362854,
          -0.4396962523460388,
          -0.12104541063308716,
          0.24981120228767395,
          -0.5506480932235718,
          0.15044118463993073,
          -0.01679985225200653,
          0.2273007482290268,
          0.3114456236362457,
          -0.025754986330866814,
          -0.2405034303665161,
          -0.4089120030403137,
          -0.11445233970880508,
          0.08164402097463608,
          0.4348781108856201,
          -0.1550128012895584,
          -0.5798137187957764,
          0.08530741184949875,
          -0.44161665439605713,
          -0.12340113520622253,
          0.202771857380867,
          -0.18939200043678284,
          -0.2351199835538864,
          -0.2591119706630707,
          0.03176863119006157,
          0.2079685777425766,
          -0.06159261241555214,
          0.07711239904165268,
          0.22972920536994934,
          0.0823463574051857,
          -0.08640046417713165,
          -0.06839151680469513,
          -0.1322999745607376,
          -0.2942875325679779,
          0.07457496225833893,
          -0.09626363962888718,
          0.02514595538377762,
          0.00529099116101861,
          0.12556682527065277,
          -0.26905375719070435,
          0.036196183413267136,
          -0.49165889620780945,
          -0.12003826349973679,
          -0.18203362822532654,
          -0.08994568139314651,
          -0.18803982436656952,
          0.10339361429214478,
          -0.28175556659698486,
          0.025212343782186508,
          -0.025639044120907784,
          -0.12006354331970215,
          0.008353423327207565,
          -0.09313731640577316,
          0.24758900701999664,
          -0.26023706793785095,
          0.23644603788852692,
          -0.11573731899261475,
          0.016104964539408684,
          0.41116034984588623,
          0.0695628970861435,
          -0.2503671646118164,
          -0.25453659892082214,
          0.12427391856908798,
          0.105923593044281,
          0.04254116490483284,
          0.4973387122154236,
          0.11640641838312149,
          -0.12067072093486786,
          0.07098938524723053,
          -0.10543242841959,
          -0.10881549119949341,
          -0.13112424314022064,
          -0.12559087574481964,
          -0.1337617039680481,
          0.03885872662067413,
          -0.16502830386161804,
          0.23450034856796265,
          0.1760408729314804,
          -0.061627499759197235,
          -0.09666956961154938,
          0.1462046205997467,
          -0.013568548485636711,
          -0.37550073862075806,
          -0.1884598582983017,
          0.2781447172164917,
          -0.0029911105521023273,
          0.4387379288673401,
          -0.04037961736321449,
          -0.06004238501191139,
          0.13638007640838623,
          -0.06786199659109116,
          0.14995881915092468,
          -0.1293710619211197,
          -0.09777680039405823,
          0.038440410047769547,
          0.5950682759284973,
          0.0663529485464096,
          -0.18720506131649017,
          0.2171916663646698,
          -0.23086772859096527,
          -0.026147225871682167,
          0.16130441427230835,
          0.04057006910443306,
          -0.3419753611087799,
          0.08471811562776566,
          -0.2967163920402527,
          0.1839880645275116,
          -0.19394491612911224,
          0.014052457176148891,
          0.14966778457164764,
          0.052733246237039566,
          -0.0023138215765357018,
          -0.4406692385673523,
          0.27649104595184326,
          -0.0009080108720809221,
          -0.660066545009613,
          0.14797332882881165,
          -0.34299373626708984,
          -0.3019689619541168,
          -0.1461707204580307,
          0.3357503414154053,
          0.10629694163799286,
          -0.36225321888923645,
          0.3820573091506958,
          -0.2708350121974945,
          0.18561258912086487,
          0.3366677463054657,
          -0.0456257238984108,
          -0.19635899364948273,
          -0.14903895556926727,
          0.028656890615820885,
          0.07459871470928192,
          -0.34514614939689636,
          0.1837499886751175,
          0.004703891929239035,
          0.011902173049747944,
          0.023379812017083168,
          -0.15123146772384644,
          0.16586820781230927,
          0.40484535694122314,
          -0.035497769713401794,
          -0.0912616178393364,
          0.09063130617141724,
          0.07839449495077133,
          0.048214469105005264,
          0.046131499111652374,
          0.06567477434873581,
          -0.48185139894485474,
          0.06318678706884384,
          -0.217324361205101,
          -0.6078993082046509,
          0.4060671627521515,
          -0.3776372969150543,
          -0.5714449286460876,
          0.45208293199539185,
          -0.23346871137619019,
          0.7252108454704285,
          0.5198150277137756,
          -0.13548216223716736,
          -0.2624782621860504,
          0.14254853129386902,
          0.18145312368869781,
          -0.14491210877895355,
          -0.013439876958727837,
          0.05350935459136963,
          0.2723481059074402,
          -0.2150879055261612,
          -0.02885085716843605,
          -0.13163317739963531,
          0.09770704805850983,
          0.026217596605420113,
          0.09547347575426102,
          -0.32731953263282776,
          -0.07885279506444931,
          -0.2623133659362793,
          -0.0867997407913208,
          0.2418506145477295,
          0.08804567158222198,
          0.09523781388998032,
          -0.09798592329025269,
          -0.15745626389980316,
          0.10450003296136856,
          0.1776944249868393,
          0.09180990606546402,
          0.1432359218597412,
          -0.2612413763999939,
          -0.19184020161628723,
          -0.3570587933063507,
          0.21156716346740723,
          0.15624280273914337,
          -0.035603269934654236,
          -0.18283289670944214,
          0.16872547566890717,
          0.4597521126270294,
          0.09204446524381638,
          0.28041595220565796,
          0.5272585153579712,
          -0.2068447321653366,
          -0.057137832045555115,
          0.2390291690826416,
          -0.26573312282562256,
          -0.3655075430870056,
          0.12376753240823746,
          0.2536560297012329,
          -0.22771461308002472,
          -0.004844739101827145,
          -0.0022253224160522223,
          -0.29790371656417847,
          -0.09101629257202148,
          0.08321397006511688,
          -0.15106269717216492,
          0.04561685770750046,
          0.19133412837982178,
          0.29472509026527405,
          -0.2533900737762451,
          -0.04660419747233391,
          0.28168848156929016,
          -0.1396862268447876,
          -0.09487242251634598,
          -0.1818557232618332,
          -0.130304217338562,
          -0.08201621472835541,
          0.009068300947546959,
          -0.175302654504776,
          -0.13513432443141937,
          0.19001953303813934,
          0.20664264261722565,
          0.18423698842525482,
          0.4643782079219818,
          0.11898736655712128,
          0.06758102029561996,
          0.02852746844291687,
          -0.2015589326620102,
          -0.10155342519283295,
          0.3122183084487915,
          -0.1372767686843872,
          0.21965838968753815,
          -0.1058584451675415,
          -0.5989898443222046,
          -0.13990247249603271,
          0.16122281551361084,
          0.14132651686668396,
          0.08860877901315689,
          -0.2565494179725647,
          0.049394551664590836,
          -0.07344110310077667,
          -0.17139436304569244,
          -0.12981173396110535,
          -0.10146133601665497,
          0.128167986869812,
          -0.4021052420139313,
          0.21986272931098938,
          0.47545677423477173,
          -0.1860390454530716,
          0.18970748782157898,
          0.20079825818538666,
          0.058104995638132095,
          0.30409860610961914,
          0.11935954540967941,
          -0.16500383615493774,
          0.15769055485725403,
          0.16584359109401703,
          -0.06761666387319565,
          -0.08818443864583969,
          0.23936833441257477,
          -0.058672111481428146,
          -0.07010512799024582,
          -0.5561985373497009,
          -0.19899946451187134,
          0.05846908316016197,
          -0.29329439997673035,
          0.3172779083251953,
          0.357906311750412,
          -0.06875191628932953,
          1.4037398099899292,
          -0.2307957112789154,
          0.19473516941070557,
          -0.3622187376022339,
          -0.2965664565563202,
          0.2927355170249939,
          -0.14312505722045898,
          -0.11462122946977615,
          -0.24321530759334564,
          0.1351749151945114,
          -0.022564010694622993,
          0.008378763683140278,
          0.029419362545013428,
          0.03500219061970711,
          0.25252875685691833,
          0.24359823763370514,
          0.03127843141555786,
          -0.30875125527381897,
          -0.16262008249759674,
          0.06927724182605743,
          0.2897258698940277,
          0.10733809322118759,
          -0.05263633280992508,
          -0.15380257368087769,
          -0.20083683729171753,
          0.03763827681541443,
          -0.14728644490242004,
          -0.23978087306022644,
          0.5868522524833679,
          -0.011369558982551098,
          -0.41405609250068665,
          0.034361932426691055,
          0.2602360248565674,
          0.004152482375502586,
          -0.12500034272670746,
          0.18692044913768768,
          0.0017355993622913957,
          -0.0016429937677457929,
          0.1457865834236145,
          -0.3248579204082489,
          -0.15915337204933167,
          0.3121879994869232,
          -0.03997087851166725,
          0.050738219171762466,
          -0.2004031091928482,
          -0.16230714321136475,
          -0.17821937799453735,
          -0.10471174865961075,
          -0.03276713192462921,
          0.025725187733769417,
          -0.011416192166507244,
          0.16132304072380066,
          -0.25694069266319275,
          0.08825947344303131,
          -0.29261934757232666,
          -0.025116078555583954,
          -0.15167389810085297,
          -0.017527732998132706,
          -0.2837446928024292,
          -0.3702351450920105,
          0.3007155954837799,
          0.2800777554512024,
          0.2443007081747055,
          0.13424596190452576,
          0.1742372363805771,
          -0.06793908774852753,
          0.18471363186836243,
          -0.16941562294960022,
          0.039487652480602264,
          0.1476655900478363,
          0.10003995895385742,
          0.08717867732048035,
          0.19735130667686462,
          0.17137768864631653,
          -0.3999178111553192,
          0.4484115540981293,
          0.009193267673254013,
          0.416927307844162,
          -0.4021656811237335,
          0.13391068577766418,
          0.2820163369178772,
          -0.2053726464509964,
          0.08326660096645355,
          0.12549802660942078,
          0.4380452632904053,
          0.1545948088169098,
          -0.20759226381778717,
          -0.14223511517047882,
          0.7398545145988464,
          -0.23034323751926422,
          0.05146269127726555,
          -0.17642152309417725,
          0.23017151653766632,
          -0.11948993057012558,
          -0.0851641446352005,
          -0.47072115540504456,
          0.35082435607910156,
          0.26548582315444946,
          -0.03769655153155327,
          0.04938400164246559,
          0.25718560814857483,
          -0.19994789361953735,
          0.21615822613239288,
          -0.2949971854686737,
          0.160989910364151,
          0.06600940227508545,
          -0.4529542028903961,
          0.06053075194358826,
          0.5704958438873291,
          -0.15729422867298126,
          0.13087253272533417,
          -0.01613946259021759,
          -0.021244289353489876,
          -0.3106817901134491,
          0.14228598773479462,
          -0.4461831748485565,
          0.15947039425373077,
          0.07255943864583969,
          0.895797848701477,
          0.5493108034133911,
          0.3025567829608917,
          0.13903264701366425,
          0.5056614279747009,
          -0.012456362135708332,
          -0.20228341221809387,
          -0.008996566757559776,
          -0.18997620046138763,
          -0.09216567873954773,
          0.3808184564113617,
          0.020600713789463043,
          -0.039494697004556656,
          0.08468523621559143,
          -0.9473187327384949,
          0.028273679316043854,
          -0.1766551285982132,
          -0.9775964617729187,
          0.11762325465679169,
          -0.1699528694152832,
          0.2722465693950653,
          0.2793726325035095,
          -0.05678856745362282,
          0.0034006708301603794,
          -0.041796449571847916,
          0.376403272151947,
          -0.0371386855840683,
          0.2313341647386551,
          0.19870710372924805,
          -0.2438325583934784,
          0.2004377841949463,
          -0.2651040256023407,
          -0.14475221931934357,
          -0.1456175595521927,
          0.0325310081243515,
          -0.1513519287109375,
          0.39965492486953735,
          0.42879584431648254,
          0.22633998095989227,
          0.5137543082237244,
          0.18039670586585999,
          -0.033618126064538956,
          0.2052505761384964,
          -0.004150564782321453,
          -0.43733659386634827,
          0.26942750811576843,
          -0.018256597220897675,
          -0.2576242685317993,
          0.3870997428894043,
          -0.01288613025099039,
          -0.3525086045265198,
          0.7421988844871521,
          0.23907218873500824,
          -0.036473337560892105,
          -0.6806566119194031,
          0.09825417399406433,
          0.10269784927368164,
          0.11881744116544724,
          0.3523143231868744,
          -0.35293105244636536,
          0.20444975793361664
        ]
      },
      "cellActivationHidden": {
        "rows": 20,
        "columns": 20,
        "weights": [
          -0.26769229769706726,
          -0.10526251792907715,
          -0.293050616979599,
          0.6043074131011963,
          0.1335185021162033,
          0.10038395971059799,
          -0.6011108160018921,
          0.27348536252975464,
          0.4723948836326599,
          -0.4454881250858307,
          -0.22011642158031464,
          -0.5437107682228088,
          0.130314439535141,
          -0.015157973393797874,
          -0.3989700973033905,
          0.35018858313560486,
          0.5674506425857544,
          -0.37566566467285156,
          0.5214052200317383,
          -0.14742231369018555,
          0.07833182066679001,
          0.522369384765625,
          0.23050102591514587,
          0.0650339350104332,
          0.23673385381698608,
          -0.17197559773921967,
          0.39784178137779236,
          -0.4244772791862488,
          -0.43715599179267883,
          -0.2551114559173584,
          -0.010000081732869148,
          0.28822335600852966,
          -0.260062038898468,
          -0.28760969638824463,
          -0.1230650544166565,
          -0.3933258056640625,
          -0.3344399631023407,
          0.4893294870853424,
          0.05539471283555031,
          -0.3599008023738861,
          -0.6638753414154053,
          0.26070889830589294,
          0.7775487303733826,
          0.274681955575943,
          -0.30557510256767273,
          0.17418313026428223,
          0.42420533299446106,
          0.2286946326494217,
          0.12880858778953552,
          0.5308417677879333,
          -0.27482151985168457,
          0.6483182311058044,
          -0.908266007900238,
          0.46545326709747314,
          -0.3764454424381256,
          -0.09223860502243042,
          0.11115938425064087,
          -0.12455566227436066,
          -0.35961857438087463,
          0.07578215003013611,
          0.1372690498828888,
          -0.08188384771347046,
          0.3631023168563843,
          0.0691106989979744,
          -0.15761995315551758,
          -0.4576985836029053,
          -0.014777076430618763,
          0.605678915977478,
          -0.5636424422264099,
          0.17334102094173431,
          0.18464770913124084,
          0.005290385335683823,
          -0.2927868068218231,
          0.6314675211906433,
          0.3837897777557373,
          -0.2690058946609497,
          -0.04084961861371994,
          0.07557380199432373,
          -0.15705350041389465,
          -1.215856671333313,
          -0.19951307773590088,
          1.095055103302002,
          0.05838564410805702,
          -0.10977588593959808,
          0.7092222571372986,
          -0.6407078504562378,
          0.06799693405628204,
          1.1043927669525146,
          0.15572823584079742,
          -0.5936734080314636,
          0.14634782075881958,
          -0.4750552773475647,
          0.37446051836013794,
          -0.9200388789176941,
          -0.3325430154800415,
          0.22605963051319122,
          -0.4541321098804474,
          -0.18453864753246307,
          0.9405097961425781,
          0.34037473797798157,
          0.1468757838010788,
          -0.31964656710624695,
          0.01318709459155798,
          0.5096442103385925,
          0.2310648113489151,
          0.4085788428783417,
          -0.6704474687576294,
          0.45627108216285706,
          0.10169274359941483,
          -0.06417568773031235,
          -0.11110567301511765,
          0.29825934767723083,
          -0.32870393991470337,
          0.11100012809038162,
          0.34643349051475525,
          0.15640854835510254,
          0.24984009563922882,
          0.03201231360435486,
          0.5139138102531433,
          -0.3094218075275421,
          0.3710704445838928,
          -0.09334572404623032,
          -0.3586806058883667,
          -0.4566228985786438,
          0.12716510891914368,
          0.19621580839157104,
          -0.016915053129196167,
          0.17261558771133423,
          -0.043891578912734985,
          -0.4731082618236542,
          -0.16673249006271362,
          -0.17192722856998444,
          0.5791944265365601,
          -0.22058232128620148,
          0.13282053172588348,
          0.0024650061968714,
          0.004103772342205048,
          -0.4476024806499481,
          0.29833948612213135,
          0.25535517930984497,
          -0.46405377984046936,
          -0.33454346656799316,
          -0.15682551264762878,
          0.11957097053527832,
          0.14289630949497223,
          0.7995997667312622,
          0.023531727492809296,
          -0.5244738459587097,
          -0.02345379628241062,
          -0.7563899755477905,
          0.8477156162261963,
          0.476422518491745,
          -0.4186548590660095,
          -0.09565117210149765,
          -0.6563599109649658,
          0.5678735375404358,
          -0.07799176871776581,
          0.255363792181015,
          0.0886867418885231,
          0.24254250526428223,
          -0.33456113934516907,
          -0.06361070275306702,
          0.0011712134582921863,
          -0.20538753271102905,
          -0.169936865568161,
          0.48557549715042114,
          0.065843366086483,
          -0.47663623094558716,
          0.3047634959220886,
          0.3339191973209381,
          0.44943544268608093,
          0.48670583963394165,
          0.36797645688056946,
          -0.2588484585285187,
          -0.03690680116415024,
          -0.023033812642097473,
          0.03532500937581062,
          -0.49802514910697937,
          -0.12166274338960648,
          -0.6666701436042786,
          0.09830383211374283,
          -0.3132888078689575,
          0.6627162098884583,
          -0.6695119142532349,
          -0.5156998038291931,
          -0.5713990926742554,
          -0.06558753550052643,
          0.07487664371728897,
          -0.18848705291748047,
          0.7215160131454468,
          -0.21054276823997498,
          0.12419354170560837,
          -0.0938374251127243,
          0.47822460532188416,
          0.018226584419608116,
          -0.031790249049663544,
          0.2419038861989975,
          0.6642224192619324,
          0.1292128562927246,
          0.09239983558654785,
          0.13582831621170044,
          0.18698115646839142,
          0.2837201952934265,
          0.6014687418937683,
          0.05354999750852585,
          -0.46729081869125366,
          0.20095022022724152,
          0.172779381275177,
          -0.07905200868844986,
          0.30374523997306824,
          0.4488506317138672,
          -0.1673222929239273,
          0.8311321139335632,
          0.15854360163211823,
          0.6648459434509277,
          -0.4887784719467163,
          -0.08650649338960648,
          -0.008432205766439438,
          0.1661890596151352,
          0.7504307627677917,
          -0.6306465268135071,
          -0.12910792231559753,
          0.5619217753410339,
          0.07117817550897598,
          0.09068433940410614,
          0.1329299807548523,
          -0.31763002276420593,
          -0.01185900904238224,
          -0.09676717966794968,
          0.6219012141227722,
          0.18435291945934296,
          -0.1455223709344864,
          0.4915550649166107,
          0.05186333507299423,
          0.1062442883849144,
          -0.2844390273094177,
          -0.14786605536937714,
          0.2842599153518677,
          0.2207578718662262,
          0.18246755003929138,
          0.3708430230617523,
          0.2702537178993225,
          0.43831667304039,
          -0.3506301939487457,
          0.9120803475379944,
          -0.11924699693918228,
          -0.24492193758487701,
          0.6235127449035645,
          0.10017260164022446,
          -0.593377411365509,
          0.47651124000549316,
          -0.3550613820552826,
          0.748611330986023,
          0.03312154486775398,
          -0.09585848450660706,
          -0.16992314159870148,
          0.27787449955940247,
          -0.27326807379722595,
          0.025106577202677727,
          0.3686283230781555,
          0.11342306435108185,
          -0.4228202998638153,
          -0.15381412208080292,
          -0.07134312391281128,
          0.3697396218776703,
          -0.4435962438583374,
          -0.300945520401001,
          0.5835999846458435,
          -0.04960590973496437,
          0.23307591676712036,
          0.5536171793937683,
          -0.19520065188407898,
          -0.11937903612852097,
          0.16143828630447388,
          -0.21543514728546143,
          0.037866417318582535,
          0.16944929957389832,
          -0.18973489105701447,
          0.32137295603752136,
          -0.05301060155034065,
          -0.3190315067768097,
          0.38119664788246155,
          -0.013738215900957584,
          0.7619187235832214,
          0.17277078330516815,
          0.13196329772472382,
          -0.08177036792039871,
          -0.8146961331367493,
          0.06592817604541779,
          -0.06826715916395187,
          0.18794550001621246,
          0.4952205419540405,
          -0.09554020315408707,
          -0.05383504182100296,
          0.18183930218219757,
          0.2624543011188507,
          0.3185443580150604,
          0.3278651535511017,
          -0.07808349281549454,
          -0.6683111190795898,
          -0.17461208999156952,
          -0.0006165129598230124,
          0.07027903944253922,
          0.3186050355434418,
          -0.2730001211166382,
          0.12385547906160355,
          0.28475937247276306,
          -0.2087360918521881,
          -0.08033565431833267,
          0.7953417897224426,
          -0.23980779945850372,
          0.13806629180908203,
          -0.4946196675300598,
          -0.1360197365283966,
          -0.33323293924331665,
          -0.05727410688996315,
          -0.7341187000274658,
          0.308903306722641,
          -0.21027153730392456,
          -0.3302791118621826,
          0.01217250432819128,
          -0.13443100452423096,
          -0.7097668647766113,
          -0.0503159798681736,
          -0.3653233051300049,
          0.05006490275263786,
          -0.9916023015975952,
          0.45606765151023865,
          0.05225308984518051,
          0.6944314241409302,
          -0.389587938785553,
          -0.11937320977449417,
          -0.08380558341741562,
          0.02627057023346424,
          -0.21118253469467163,
          0.3150699734687805,
          0.6235052943229675,
          0.1403505951166153,
          0.20033755898475647,
          0.08903118968009949,
          0.12371997535228729,
          0.268522709608078,
          0.6355730891227722,
          0.033619433641433716,
          1.4661760330200195,
          0.37418103218078613,
          0.12116043269634247,
          0.22147078812122345,
          -0.20015323162078857,
          0.015655409544706345,
          0.274086594581604,
          0.13662144541740417,
          0.5636282563209534,
          0.1866835653781891,
          0.1903483271598816,
          -0.09868013113737106,
          0.2674253284931183,
          0.47634512186050415,
          -0.007774528115987778,
          -0.8522074222564697,
          -0.12350572645664215,
          0.17472364008426666,
          0.41972675919532776,
          -0.646462619304657,
          -0.15314237773418427,
          0.14448794722557068,
          0.18327300250530243,
          0.15673203766345978,
          0.02401358261704445,
          -0.5291488766670227,
          -0.03255800902843475,
          -0.2266944944858551,
          0.23736625909805298,
          -0.07242895662784576,
          0.5268713235855103,
          -0.6250419616699219,
          0.5908302068710327,
          -0.2333184778690338,
          0.06653516739606857,
          0.07811393588781357,
          -0.25494450330734253,
          -0.3239174485206604,
          0.3326340317726135,
          0.2745034396648407,
          0.18075589835643768,
          0.42923593521118164,
          -0.08260008692741394,
          -0.19123274087905884,
          0.03358510509133339,
          -0.32985997200012207,
          0.020137188956141472,
          -0.1285673975944519,
          0.13224510848522186,
          0.530186116695404,
          -0.09008131176233292,
          0.2256399691104889,
          -0.4005294740200043,
          0.013416711241006851,
          0.3529040515422821,
          0.48380047082901
        ]
      },
      "cellActivationBias": {
        "rows": 20,
        "columns": 1,
        "weights": [
          -0.2162986546754837,
          0.04203753545880318,
          -0.04575962573289871,
          0.8666378259658813,
          0.06184479221701622,
          0.0700094923377037,
          -0.07975226640701294,
          0.2263258993625641,
          0.5559097528457642,
          -0.3505760729312897,
          0.5855608582496643,
          -0.162353515625,
          0.4886496067047119,
          -0.20960932970046997,
          -0.4467504918575287,
          0.786864161491394,
          0.0819082036614418,
          -0.33972784876823425,
          0.4072442054748535,
          -0.04891980439424515
        ]
      }
    },
    {
      "inputMatrix": {
        "rows": 20,
        "columns": 20,
        "weights": [
          0.010387844406068325,
          -0.4517906606197357,
          -0.3419008255004883,
          0.8400288224220276,
          0.05629546940326691,
          -1.094538688659668,
          -0.7758024334907532,
          -0.03802558034658432,
          0.20914943516254425,
          0.9198281764984131,
          -0.5706983208656311,
          0.9911133050918579,
          -0.8620964884757996,
          0.9972066879272461,
          -1.0249192714691162,
          0.3873426616191864,
          -0.2190803438425064,
          -0.27980291843414307,
          0.2671738564968109,
          -1.3087486028671265,
          0.39371803402900696,
          -0.5880056619644165,
          -1.3965113162994385,
          -0.4986957013607025,
          1.0298399925231934,
          0.6162261366844177,
          -0.6463674902915955,
          -1.6629725694656372,
          1.3710657358169556,
          -0.6437408924102783,
          1.5026034116744995,
          0.4026796519756317,
          0.20875610411167145,
          1.0327848196029663,
          -1.4391124248504639,
          0.5460038781166077,
          0.48227229714393616,
          -0.09061165153980255,
          -0.4611732065677643,
          0.2275182157754898,
          -0.5314404368400574,
          0.1757369041442871,
          0.060752835124731064,
          -0.15937496721744537,
          0.1710883527994156,
          -2.8868179321289062,
          -1.2614595890045166,
          1.3111271858215332,
          0.23982740938663483,
          -0.5089648962020874,
          -0.8533374667167664,
          -0.8570210933685303,
          1.1449792385101318,
          0.2285780906677246,
          -1.0640112161636353,
          0.6981479525566101,
          -0.39604607224464417,
          0.11151032149791718,
          -0.18283326923847198,
          -0.47037872672080994,
          0.004283226560801268,
          -0.15531080961227417,
          -0.5118109583854675,
          0.5705454349517822,
          0.511681854724884,
          0.03681129217147827,
          -0.22582928836345673,
          -0.4833795726299286,
          0.0799746885895729,
          0.36191585659980774,
          -0.18257714807987213,
          -0.3072189390659332,
          0.16581542789936066,
          0.11911570280790329,
          -0.22145140171051025,
          0.2511989176273346,
          0.9511721134185791,
          -0.056753549724817276,
          0.4101475775241852,
          0.035839855670928955,
          -0.49606889486312866,
          -0.21632827818393707,
          -0.46071720123291016,
          0.21174819767475128,
          -0.07864636182785034,
          -0.46018803119659424,
          -0.27764979004859924,
          -0.37424391508102417,
          0.07055439800024033,
          0.15850044786930084,
          -0.3065474033355713,
          -0.05150033161044121,
          -0.11928859353065491,
          0.3228083848953247,
          -0.21653522551059723,
          0.2010798156261444,
          -0.09467606991529465,
          -0.126580148935318,
          0.5160405039787292,
          -0.1334831565618515,
          -0.7042510509490967,
          -0.4150144159793854,
          0.33606240153312683,
          0.36763647198677063,
          0.0818709284067154,
          0.8822391033172607,
          -0.6813986897468567,
          0.48419904708862305,
          0.018370240926742554,
          1.0366320610046387,
          -0.6322847604751587,
          1.1261391639709473,
          -0.1968504786491394,
          0.12110210955142975,
          -0.3251737952232361,
          1.7822589874267578,
          0.34158214926719666,
          0.5857725143432617,
          0.6339958906173706,
          -0.12527862191200256,
          -0.17619061470031738,
          -0.5507532358169556,
          -1.6348927021026611,
          -0.06830503791570663,
          -0.21362420916557312,
          -1.3011236190795898,
          -0.6054022312164307,
          0.916365921497345,
          -0.548326313495636,
          -0.5859841704368591,
          -0.8128440976142883,
          -0.444012850522995,
          2.416153907775879,
          -1.1473067998886108,
          -0.46480241417884827,
          0.5823198556900024,
          -0.2739773094654083,
          -1.0342729091644287,
          -0.020488562062382698,
          0.0654648169875145,
          0.21734581887722015,
          -0.21940408647060394,
          -0.3675696849822998,
          -1.258463740348816,
          0.0518178828060627,
          -0.6641477942466736,
          0.05794698745012283,
          1.006381630897522,
          0.5829073190689087,
          0.792667031288147,
          -0.1274605691432953,
          -0.16186179220676422,
          0.13167627155780792,
          1.289297342300415,
          -0.8457664251327515,
          0.6279801726341248,
          0.36302047967910767,
          -0.02660619467496872,
          0.386050283908844,
          -0.4048336446285248,
          -0.04684499651193619,
          -1.0097519159317017,
          -0.1696775108575821,
          0.545233428478241,
          1.4819347858428955,
          0.7122116684913635,
          -1.820970892906189,
          -1.5074223279953003,
          1.3054344654083252,
          1.1061464548110962,
          -0.2006736844778061,
          0.07197917252779007,
          1.1527206897735596,
          0.31077879667282104,
          -0.3986341059207916,
          0.25119510293006897,
          0.853911817073822,
          -0.5973863005638123,
          -0.3846045732498169,
          0.017165174707770348,
          -0.74873948097229,
          -0.033257219940423965,
          -0.767460286617279,
          1.2392783164978027,
          -0.9121472239494324,
          0.41235244274139404,
          0.3446808457374573,
          -0.01717112399637699,
          -0.0845009908080101,
          0.5163535475730896,
          0.47440436482429504,
          0.9427133798599243,
          -0.8097563982009888,
          -0.47358420491218567,
          -0.1970204859972,
          0.02625885233283043,
          -0.14949649572372437,
          -0.14131692051887512,
          -0.3592987358570099,
          -1.4866557121276855,
          -0.9835877418518066,
          -0.6878601908683777,
          -0.16486667096614838,
          0.5978079438209534,
          1.2300055027008057,
          -0.9582303762435913,
          -1.277879238128662,
          -0.9581303596496582,
          0.6519151329994202,
          0.739730715751648,
          -0.8929996490478516,
          0.2386210709810257,
          0.5658860802650452,
          0.18608082830905914,
          -0.5946042537689209,
          -0.41556286811828613,
          1.1440995931625366,
          0.24361976981163025,
          0.12406553328037262,
          -1.080881118774414,
          0.4941701591014862,
          -0.16795630753040314,
          -0.9013118743896484,
          -0.4602304995059967,
          0.6311683654785156,
          -0.4783831238746643,
          0.17353880405426025,
          0.8645054697990417,
          -0.27868372201919556,
          0.596229076385498,
          -0.10375642031431198,
          -0.3045235872268677,
          0.17828278243541718,
          -0.42379462718963623,
          -0.06138951703906059,
          0.43902817368507385,
          -0.5133633017539978,
          0.15045300126075745,
          0.305000901222229,
          0.757261335849762,
          -0.6324867606163025,
          -0.8441857099533081,
          -0.8529309034347534,
          0.2925173044204712,
          0.4308791756629944,
          -0.5082870721817017,
          0.2590563893318176,
          0.20162086188793182,
          -0.4557401239871979,
          0.13867788016796112,
          -0.7203410863876343,
          -1.4367471933364868,
          0.8755938410758972,
          -0.4535141587257385,
          -0.4391244947910309,
          -0.16492675244808197,
          1.8722392320632935,
          -1.3321092128753662,
          1.5838979482650757,
          0.19199801981449127,
          -0.6008142232894897,
          1.7039297819137573,
          0.41069403290748596,
          1.3775582313537598,
          0.7443111538887024,
          -1.2477694749832153,
          -0.5026106238365173,
          -0.2249441295862198,
          0.9420567154884338,
          1.933742880821228,
          -1.2640230655670166,
          -0.25895702838897705,
          1.0369348526000977,
          1.0805145502090454,
          -0.3417946398258209,
          1.046858787536621,
          0.058561213314533234,
          -0.3260665833950043,
          0.9073114395141602,
          -0.5120919346809387,
          -0.019454991444945335,
          -0.8392587304115295,
          -0.1552325338125229,
          1.5484167337417603,
          1.0785526037216187,
          -0.7165634632110596,
          -0.9256365895271301,
          0.5583409667015076,
          0.3697013258934021,
          -0.036600083112716675,
          -0.029001032933592796,
          0.20967017114162445,
          -0.05741315335035324,
          1.269021987915039,
          -0.3347408175468445,
          -0.5479400157928467,
          -0.5497964024543762,
          -0.23285871744155884,
          1.8244383335113525,
          -0.3075921833515167,
          -0.47619184851646423,
          -0.1556878238916397,
          -0.29645827412605286,
          0.7731000185012817,
          0.6878657341003418,
          -0.6356039047241211,
          -0.061312995851039886,
          -0.9163863658905029,
          0.27316299080848694,
          0.8990345597267151,
          -0.06627335399389267,
          0.19913457334041595,
          -0.10247433930635452,
          0.5031633377075195,
          -0.7103726267814636,
          0.039166368544101715,
          0.7102574706077576,
          -0.09505608677864075,
          1.0523866415023804,
          -0.4820388853549957,
          -1.2697480916976929,
          -0.6348719596862793,
          0.19837716221809387,
          0.42024219036102295,
          0.26038652658462524,
          0.2070523500442505,
          -0.29959410429000854,
          1.9924969673156738,
          1.8895108699798584,
          0.21990564465522766,
          1.4452192783355713,
          -0.1408035010099411,
          0.4830000400543213,
          1.2720472812652588,
          0.017399031668901443,
          0.7970109581947327,
          -0.04925739765167236,
          -2.1719002723693848,
          2.056511402130127,
          -0.10501091182231903,
          0.1028958410024643,
          0.32315027713775635,
          -0.6500028371810913,
          -0.5424327850341797,
          -0.32305529713630676,
          -1.8385993242263794,
          -1.04495370388031,
          -0.4787239134311676,
          -0.827174961566925,
          -1.6273633241653442,
          -0.6302161812782288,
          0.7666153311729431,
          0.6724488735198975,
          0.2803349196910858,
          -1.3942066431045532,
          0.8988528847694397,
          -1.3218859434127808,
          0.6167672276496887,
          0.6155234575271606,
          -0.357943058013916,
          -0.3249049186706543,
          0.1970074325799942,
          -0.2972465753555298,
          0.4886695444583893,
          -0.18749229609966278,
          0.07033850997686386,
          -0.3658844828605652,
          -0.7704461216926575,
          -0.14157383143901825,
          0.4931754767894745,
          0.41090989112854004,
          -0.28348129987716675,
          1.083329439163208,
          0.8117220997810364,
          -1.0469484329223633,
          0.04369349777698517,
          -0.8506283164024353,
          0.4490741789340973,
          -0.4198034405708313,
          -0.7557289004325867,
          -0.22948604822158813,
          -0.25078797340393066,
          -0.6198757886886597,
          0.20257163047790527,
          0.1475081890821457,
          -0.3844004273414612,
          -0.234922394156456,
          0.44801202416419983,
          0.1581743359565735,
          0.2760946452617645,
          -0.26536697149276733,
          -0.171016663312912,
          0.19817645847797394,
          0.3746989667415619,
          -0.2653326094150543,
          0.23294012248516083,
          0.24264775216579437,
          -0.20527060329914093,
          0.2097943276166916,
          -0.22785261273384094
        ]
      },
      "inputHidden": {
        "rows": 20,
        "columns": 20,
        "weights": [
          0.3946315348148346,
          -0.4798564314842224,
          -0.49153801798820496,
          -1.0840986967086792,
          -0.32979315519332886,
          -1.0513733625411987,
          0.4516010582447052,
          -1.498720407485962,
          0.530971109867096,
          -0.36245855689048767,
          0.11912109702825546,
          0.07852252572774887,
          0.2973901331424713,
          -0.08617668598890305,
          0.08040530979633331,
          0.15271754562854767,
          2.2536139488220215,
          0.003441333072260022,
          -0.4557557702064514,
          0.2915463149547577,
          -0.2902393937110901,
          -0.9442884922027588,
          -0.2002030462026596,
          -0.6604934930801392,
          -0.38213425874710083,
          0.6820284724235535,
          0.39416173100471497,
          -1.5402326583862305,
          0.1381315141916275,
          -0.28868404030799866,
          -0.10932877659797668,
          -0.1860547661781311,
          -0.29336366057395935,
          -1.1150269508361816,
          0.16676834225654602,
          -0.32193616032600403,
          1.9798707962036133,
          -0.740473747253418,
          -0.003120365785434842,
          1.273524522781372,
          -0.07336109131574631,
          -0.4073452353477478,
          -0.05555301904678345,
          -0.17459815740585327,
          0.01034888532012701,
          0.8057378530502319,
          -0.03886561095714569,
          -0.10102585703134537,
          0.3658655881881714,
          1.293989896774292,
          -0.8484199643135071,
          -0.03670689836144447,
          0.8846255540847778,
          -0.05939255654811859,
          -0.9058147668838501,
          -0.1800086796283722,
          0.28896868228912354,
          1.2479525804519653,
          0.15611784160137177,
          0.5056884288787842,
          0.3113158643245697,
          0.4536229968070984,
          -0.8604311943054199,
          -1.07595956325531,
          -0.8542401790618896,
          -0.7196495532989502,
          -0.4060955345630646,
          -0.8823539614677429,
          0.5096080899238586,
          -0.53929203748703,
          0.07671322673559189,
          0.509151041507721,
          0.36419159173965454,
          -0.3626337945461273,
          0.09496866166591644,
          0.673864483833313,
          0.4689521789550781,
          -0.165055513381958,
          -0.9175920486450195,
          0.16114908456802368,
          0.838367760181427,
          0.12314506620168686,
          0.5902435779571533,
          -1.3192682266235352,
          -1.8506531715393066,
          0.12982837855815887,
          0.3755517899990082,
          0.48944321274757385,
          1.6247349977493286,
          -0.23248663544654846,
          0.9200531244277954,
          0.984190046787262,
          0.2240094095468521,
          0.4415666162967682,
          -0.30521515011787415,
          1.10098397731781,
          1.4602707624435425,
          -0.07986701279878616,
          -1.1171714067459106,
          1.1150540113449097,
          -0.46567267179489136,
          -0.17285087704658508,
          -0.188799187541008,
          -1.0857956409454346,
          -0.41187137365341187,
          -0.34105727076530457,
          1.0202662944793701,
          -0.11984346807003021,
          -0.438923716545105,
          -0.5643697381019592,
          0.10138684511184692,
          -0.0264520775526762,
          0.33112964034080505,
          0.1585390567779541,
          0.2110612839460373,
          0.5280007719993591,
          0.46415361762046814,
          -0.26113253831863403,
          -0.21580222249031067,
          0.18558421730995178,
          -0.9676849246025085,
          0.13598547875881195,
          -0.301414430141449,
          0.26795727014541626,
          -0.3972143530845642,
          -0.1772102266550064,
          -0.41743436455726624,
          1.2215168476104736,
          0.4849506616592407,
          -0.6974806785583496,
          -0.4741823673248291,
          0.8224835395812988,
          0.25543075799942017,
          0.602221667766571,
          0.9415022134780884,
          0.35695117712020874,
          -0.2986714839935303,
          -0.7719571590423584,
          0.19954486191272736,
          -0.26275360584259033,
          1.4718883037567139,
          0.3519369065761566,
          -0.029649682343006134,
          -0.4264269471168518,
          -0.45320290327072144,
          -1.555368423461914,
          -0.39132261276245117,
          -0.15953020751476288,
          -1.9121204614639282,
          0.8651888370513916,
          0.47584494948387146,
          0.5740054249763489,
          0.6510764360427856,
          0.06925366073846817,
          -0.06010599434375763,
          0.545204758644104,
          0.4247119128704071,
          0.5088353753089905,
          -0.20142066478729248,
          0.5934358239173889,
          0.975848913192749,
          0.12282693386077881,
          0.8116344213485718,
          -0.714691698551178,
          -0.04508587345480919,
          -0.7506536245346069,
          -0.26150763034820557,
          -0.7824516892433167,
          -0.44947919249534607,
          -0.8230283856391907,
          -0.5225495100021362,
          0.3464677929878235,
          -0.22517786920070648,
          -0.3399580419063568,
          -0.15082627534866333,
          -0.01606013998389244,
          -0.08416987955570221,
          -0.5108399391174316,
          -0.40774133801460266,
          -0.13939091563224792,
          0.3730945885181427,
          -0.5949776768684387,
          -1.0681596994400024,
          -0.22623996436595917,
          -0.2736978828907013,
          -0.3614877462387085,
          -0.5926727056503296,
          0.06271960586309433,
          0.03598396107554436,
          0.2668773829936981,
          0.04013539105653763,
          0.9152892231941223,
          0.8539553880691528,
          0.2803862988948822,
          0.3617785573005676,
          0.9363511204719543,
          -0.1122579574584961,
          -0.9917159080505371,
          -0.6634529829025269,
          1.1422337293624878,
          -0.3485413193702698,
          -0.5986855030059814,
          0.014857035130262375,
          -0.1755550056695938,
          0.15132097899913788,
          -0.12134988605976105,
          0.7148933410644531,
          -0.20095360279083252,
          -0.10572841018438339,
          -0.11692149192094803,
          -1.004872441291809,
          0.11618755757808685,
          -0.006420603953301907,
          -0.4873162508010864,
          0.43035826086997986,
          -0.27807852625846863,
          0.32419541478157043,
          -0.6745610237121582,
          0.15447218716144562,
          0.20447736978530884,
          0.011499160900712013,
          0.13116317987442017,
          -0.06522978842258453,
          -0.3683048486709595,
          -0.5653314590454102,
          -0.8572682738304138,
          0.06121150776743889,
          -0.11669330298900604,
          1.1514588594436646,
          0.536850094795227,
          -0.8303439617156982,
          2.4328107833862305,
          0.5801622271537781,
          0.6135667562484741,
          -0.7635706663131714,
          0.38703852891921997,
          0.19010208547115326,
          0.9145854711532593,
          0.4985707700252533,
          0.6796654462814331,
          1.964356541633606,
          0.43605512380599976,
          -0.08497797697782516,
          -0.15147581696510315,
          -0.06603747606277466,
          -0.7932466864585876,
          -0.22846269607543945,
          -0.6875602602958679,
          0.6205287575721741,
          0.0480320006608963,
          -0.3431170880794525,
          1.5273103713989258,
          1.0804128646850586,
          0.9982600212097168,
          0.02508043497800827,
          0.5139122009277344,
          -0.44470304250717163,
          0.19786480069160461,
          -0.0705547034740448,
          0.3784600794315338,
          0.0048497687093913555,
          -0.868958055973053,
          0.9022951722145081,
          0.47265079617500305,
          -0.1353069543838501,
          -0.6106390953063965,
          -0.659139096736908,
          -0.4442751407623291,
          -0.6431337594985962,
          0.2299983650445938,
          0.5669611692428589,
          0.1518327295780182,
          0.011403311043977737,
          1.0624693632125854,
          -0.29423031210899353,
          -0.07826428860425949,
          -0.3629583418369293,
          -0.05626317486166954,
          -1.3122581243515015,
          0.3785820007324219,
          1.1576553583145142,
          2.0051164627075195,
          0.32551902532577515,
          0.6778342127799988,
          -0.4616142809391022,
          -0.1975136697292328,
          -0.29732632637023926,
          -0.06766782701015472,
          1.2109705209732056,
          0.5766535997390747,
          0.4046677052974701,
          -0.04610661789774895,
          -0.09687258303165436,
          0.12735487520694733,
          -0.07202993333339691,
          -0.9372428059577942,
          -0.37362730503082275,
          -0.4608975052833557,
          -0.05296068638563156,
          0.47794079780578613,
          -0.22710049152374268,
          0.2816547155380249,
          0.5011504292488098,
          -0.5481195449829102,
          -1.7827967405319214,
          -0.27732592821121216,
          0.10380132496356964,
          -0.9152892827987671,
          1.04282808303833,
          -0.2838885188102722,
          0.47934961318969727,
          0.16845957934856415,
          0.305782675743103,
          0.5858253836631775,
          -0.08858329057693481,
          1.3248337507247925,
          0.9558714628219604,
          -0.2699398696422577,
          0.1824846714735031,
          1.4342998266220093,
          -0.3913900554180145,
          -0.504043698310852,
          0.6337694525718689,
          0.415209025144577,
          -0.3299694359302521,
          1.1097673177719116,
          -0.7771525979042053,
          0.08216483891010284,
          0.46223923563957214,
          -0.2445409893989563,
          0.5379551649093628,
          -0.602189302444458,
          0.6034756302833557,
          0.534210205078125,
          -1.367132306098938,
          0.5006359815597534,
          -0.09589868038892746,
          0.9600507020950317,
          -1.0703092813491821,
          1.0634969472885132,
          -1.5892951488494873,
          -0.33150696754455566,
          -1.3776262998580933,
          1.015952467918396,
          -0.39681217074394226,
          -0.25346216559410095,
          -0.6759365797042847,
          -1.5558866262435913,
          0.8060845732688904,
          -0.4162602126598358,
          2.3650498390197754,
          0.7832514643669128,
          0.8999757170677185,
          0.14862605929374695,
          -0.4207402467727661,
          1.4477177858352661,
          0.9994497299194336,
          0.6474111676216125,
          0.295375257730484,
          0.374261736869812,
          -0.07266668975353241,
          -0.581436038017273,
          -1.5184314250946045,
          -0.2395860105752945,
          -0.18603096902370453,
          -0.06249641254544258,
          0.21912053227424622,
          -1.1082011461257935,
          0.6795294880867004,
          -0.42461690306663513,
          -0.057417284697294235,
          0.04524381086230278,
          0.039839304983615875,
          -0.015712350606918335,
          0.8909491300582886,
          0.1277565360069275,
          0.3217881917953491,
          -0.36522990465164185,
          -0.6418426632881165,
          0.3540736138820648,
          -0.43394142389297485,
          -0.7433847784996033,
          -1.8103795051574707,
          -1.5294214487075806,
          -2.1579346656799316,
          0.22941595315933228,
          0.6426292061805725,
          -0.9993957281112671,
          0.8316574692726135,
          1.4627494812011719,
          0.19437424838542938,
          0.913324236869812,
          1.8111059665679932,
          -0.06630901992321014,
          0.5061521530151367,
          2.735715866088867,
          1.5101900100708008,
          0.25975456833839417,
          -1.4716295003890991,
          2.0579922199249268
        ]
      },
      "inputBias": {
        "rows": 20,
        "columns": 1,
        "weights": [
          -0.18480060994625092,
          0.28893786668777466,
          0.14479926228523254,
          0.12057511508464813,
          0.1441003531217575,
          -0.0733884647488594,
          0.07649429887533188,
          0.265291690826416,
          0.08845231682062149,
          -1.5226645469665527,
          -0.14323754608631134,
          -0.16111202538013458,
          0.4979337453842163,
          1.6739500761032104,
          0.17047688364982605,
          0.33941230177879333,
          -1.18519127368927,
          -0.7738004922866821,
          0.4608463644981384,
          0.18880660831928253
        ]
      },
      "forgetMatrix": {
        "rows": 20,
        "columns": 20,
        "weights": [
          1.3620796203613281,
          0.3728584051132202,
          0.29453718662261963,
          0.9231704473495483,
          -0.6043388843536377,
          0.30617499351501465,
          1.3914560079574585,
          -0.6020745635032654,
          0.041921552270650864,
          -0.5797895193099976,
          -0.23047463595867157,
          -0.31524208188056946,
          -0.838367760181427,
          -0.13024377822875977,
          -0.030489344149827957,
          -0.8508735299110413,
          -0.17945551872253418,
          0.33247998356819153,
          -1.8362585306167603,
          -0.49436771869659424,
          0.2129388004541397,
          0.4835717976093292,
          1.1842409372329712,
          -0.5915083885192871,
          -0.5815926194190979,
          1.8009321689605713,
          0.5715987682342529,
          0.6331460475921631,
          0.6719052791595459,
          0.5102195739746094,
          0.9179409146308899,
          -2.538165807723999,
          1.24122154712677,
          0.9376491904258728,
          0.4823560118675232,
          0.17567691206932068,
          -0.9460924863815308,
          0.5386940836906433,
          -0.09394428133964539,
          -2.1679115295410156,
          0.3510456383228302,
          0.19443736970424652,
          0.12935234606266022,
          0.2109912782907486,
          -0.9185925126075745,
          -0.8997069597244263,
          -0.04888138547539711,
          0.9369825720787048,
          -1.3735007047653198,
          -1.0606775283813477,
          -2.2881391048431396,
          -0.43737587332725525,
          0.42133405804634094,
          0.22649094462394714,
          -0.5972524285316467,
          0.40675151348114014,
          -0.9251829981803894,
          0.5986582636833191,
          0.503899872303009,
          0.5184703469276428,
          -0.36167091131210327,
          -0.01011695060878992,
          -0.6048279404640198,
          0.8240857124328613,
          -0.345145583152771,
          0.6060940027236938,
          0.04429977014660835,
          0.695737361907959,
          0.5590816140174866,
          0.8271357417106628,
          0.5236013531684875,
          -0.47849375009536743,
          0.3357282280921936,
          -0.8379702568054199,
          -0.2085907757282257,
          0.14708809554576874,
          -1.4193658828735352,
          -0.35463759303092957,
          -0.9434086084365845,
          -1.623228669166565,
          -0.7851296067237854,
          -0.4637579321861267,
          -0.2753724157810211,
          -0.9300062656402588,
          1.0789037942886353,
          0.3024132549762726,
          -1.255340576171875,
          0.22162717580795288,
          -0.8218239545822144,
          -0.15375037491321564,
          1.1520732641220093,
          0.26676931977272034,
          0.34830376505851746,
          0.006888025440275669,
          0.22184161841869354,
          0.39248722791671753,
          0.571698009967804,
          -0.24724270403385162,
          -1.0699200630187988,
          0.999347448348999,
          -1.3546688556671143,
          0.2140151858329773,
          -0.16657401621341705,
          -0.6505212783813477,
          0.02232324331998825,
          0.762382447719574,
          0.39511656761169434,
          0.6375088095664978,
          0.8538016080856323,
          0.6559115052223206,
          -0.5870823860168457,
          -0.4158484935760498,
          -0.8064350485801697,
          -0.8372892141342163,
          0.0010358173167333007,
          0.10365118086338043,
          0.04038714990019798,
          1.6150215864181519,
          0.04389394074678421,
          -0.1266593188047409,
          0.47281619906425476,
          0.5450512170791626,
          0.0826048031449318,
          -1.002748727798462,
          -0.2084614634513855,
          -1.1726161241531372,
          -0.900147020816803,
          1.877577304840088,
          -1.128053903579712,
          -0.18618331849575043,
          -0.729843258857727,
          -0.8818751573562622,
          1.8044203519821167,
          -1.2118889093399048,
          -0.18115843832492828,
          0.7128597497940063,
          -0.22003109753131866,
          -0.3255012333393097,
          0.6582844257354736,
          -0.626685380935669,
          -0.30639728903770447,
          0.2274506837129593,
          0.11190781742334366,
          0.03493525832891464,
          -0.3386702239513397,
          0.2326209992170334,
          0.13701236248016357,
          1.1789746284484863,
          0.03637833520770073,
          -0.22014379501342773,
          -0.12705016136169434,
          0.21637406945228577,
          1.7974313497543335,
          0.024518685415387154,
          -0.16521409153938293,
          -0.658657968044281,
          -0.28180205821990967,
          -0.663500964641571,
          -0.1921146959066391,
          -0.4464264214038849,
          -0.1164691299200058,
          -0.2477119266986847,
          0.4148924648761749,
          0.7857496738433838,
          0.16760991513729095,
          0.8383289575576782,
          0.533988356590271,
          0.1813088059425354,
          -0.07985857129096985,
          -0.4556860327720642,
          -0.3129664957523346,
          0.25887608528137207,
          0.6145687699317932,
          -0.7015748620033264,
          -0.1592346727848053,
          0.36117735505104065,
          -0.5169340372085571,
          -0.7476992607116699,
          0.07836862653493881,
          -0.1969413459300995,
          0.17754296958446503,
          0.43152087926864624,
          -0.10757531225681305,
          -0.41625112295150757,
          1.408882737159729,
          -0.13093522191047668,
          -0.6143635511398315,
          -0.42803189158439636,
          0.7511457800865173,
          -1.8164159059524536,
          -0.6279382109642029,
          1.2054781913757324,
          0.7559211254119873,
          -0.30212315917015076,
          0.10431188344955444,
          -0.27916771173477173,
          0.5576654076576233,
          -0.7420207858085632,
          -0.4333127439022064,
          0.9184925556182861,
          0.1915339082479477,
          -0.13334794342517853,
          0.355660617351532,
          -0.7869226932525635,
          0.26741430163383484,
          -0.2220710963010788,
          -0.18273282051086426,
          0.583268404006958,
          1.0540978908538818,
          0.12632021307945251,
          -0.5231142044067383,
          -0.4744357168674469,
          0.3228256106376648,
          0.8343914747238159,
          0.20695315301418304,
          -0.17531515657901764,
          -0.3349721431732178,
          -0.09896358102560043,
          0.4382813274860382,
          -0.5351981520652771,
          -0.46358317136764526,
          0.12676218152046204,
          -0.46266281604766846,
          0.07877980172634125,
          -1.122734546661377,
          0.9773606657981873,
          -0.009250530041754246,
          -0.6689800024032593,
          -0.2740337550640106,
          -0.06998298317193985,
          0.0290937889367342,
          -0.013231413438916206,
          1.2213499546051025,
          -0.036612581461668015,
          -0.3568657636642456,
          0.13728046417236328,
          -0.3115842342376709,
          0.5347874760627747,
          0.4013303816318512,
          -1.7624398469924927,
          -1.0380678176879883,
          0.7634798288345337,
          -0.6551423072814941,
          0.8098975419998169,
          -0.7280770540237427,
          -1.9380011558532715,
          -0.18601030111312866,
          -1.0206001996994019,
          -0.8655229806900024,
          0.04404019936919212,
          -1.6020454168319702,
          0.32441526651382446,
          1.026634693145752,
          0.7707479596138,
          -0.8342486023902893,
          0.3295568525791168,
          0.6902542114257812,
          -0.10406290739774704,
          0.06992581486701965,
          0.2479567527770996,
          -0.3048877716064453,
          1.472066879272461,
          -0.2536800503730774,
          0.22062720358371735,
          -0.5675233602523804,
          0.7838283777236938,
          0.3521720767021179,
          -1.2319368124008179,
          0.22016456723213196,
          0.7068906426429749,
          -0.47678250074386597,
          1.0752543210983276,
          -0.4126894772052765,
          0.8475987911224365,
          -0.039518553763628006,
          -0.01974702626466751,
          0.8761701583862305,
          -0.9786502718925476,
          0.1176002100110054,
          -1.2114794254302979,
          -0.055581722408533096,
          -0.6813081502914429,
          -0.38963720202445984,
          1.5953121185302734,
          1.0417065620422363,
          -0.18694742023944855,
          -1.3061250448226929,
          0.6081039309501648,
          1.5908024311065674,
          -1.1174298524856567,
          1.0987663269042969,
          -0.4974481761455536,
          1.1184977293014526,
          0.5567577481269836,
          -0.42912158370018005,
          0.12300924211740494,
          -0.09827746450901031,
          -0.31225571036338806,
          2.003019332885742,
          -1.9323543310165405,
          0.28747278451919556,
          -1.0095131397247314,
          -0.0493331216275692,
          1.4571655988693237,
          0.03290924057364464,
          0.26414135098457336,
          0.00011424137483118102,
          0.39867332577705383,
          -1.0024760961532593,
          0.30056869983673096,
          -0.9893849492073059,
          0.368868887424469,
          -0.5730430483818054,
          -0.10238146036863327,
          -0.30579087138175964,
          0.4384280741214752,
          0.5243260860443115,
          -1.5188961029052734,
          1.2797572612762451,
          -0.31419891119003296,
          -1.1049344539642334,
          -0.7803173065185547,
          0.009728138335049152,
          0.981399416923523,
          0.5522873997688293,
          0.5190020799636841,
          -0.29182615876197815,
          1.6120063066482544,
          1.7522763013839722,
          0.7106156945228577,
          1.145372986793518,
          -0.27646854519844055,
          0.6975758075714111,
          1.5448929071426392,
          0.34345191717147827,
          0.5474759936332703,
          0.3987933099269867,
          -0.3610325753688812,
          0.6915251612663269,
          0.18072272837162018,
          -0.14126896858215332,
          -0.4184328615665436,
          -0.7635371685028076,
          -1.7899497747421265,
          0.7762191891670227,
          0.6650509238243103,
          0.9447328448295593,
          1.3467154502868652,
          -0.4653548002243042,
          0.0014853673055768013,
          0.6565570831298828,
          0.2150340974330902,
          0.6707802414894104,
          -0.8654279708862305,
          0.09591788053512573,
          -0.4414151608943939,
          0.6149601340293884,
          0.3698939383029938,
          -0.4522903561592102,
          -0.9508905410766602,
          -0.11821301281452179,
          -0.26232632994651794,
          -0.20947358012199402,
          -0.6936914920806885,
          0.6929367780685425,
          -0.19514580070972443,
          0.4176049828529358,
          -0.1891743689775467,
          1.738847017288208,
          -0.19803637266159058,
          -0.5807309150695801,
          0.269298791885376,
          -1.0080921649932861,
          -0.8765608072280884,
          0.1634955257177353,
          0.22558073699474335,
          0.04132187366485596,
          -0.7841103076934814,
          -0.017280947417020798,
          0.45297771692276,
          0.21188220381736755,
          -0.4703832268714905,
          0.12382891774177551,
          0.5633898973464966,
          0.3689385950565338,
          0.9255119562149048,
          0.08693993091583252,
          -0.07351137697696686,
          -0.20625050365924835,
          -0.07369345426559448,
          0.20668210089206696,
          -0.4012143909931183,
          1.4149785041809082,
          -1.0369118452072144,
          -0.11787503957748413,
          0.7724359035491943,
          0.05078896880149841,
          0.10605230927467346,
          -1.0647989511489868,
          -0.21979920566082
        ]
      },
      "forgetHidden": {
        "rows": 20,
        "columns": 20,
        "weights": [
          0.13712957501411438,
          0.29796117544174194,
          -0.23792581260204315,
          0.009447285905480385,
          -0.3748987317085266,
          1.269303560256958,
          0.045708682388067245,
          -0.4976097047328949,
          -0.854083776473999,
          -0.1942317932844162,
          -0.7205434441566467,
          0.036341264843940735,
          -0.3548314869403839,
          -0.4651944637298584,
          0.6444721221923828,
          0.7484707236289978,
          0.3427998125553131,
          -1.1553717851638794,
          0.6894307732582092,
          -0.0628349781036377,
          -0.7876531481742859,
          -0.27793288230895996,
          1.0183308124542236,
          -0.07163029164075851,
          0.1362755298614502,
          0.3811585307121277,
          -0.03599407151341438,
          -1.2940359115600586,
          0.8581684231758118,
          0.5206949710845947,
          -1.5894992351531982,
          -1.176130771636963,
          0.2589605152606964,
          0.7659909725189209,
          -0.1796620935201645,
          -0.2516235113143921,
          -0.765091061592102,
          1.2920855283737183,
          -1.248657464981079,
          -0.503659725189209,
          -0.3312782049179077,
          -0.17349445819854736,
          -0.7315773367881775,
          0.840897262096405,
          0.1864386796951294,
          1.4116872549057007,
          -0.38077014684677124,
          0.8423306941986084,
          0.1666368544101715,
          0.7743315100669861,
          -0.20520438253879547,
          -0.6410954594612122,
          0.12150875478982925,
          0.05377707630395889,
          0.7237424850463867,
          0.9764288663864136,
          -0.2605706453323364,
          -0.09812495857477188,
          -0.36458465456962585,
          0.18237623572349548,
          0.2686144709587097,
          0.40615877509117126,
          0.10427424311637878,
          -0.1444140523672104,
          0.2807731628417969,
          -0.058096230030059814,
          0.8883960247039795,
          -0.3164989650249481,
          -0.04489212483167648,
          0.20236501097679138,
          -0.21117821335792542,
          0.4228430986404419,
          0.028003983199596405,
          0.39959949254989624,
          0.6266208291053772,
          -0.059057410806417465,
          -0.007744962349534035,
          0.3428444564342499,
          0.4006279706954956,
          0.12085528671741486,
          -1.789779543876648,
          0.010967661626636982,
          0.31586527824401855,
          0.6506065726280212,
          -0.007137705571949482,
          -1.0507808923721313,
          -0.9742022752761841,
          -0.24782401323318481,
          -0.17551158368587494,
          -0.06753966212272644,
          -0.23966583609580994,
          0.42953363060951233,
          0.6317448019981384,
          0.1557462215423584,
          -0.013248338364064693,
          0.0053611500188708305,
          -0.1719006448984146,
          0.39195287227630615,
          0.4986688494682312,
          0.3835451900959015,
          0.033089205622673035,
          -0.13527017831802368,
          -0.12331558018922806,
          -0.031106889247894287,
          -0.14781101047992706,
          -0.34847861528396606,
          0.017586078494787216,
          0.16118277609348297,
          -0.22441227734088898,
          0.5612610578536987,
          -0.6261760592460632,
          -0.008153975941240788,
          0.3858816921710968,
          0.28553491830825806,
          -0.1384086310863495,
          -0.4348149299621582,
          -0.08944567292928696,
          -0.20276491343975067,
          -0.03758115693926811,
          0.16966499388217926,
          -0.8730883002281189,
          -0.18397119641304016,
          -0.010185872204601765,
          0.1829613596200943,
          0.058155570179224014,
          -0.5298160314559937,
          0.6587233543395996,
          0.4080815613269806,
          0.4432835578918457,
          -1.0145996809005737,
          -0.6777597665786743,
          0.6022361516952515,
          0.32531386613845825,
          0.08523272722959518,
          0.7786902189254761,
          0.7764465808868408,
          0.042684849351644516,
          -0.030043039470911026,
          0.9862186312675476,
          -0.19527268409729004,
          0.2798130512237549,
          0.8699137568473816,
          -0.14552682638168335,
          0.5042598843574524,
          -0.3694024980068207,
          1.015792965888977,
          0.4427845776081085,
          -1.1278700828552246,
          0.7561997175216675,
          0.055214423686265945,
          0.8073756694793701,
          0.1587797850370407,
          0.08497500419616699,
          0.2305327206850052,
          -0.3038637340068817,
          -0.4338989555835724,
          0.400666743516922,
          -0.0835534855723381,
          -0.36436131596565247,
          0.23124365508556366,
          0.5520569682121277,
          0.12468830496072769,
          -0.3679681718349457,
          -1.000295639038086,
          -0.10853754729032516,
          0.6054471135139465,
          0.777029275894165,
          -0.24001386761665344,
          -0.19149847328662872,
          0.6501938700675964,
          0.704677164554596,
          -0.08625978976488113,
          0.24274054169654846,
          0.024828920140862465,
          -0.25920453667640686,
          0.594273567199707,
          -0.2683852016925812,
          -0.7007402777671814,
          0.1786576509475708,
          0.20736058056354523,
          -1.294083595275879,
          0.951315701007843,
          -0.4861755073070526,
          -0.8376870155334473,
          0.02555294893682003,
          0.35381925106048584,
          0.452965646982193,
          0.7984124422073364,
          0.08632322400808334,
          0.10615570098161697,
          0.2706379294395447,
          -0.025623243302106857,
          -0.1821812391281128,
          1.3091051578521729,
          -1.0200622081756592,
          -0.16266030073165894,
          0.33885878324508667,
          0.2937297523021698,
          0.7783868908882141,
          -0.9706977605819702,
          0.29255664348602295,
          0.3301156759262085,
          -0.32413503527641296,
          -0.10896576941013336,
          -0.01107226312160492,
          0.11043005436658859,
          0.5867872834205627,
          -0.6123918890953064,
          0.48355820775032043,
          -0.6836062073707581,
          -0.7272868156433105,
          0.15695692598819733,
          -0.08471710234880447,
          -0.37577322125434875,
          -0.19380082190036774,
          0.07632537931203842,
          0.22681817412376404,
          0.2179746776819229,
          -0.8354723453521729,
          -0.29833146929740906,
          -0.9901490807533264,
          -0.369296133518219,
          -0.4955838918685913,
          -0.1992599368095398,
          -0.32892972230911255,
          1.3926841020584106,
          -0.33129867911338806,
          -1.3649990558624268,
          -0.5670643448829651,
          -0.14258739352226257,
          0.7182307243347168,
          0.07571084052324295,
          -0.014921698719263077,
          0.04141099005937576,
          0.7753369808197021,
          0.40597254037857056,
          0.040111370384693146,
          -0.01438297051936388,
          -1.3684409856796265,
          0.20940648019313812,
          -0.40532124042510986,
          0.8745343685150146,
          -0.49730291962623596,
          0.1631438136100769,
          0.011718922294676304,
          -0.14096815884113312,
          0.8704321980476379,
          -0.10129112005233765,
          -0.4572663903236389,
          0.08299019932746887,
          -0.7095209360122681,
          -0.07164248824119568,
          0.15190814435482025,
          0.2324914038181305,
          0.9198163151741028,
          0.20047153532505035,
          -0.3056308627128601,
          0.23940742015838623,
          0.7091169357299805,
          0.21299058198928833,
          0.3974025249481201,
          0.359239786863327,
          -0.4433384835720062,
          0.4798005223274231,
          0.26213088631629944,
          -0.5551969408988953,
          0.4690282344818115,
          -0.3727080523967743,
          -0.4935932159423828,
          0.4369954466819763,
          0.16026468575000763,
          0.6037175059318542,
          0.0022018190938979387,
          -0.7667096853256226,
          0.9398379325866699,
          -0.49901846051216125,
          -0.8263353109359741,
          0.03520578145980835,
          -0.674945056438446,
          -0.28939616680145264,
          -0.15528027713298798,
          2.0024919509887695,
          -0.11194740235805511,
          0.06786935031414032,
          -0.5107080936431885,
          0.06714455783367157,
          -0.34833812713623047,
          -0.41261330246925354,
          2.336752414703369,
          -0.9310564398765564,
          1.4127570390701294,
          -0.9016640782356262,
          -0.4142516553401947,
          0.652132511138916,
          -0.1420799195766449,
          -0.26914334297180176,
          -0.5432201027870178,
          -0.03882969915866852,
          -0.6946908235549927,
          0.2497691512107849,
          -0.7427080273628235,
          -0.5244812369346619,
          -0.7544363737106323,
          -0.0023950356990098953,
          0.28247523307800293,
          -1.1308778524398804,
          0.08543887734413147,
          0.4103948771953583,
          -0.4609054923057556,
          -0.24858984351158142,
          -0.09808222204446793,
          -0.21347513794898987,
          -0.07701702415943146,
          -0.7960994839668274,
          0.3570185899734497,
          0.2987295091152191,
          1.2106457948684692,
          -0.6473695635795593,
          -0.28381264209747314,
          -0.20265080034732819,
          0.09133461862802505,
          -0.3449598252773285,
          0.8702278733253479,
          -0.26517045497894287,
          -0.2125338762998581,
          0.8499498963356018,
          -0.6653098464012146,
          -0.19049139320850372,
          0.46600252389907837,
          -0.8378166556358337,
          0.5434102416038513,
          -0.9911260008811951,
          -0.05643099546432495,
          0.7432277202606201,
          -1.3604826927185059,
          -0.2833814024925232,
          -0.01364071760326624,
          0.6668508052825928,
          -0.7987028360366821,
          0.43696871399879456,
          0.9875968098640442,
          -0.2493816465139389,
          0.2848220467567444,
          0.3540744483470917,
          -0.3681037724018097,
          1.3513883352279663,
          0.9139100909233093,
          0.4534497559070587,
          -1.2896311283111572,
          0.799401581287384,
          -3.3476505279541016,
          0.022325167432427406,
          0.11510387808084488,
          0.012026647105813026,
          -0.03902783617377281,
          -0.019772039726376534,
          -0.2068442702293396,
          -0.37970447540283203,
          -0.3725150525569916,
          -0.42666542530059814,
          -0.001331695937551558,
          0.35678547620773315,
          -0.32785916328430176,
          -0.6788352727890015,
          0.17771105468273163,
          0.3995988070964813,
          -0.5020937323570251,
          -0.16270668804645538,
          -0.2248409241437912,
          0.11582514643669128,
          -1.1505873203277588,
          0.048107754439115524,
          -0.33600834012031555,
          0.8077488541603088,
          0.007750924676656723,
          0.5954300761222839,
          -0.185784250497818,
          -1.0732272863388062,
          -0.02743264101445675,
          -0.08976206928491592,
          -0.7457408308982849,
          -0.23887279629707336,
          0.007059416733682156,
          0.4656165540218353,
          0.12952862679958344,
          -0.7768694162368774,
          -1.1942933797836304,
          -0.09449102729558945,
          -0.4722591042518616,
          0.31296437978744507,
          -0.7081626653671265,
          0.2969595789909363,
          -0.06349480152130127,
          0.22914139926433563,
          -0.16614283621311188,
          -0.05216553807258606,
          -0.2303171306848526,
          0.3629014194011688,
          0.15685606002807617,
          0.4863855540752411
        ]
      },
      "forgetBias": {
        "rows": 20,
        "columns": 1,
        "weights": [
          0,
          0,
          0,
          0,
          0,
          0,
          0,
          0,
          0,
          0,
          0,
          0,
          0,
          0,
          0,
          0,
          0,
          0,
          0,
          0
        ]
      },
      "outputMatrix": {
        "rows": 20,
        "columns": 20,
        "weights": [
          -0.4633871912956238,
          -2.154181957244873,
          -2.501336097717285,
          0.1494247019290924,
          1.0664952993392944,
          1.493116021156311,
          -0.8844132423400879,
          1.6684774160385132,
          -0.026350582018494606,
          0.47111397981643677,
          0.5168221592903137,
          -1.1807557344436646,
          0.7921768426895142,
          -0.555828332901001,
          -1.1343109607696533,
          0.46016672253608704,
          -0.800096869468689,
          -0.5340398550033569,
          -0.7560195922851562,
          0.16922682523727417,
          -2.0399158000946045,
          -0.053795862942934036,
          -0.23406432569026947,
          0.6112328767776489,
          -0.6612002849578857,
          -1.3205211162567139,
          -1.5956512689590454,
          -1.2516088485717773,
          0.1710784137248993,
          0.0106242336332798,
          -0.5397560596466064,
          0.34973278641700745,
          -0.7641692757606506,
          0.06710602343082428,
          -0.5005930066108704,
          0.6382272243499756,
          -0.45600321888923645,
          -0.11510573327541351,
          0.4327389895915985,
          -0.58099365234375,
          -0.2869548797607422,
          -0.8270459175109863,
          0.5536053776741028,
          0.17875826358795166,
          -0.35355114936828613,
          0.6257231831550598,
          -0.4901718497276306,
          0.4563095271587372,
          0.038265638053417206,
          0.23804260790348053,
          -1.0532982349395752,
          0.086116723716259,
          0.5654622912406921,
          1.4627559185028076,
          -1.4437077045440674,
          0.440758615732193,
          -1.3038986921310425,
          -0.5174596309661865,
          0.9899904131889343,
          -1.0603636503219604,
          0.2578710615634918,
          0.20997461676597595,
          -1.3380024433135986,
          1.0434883832931519,
          -0.5341888666152954,
          -1.2681607007980347,
          -0.171738401055336,
          0.17494063079357147,
          -0.6857635974884033,
          0.41064804792404175,
          2.222849130630493,
          -0.6372295022010803,
          0.15222159028053284,
          -0.2145526260137558,
          0.1654452383518219,
          0.4944056272506714,
          -0.15250180661678314,
          1.3166154623031616,
          0.6640660762786865,
          -1.6133896112442017,
          -0.1711808443069458,
          -0.5433682799339294,
          -0.7363215684890747,
          0.36352479457855225,
          0.21593759953975677,
          -0.9609163999557495,
          -1.3022336959838867,
          -0.9067755341529846,
          0.3360503613948822,
          0.41708096861839294,
          0.0980423167347908,
          -0.36768290400505066,
          0.304452508687973,
          0.3983514606952667,
          -0.22255529463291168,
          0.07062134891748428,
          0.3572675287723541,
          -0.103705994784832,
          0.053875889629125595,
          0.43860241770744324,
          -0.778437614440918,
          0.06092797964811325,
          0.1912117302417755,
          1.5238986015319824,
          -0.21674181520938873,
          -0.02097146585583687,
          -0.6508684158325195,
          -0.3254399299621582,
          -0.13024616241455078,
          0.7160245776176453,
          -0.6902607083320618,
          0.7925758957862854,
          -0.10943802446126938,
          -0.48886945843696594,
          -0.33957409858703613,
          0.1655026376247406,
          0.18277382850646973,
          0.622207522392273,
          0.687414288520813,
          -0.5867805480957031,
          -0.22473371028900146,
          -0.4476381242275238,
          -1.5537065267562866,
          1.3299733400344849,
          0.6240664124488831,
          -1.1974267959594727,
          -1.4530125856399536,
          -0.371155709028244,
          0.1980363428592682,
          0.19248487055301666,
          -0.15563108026981354,
          0.43616023659706116,
          0.02375181019306183,
          -0.3013823628425598,
          -0.9550546407699585,
          1.7257496118545532,
          1.4363150596618652,
          -0.8434615135192871,
          0.7210583686828613,
          -0.6163177490234375,
          -1.5588793754577637,
          -1.4430932998657227,
          -1.6281455755233765,
          -1.1064633131027222,
          0.9097104668617249,
          0.5703137516975403,
          -0.8012962937355042,
          1.1181130409240723,
          -0.3642229735851288,
          -1.0203510522842407,
          0.7329384088516235,
          -0.08709083497524261,
          -0.9095723032951355,
          -1.4770543575286865,
          -0.3860076367855072,
          0.2733179032802582,
          0.8924615383148193,
          -2.325505256652832,
          1.4339711666107178,
          1.2664438486099243,
          -0.6794022917747498,
          -0.3288681209087372,
          -0.09817098826169968,
          1.0862739086151123,
          0.1499088704586029,
          -0.37754178047180176,
          -0.5084386467933655,
          -0.39165830612182617,
          0.37194502353668213,
          0.35218295454978943,
          -0.12853758037090302,
          -0.23404164612293243,
          -0.14811745285987854,
          -0.24304158985614777,
          -0.3527633249759674,
          0.1524389684200287,
          0.9598892331123352,
          -0.7683656215667725,
          0.6951329112052917,
          -0.1222638413310051,
          0.00996372476220131,
          -0.48904600739479065,
          -0.6537122130393982,
          -0.9243454337120056,
          -0.24419453740119934,
          -0.14055481553077698,
          -0.43250635266304016,
          -0.3398069441318512,
          0.18470360338687897,
          -0.14251185953617096,
          -0.3865344524383545,
          0.5138689279556274,
          -0.8261513113975525,
          2.2191104888916016,
          -0.4188646674156189,
          0.25456881523132324,
          0.4693385362625122,
          -0.14948347210884094,
          0.7968871593475342,
          -1.328147530555725,
          -1.0470725297927856,
          0.03300093114376068,
          -0.4913179278373718,
          0.11574246734380722,
          0.07114557921886444,
          -0.5415828824043274,
          -1.2761876583099365,
          -0.5635930299758911,
          -0.17736861109733582,
          -0.07639130204916,
          -0.7300783395767212,
          0.8656002879142761,
          -0.649798572063446,
          -0.5178020596504211,
          -0.6117022037506104,
          0.36275386810302734,
          -0.5394148230552673,
          0.39862391352653503,
          0.20464210212230682,
          -1.533287525177002,
          0.12154144793748856,
          0.17562778294086456,
          -0.21222512423992157,
          1.0339405536651611,
          -0.010060458444058895,
          0.847431480884552,
          -0.3257220685482025,
          -0.7469843029975891,
          -0.07781736552715302,
          -0.28636255860328674,
          -0.32001248002052307,
          0.19180312752723694,
          -0.47986194491386414,
          0.44123560190200806,
          -1.4048914909362793,
          -0.4147513508796692,
          0.11892925947904587,
          -0.8074434399604797,
          0.5213348269462585,
          0.26121577620506287,
          0.3717696964740753,
          -0.6537248492240906,
          -1.3598445653915405,
          0.06597411632537842,
          1.1589971780776978,
          1.5647337436676025,
          0.014250855892896652,
          0.3937719166278839,
          1.2013366222381592,
          0.019061008468270302,
          -0.8915947079658508,
          -0.6565603613853455,
          0.585731029510498,
          -1.050508975982666,
          -0.7555420994758606,
          0.405172735452652,
          -0.2607538402080536,
          0.9290007948875427,
          -1.5495586395263672,
          -0.5456912517547607,
          0.0753919780254364,
          1.0159969329833984,
          0.5321686267852783,
          1.6084946393966675,
          2.3974978923797607,
          -2.067896604537964,
          0.4546958804130554,
          0.9606179594993591,
          1.7159849405288696,
          0.30750951170921326,
          -0.2221146672964096,
          -1.5977164506912231,
          0.7161791920661926,
          -0.1471705436706543,
          -1.0307317972183228,
          -0.5916084051132202,
          0.5022873878479004,
          -2.57597017288208,
          0.3811269998550415,
          -1.00216805934906,
          0.3970238268375397,
          -0.4834577441215515,
          0.2624552547931671,
          0.5170817971229553,
          0.733125627040863,
          -0.1308925449848175,
          -1.132508635520935,
          1.074286937713623,
          0.9914310574531555,
          0.3134400248527527,
          -0.2747695744037628,
          -1.8126381635665894,
          0.6009794473648071,
          0.7610155344009399,
          -0.3506466746330261,
          0.2722874581813812,
          -0.1504403054714203,
          -3.033933162689209,
          0.5953494310379028,
          -0.6780464053153992,
          -1.4624981880187988,
          -0.6186801791191101,
          -0.3920949697494507,
          1.0675737857818604,
          0.2340153455734253,
          0.23605431616306305,
          -1.8000640869140625,
          -0.004318753257393837,
          0.30440595746040344,
          0.2908460795879364,
          0.3665812015533447,
          -0.563254714012146,
          -0.3251590132713318,
          -0.5984877943992615,
          -0.9180676341056824,
          1.4474223852157593,
          1.5722391605377197,
          -0.07526081055402756,
          0.0621350072324276,
          -0.9181152582168579,
          -1.4615708589553833,
          -0.23141390085220337,
          0.09755019843578339,
          -0.45628830790519714,
          1.3270649909973145,
          0.20266509056091309,
          -0.6866016983985901,
          1.638882040977478,
          2.134619951248169,
          0.018844017758965492,
          1.5125244855880737,
          -0.6857808232307434,
          0.1558571606874466,
          0.9747800827026367,
          -0.6377958059310913,
          1.4484992027282715,
          0.4366428256034851,
          -1.0094722509384155,
          1.1711524724960327,
          -1.5167732238769531,
          0.3768201768398285,
          0.28117236495018005,
          0.02939995564520359,
          -0.975379228591919,
          -0.3032876253128052,
          0.5330190658569336,
          0.23247112333774567,
          0.08810309320688248,
          -0.33383452892303467,
          0.03999374434351921,
          -0.6327324509620667,
          -1.08826744556427,
          0.5659161806106567,
          1.4131470918655396,
          -0.6351842284202576,
          0.9258897304534912,
          0.7004407048225403,
          -0.03858267888426781,
          0.9374365210533142,
          -0.6464316248893738,
          -0.3358713984489441,
          0.30497729778289795,
          -0.7290939092636108,
          -0.01920795440673828,
          1.845897912979126,
          -0.7624898552894592,
          -0.2313564121723175,
          -0.6869494318962097,
          0.3151525855064392,
          -0.19744691252708435,
          1.5693680047988892,
          -0.5715041756629944,
          0.8203529119491577,
          -0.7739017009735107,
          -0.1428850144147873,
          0.6871770620346069,
          0.384213924407959,
          0.11993521451950073,
          1.1848686933517456,
          -1.0166120529174805,
          -0.3901943862438202,
          -0.6843819618225098,
          -0.9170778393745422,
          0.29549384117126465,
          0.18462872505187988,
          -0.5118793249130249,
          -0.3422037363052368,
          0.7496004104614258,
          0.18633879721164703,
          0.41626492142677307,
          -0.19026385247707367,
          -0.2711752653121948,
          0.3254586160182953,
          0.3656129240989685,
          -0.4384387731552124,
          0.3885170519351959,
          0.2887760400772095,
          -0.19474750757217407,
          0.18312646448612213,
          -0.14946293830871582
        ]
      },
      "outputHidden": {
        "rows": 20,
        "columns": 20,
        "weights": [
          0.6418817043304443,
          -0.9810934066772461,
          0.5077824592590332,
          -0.7263059020042419,
          -1.2883236408233643,
          -1.3834062814712524,
          -0.3481234312057495,
          -1.149203896522522,
          0.33624425530433655,
          -1.0524953603744507,
          -0.1366618275642395,
          0.22500184178352356,
          0.6762489080429077,
          -0.057393934577703476,
          0.5125176906585693,
          -0.02166941948235035,
          -0.1436236947774887,
          -1.4457647800445557,
          -0.061434682458639145,
          0.11787725985050201,
          0.19227814674377441,
          -0.2663995921611786,
          -0.1905873417854309,
          -0.2807339131832123,
          -0.18213538825511932,
          -0.12381087988615036,
          -0.1434173882007599,
          -1.593434453010559,
          0.05662674084305763,
          0.37442746758461,
          0.6264325976371765,
          0.4559457302093506,
          -0.049773987382650375,
          -0.028624653816223145,
          0.33115383982658386,
          -0.2665689289569855,
          1.184411644935608,
          0.15889601409435272,
          -1.054855227470398,
          0.419232040643692,
          0.2730899155139923,
          0.3992615044116974,
          -1.0930593013763428,
          -0.051861878484487534,
          -0.3665986955165863,
          0.19076727330684662,
          0.8003529906272888,
          0.3502040207386017,
          -0.24534280598163605,
          1.0595237016677856,
          0.23802688717842102,
          0.8044717311859131,
          0.6989525556564331,
          -0.2797102630138397,
          1.0346283912658691,
          0.07871022820472717,
          0.7980040907859802,
          -0.26931121945381165,
          -0.16998454928398132,
          0.38381633162498474,
          -0.8345532417297363,
          0.008655066601932049,
          0.42922529578208923,
          0.24268077313899994,
          -1.3460822105407715,
          -0.39082422852516174,
          -0.1778717041015625,
          -3.244074821472168,
          -0.1031886637210846,
          -1.5136148929595947,
          0.8212428092956543,
          -1.0192291736602783,
          0.3762243092060089,
          -0.6209973096847534,
          0.47135481238365173,
          0.7146987915039062,
          1.344703197479248,
          0.4388936758041382,
          0.47333407402038574,
          0.7620521783828735,
          -0.3583790361881256,
          0.709043562412262,
          0.028368143364787102,
          -1.536462664604187,
          -0.8953409790992737,
          -1.23610258102417,
          -0.8348461985588074,
          0.026808680966496468,
          0.4589477479457855,
          -0.32249996066093445,
          0.9327926635742188,
          0.6392802596092224,
          -0.11879311501979828,
          0.11302538216114044,
          -0.24743837118148804,
          1.7659993171691895,
          1.2599893808364868,
          0.09418520331382751,
          -1.7066707611083984,
          0.923210084438324,
          0.8070349097251892,
          -0.06592332571744919,
          -0.7439261078834534,
          -0.33387067914009094,
          -0.7580010294914246,
          -0.536573052406311,
          0.6809956431388855,
          0.38394656777381897,
          -0.7078263759613037,
          -0.3930043578147888,
          0.3748222887516022,
          0.14094854891300201,
          0.34128332138061523,
          -0.36257702112197876,
          0.6915486454963684,
          0.5036789178848267,
          0.521207869052887,
          -0.222464919090271,
          0.19269505143165588,
          0.22830207645893097,
          0.6131062507629395,
          -0.5891873240470886,
          -2.9747393131256104,
          -1.1922736167907715,
          0.41449859738349915,
          -0.8082529306411743,
          0.16265317797660828,
          -0.018671607598662376,
          -0.15454983711242676,
          -0.4093545973300934,
          0.13311700522899628,
          0.17895497381687164,
          0.08907460421323776,
          -0.4166520833969116,
          1.4115500450134277,
          0.009477374143898487,
          0.13557635247707367,
          0.21935752034187317,
          -0.6091693043708801,
          0.011543241329491138,
          -0.461184561252594,
          0.14711731672286987,
          0.301016241312027,
          0.015554550103843212,
          -0.4194926619529724,
          0.30638587474823,
          -0.5144878625869751,
          -0.5345873236656189,
          -2.153129816055298,
          1.0012861490249634,
          1.2016382217407227,
          0.9227913022041321,
          0.06214100867509842,
          0.6094197034835815,
          0.37825652956962585,
          0.6318366527557373,
          0.8134692311286926,
          1.439919352531433,
          -0.32645660638809204,
          1.0503908395767212,
          0.7679780721664429,
          -0.3203675448894501,
          -0.48613956570625305,
          -0.5479240417480469,
          -0.44096991419792175,
          0.49118220806121826,
          0.8422706127166748,
          -0.9868507385253906,
          0.12748481333255768,
          0.17503631114959717,
          0.5708742737770081,
          0.27323800325393677,
          1.2759209871292114,
          0.2339552342891693,
          0.11067292094230652,
          0.18800532817840576,
          0.33607497811317444,
          0.0178349819034338,
          -0.1830187290906906,
          0.4096827208995819,
          -0.6303492784500122,
          -0.622498095035553,
          -1.43982994556427,
          -0.10616578906774521,
          -0.33348092436790466,
          -2.643264055252075,
          0.7887510657310486,
          0.6214167475700378,
          -0.1798478662967682,
          1.8187862634658813,
          0.825531005859375,
          2.3094615936279297,
          1.0915716886520386,
          -0.2500487267971039,
          1.5462613105773926,
          0.6666346788406372,
          1.019180178642273,
          0.5045398473739624,
          -0.16834869980812073,
          0.9159302711486816,
          0.3174784779548645,
          0.06549271941184998,
          -0.21783044934272766,
          0.044710028916597366,
          -0.059840474277734756,
          0.45068782567977905,
          1.0927398204803467,
          0.21745145320892334,
          0.5808926820755005,
          -0.4034692347049713,
          -0.3654639720916748,
          0.8283892273902893,
          0.06823055446147919,
          -0.4767104685306549,
          1.0064669847488403,
          0.2161766141653061,
          0.3627065420150757,
          -0.13131402432918549,
          -0.3985316753387451,
          0.1827571839094162,
          0.5937592387199402,
          0.31802141666412354,
          -0.6599100232124329,
          -0.9695582389831543,
          -0.761103093624115,
          -0.5552865862846375,
          0.1514320969581604,
          -0.40383225679397583,
          0.07670069485902786,
          1.251947045326233,
          0.6525369882583618,
          0.7742846608161926,
          0.30542314052581787,
          0.4773103892803192,
          0.7436054348945618,
          1.441152811050415,
          0.7744326591491699,
          -0.16537150740623474,
          0.18954947590827942,
          0.732526957988739,
          -0.16980016231536865,
          -0.04177930951118469,
          -0.5728471875190735,
          0.5780168175697327,
          -0.3820326030254364,
          1.1645184755325317,
          -0.5009222626686096,
          0.08072444051504135,
          -0.5227630734443665,
          1.1181039810180664,
          -0.25386103987693787,
          0.06715822219848633,
          0.4130193591117859,
          -0.030981123447418213,
          0.2649596929550171,
          1.1446470022201538,
          0.016915669664740562,
          -1.13722825050354,
          0.07369806617498398,
          0.387410044670105,
          -1.0098744630813599,
          1.401396632194519,
          0.7794689536094666,
          0.18514323234558105,
          0.22296233475208282,
          -1.4531770944595337,
          0.21189485490322113,
          -1.0104669332504272,
          0.307705819606781,
          0.05551877245306969,
          0.7931950688362122,
          -0.04163288697600365,
          0.12992312014102936,
          1.667287826538086,
          0.596359372138977,
          0.21674899756908417,
          -0.6537304520606995,
          0.75617915391922,
          0.6836405992507935,
          0.013070561923086643,
          0.21197918057441711,
          0.5136145353317261,
          0.3023669123649597,
          1.120921015739441,
          -0.25930389761924744,
          -0.5873398184776306,
          0.6085051894187927,
          -1.6332553625106812,
          0.31266874074935913,
          -0.7459445595741272,
          0.1529829204082489,
          -1.0004405975341797,
          0.20721212029457092,
          -0.9547181725502014,
          0.14917410910129547,
          0.6689846515655518,
          0.8641366362571716,
          -0.4738011062145233,
          0.1621912121772766,
          -0.26944565773010254,
          -0.3303714990615845,
          0.11063895374536514,
          -0.7293335795402527,
          -0.6320974230766296,
          -0.2674690783023834,
          -0.5345309376716614,
          0.04608457162976265,
          -0.8504019975662231,
          0.2435501515865326,
          0.1074710413813591,
          -0.1470230370759964,
          0.36577457189559937,
          1.324213981628418,
          -0.12013907730579376,
          0.16800636053085327,
          0.37861594557762146,
          1.837230920791626,
          0.6044608354568481,
          -0.8513892292976379,
          0.3160020411014557,
          0.3157669007778168,
          0.22880664467811584,
          0.2058998942375183,
          0.6628830432891846,
          -0.10982166230678558,
          -0.3987460434436798,
          0.10414598882198334,
          -1.0789761543273926,
          0.8414924740791321,
          0.3626401722431183,
          0.4996897578239441,
          -1.2267013788223267,
          1.140295147895813,
          0.616962194442749,
          -1.184719443321228,
          0.28108078241348267,
          -0.5144846439361572,
          0.6718458533287048,
          -0.6652195453643799,
          0.8166776895523071,
          0.3437109589576721,
          -0.008578437380492687,
          -0.3116833567619324,
          -0.9143686294555664,
          -0.6532679796218872,
          -1.549373984336853,
          1.2208644151687622,
          -0.1446414589881897,
          0.08166604489088058,
          -0.26944348216056824,
          0.725681722164154,
          0.6650079488754272,
          0.6355019807815552,
          -0.3519054651260376,
          0.811932384967804,
          2.0026168823242188,
          1.2312928438186646,
          -0.42412489652633667,
          -1.0130378007888794,
          0.5410308241844177,
          -1.1393440961837769,
          -0.7428529858589172,
          -0.49971815943717957,
          0.3426242768764496,
          -0.7744435667991638,
          -2.0338428020477295,
          0.9936464428901672,
          -0.769803524017334,
          1.1309605836868286,
          -1.3094902038574219,
          -0.22283481061458588,
          0.5532025694847107,
          -0.4180552065372467,
          -1.148155927658081,
          -1.0915806293487549,
          -0.14311158657073975,
          1.4373549222946167,
          1.1057372093200684,
          -0.20918723940849304,
          1.2295438051223755,
          -1.3073480129241943,
          -1.3722989559173584,
          -1.0802632570266724,
          -0.5539727210998535,
          -0.8013443350791931,
          -1.5197718143463135,
          0.523215651512146,
          0.08499649912118912,
          1.5630037784576416,
          2.857959747314453,
          -1.9019900560379028,
          0.7258313298225403,
          0.2643130123615265,
          -0.37633514404296875,
          0.14332690834999084,
          1.51009202003479,
          1.9144550561904907,
          0.3852255046367645,
          -1.1603114604949951,
          0.5952205061912537
        ]
      },
      "outputBias": {
        "rows": 20,
        "columns": 1,
        "weights": [
          -0.0928770899772644,
          0.43948912620544434,
          0.21634700894355774,
          0.17382465302944183,
          0.1631302833557129,
          -0.061061400920152664,
          0.1050071120262146,
          0.028190037235617638,
          0.07141716033220291,
          -1.5164884328842163,
          -0.14533500373363495,
          -0.16743136942386627,
          0.4957824647426605,
          1.7404825687408447,
          0.44277507066726685,
          0.4409107565879822,
          -1.218414306640625,
          -0.811442494392395,
          0.5413582921028137,
          0.18971697986125946
        ]
      },
      "cellActivationMatrix": {
        "rows": 20,
        "columns": 20,
        "weights": [
          -0.016899986192584038,
          -0.015515669248998165,
          -0.8255947232246399,
          1.5562421083450317,
          -0.490153044462204,
          -0.33846616744995117,
          -0.6918274164199829,
          -0.7340330481529236,
          -0.8557105660438538,
          0.6075828671455383,
          -0.9837400913238525,
          0.8870526552200317,
          -0.00938335806131363,
          1.0309815406799316,
          -0.3971773386001587,
          -0.011979582719504833,
          0.4742400050163269,
          0.14667648077011108,
          -1.0809881687164307,
          -1.3869376182556152,
          0.028623482212424278,
          -0.6481846570968628,
          0.0414649173617363,
          -0.9075538516044617,
          -0.6833311915397644,
          0.5858478546142578,
          -0.16140314936637878,
          -2.9691321849823,
          -1.01817786693573,
          -0.9911940097808838,
          -0.03473888337612152,
          0.7916864156723022,
          -0.8229472041130066,
          -0.456342875957489,
          0.1956804096698761,
          0.24067366123199463,
          0.1143646091222763,
          1.2138057947158813,
          -0.4641721546649933,
          0.4882899224758148,
          -0.348985493183136,
          -0.047048598527908325,
          -0.4023478329181671,
          0.07004917412996292,
          0.1341421753168106,
          -0.12414959073066711,
          0.2532234489917755,
          0.1590205281972885,
          0.03509568050503731,
          -0.09314323961734772,
          0.009594877250492573,
          -0.14778827130794525,
          -0.2307438850402832,
          -0.25504791736602783,
          0.3350197374820709,
          -0.10861029475927353,
          0.47079482674598694,
          -0.5785880088806152,
          -0.2792305052280426,
          1.0852993726730347,
          0.9842767119407654,
          0.4630657732486725,
          0.008381318300962448,
          -0.8209555745124817,
          0.15150927007198334,
          -0.418484628200531,
          0.09761233627796173,
          -0.0027994471602141857,
          0.35599619150161743,
          -0.27972957491874695,
          0.3854426145553589,
          -0.6019271612167358,
          0.23852522671222687,
          0.04321926087141037,
          0.06912396848201752,
          -0.4923141300678253,
          -0.06905686855316162,
          1.3349045515060425,
          0.046663280576467514,
          0.46765825152397156,
          0.18808487057685852,
          -0.0012730731396004558,
          0.651893138885498,
          -0.6259633898735046,
          -0.6474312543869019,
          -0.12412742525339127,
          1.145422101020813,
          -0.9616034030914307,
          0.2768470346927643,
          -0.4809947609901428,
          0.5040190815925598,
          -0.9046418070793152,
          0.020544536411762238,
          -0.41321879625320435,
          -0.6758134961128235,
          -0.31897759437561035,
          -1.3806484937667847,
          0.6599392294883728,
          -0.5458012223243713,
          -0.2724708020687103,
          0.1286521703004837,
          -0.1963915228843689,
          0.20572911202907562,
          -0.12354452908039093,
          0.40893319249153137,
          -0.28092530369758606,
          -0.3692004978656769,
          -0.32077962160110474,
          -0.5267047882080078,
          -0.4337397515773773,
          0.0911506935954094,
          1.0070291757583618,
          0.7355353832244873,
          -0.9458640217781067,
          0.2588503956794739,
          0.25763139128685,
          0.34266114234924316,
          -0.37008175253868103,
          -0.7525644898414612,
          0.3543027341365814,
          -1.0961936712265015,
          0.05649282783269882,
          0.1805238276720047,
          0.3104105293750763,
          0.09563637524843216,
          -0.6387906670570374,
          0.36152100563049316,
          -0.3212241530418396,
          -0.10202715545892715,
          0.8882072567939758,
          -0.3449968695640564,
          -0.41268834471702576,
          0.2246263027191162,
          0.11831021308898926,
          -0.3339930474758148,
          0.25717219710350037,
          -0.13315027952194214,
          0.45066341757774353,
          0.10111768543720245,
          -0.1879110187292099,
          0.19106756150722504,
          -0.6803957223892212,
          -0.8613170981407166,
          -0.11121119558811188,
          -0.7698668837547302,
          0.2763887345790863,
          -0.4739193320274353,
          -0.43153589963912964,
          -0.33479800820350647,
          -1.0048836469650269,
          0.4681839346885681,
          0.18861187994480133,
          -0.5805844068527222,
          -1.9374973773956299,
          1.1456856727600098,
          0.38164880871772766,
          0.15106649696826935,
          -0.13391123712062836,
          0.5458190441131592,
          1.0197207927703857,
          -0.31563788652420044,
          0.5654003024101257,
          -0.1184995025396347,
          -0.05572346970438957,
          0.509855329990387,
          0.7116742134094238,
          -0.3626624345779419,
          -0.28910720348358154,
          -0.08760441839694977,
          0.09724661707878113,
          0.40013113617897034,
          -0.062379490584135056,
          0.4179115891456604,
          0.08321935683488846,
          0.08841820061206818,
          -0.02480132505297661,
          0.3193136751651764,
          -0.7342167496681213,
          -0.1587742120027542,
          -0.11422145366668701,
          0.6474379301071167,
          0.4556637704372406,
          0.025817018002271652,
          -0.6930461525917053,
          -0.10515962541103363,
          0.2413007766008377,
          0.22058822214603424,
          -0.13819780945777893,
          0.09384921193122864,
          -0.5761651992797852,
          0.7149394750595093,
          2.0182547569274902,
          -0.1923285573720932,
          -1.6630280017852783,
          -0.11472631245851517,
          -0.017591377720236778,
          -1.2437163591384888,
          1.1862610578536987,
          -0.5547217726707458,
          0.07833307981491089,
          -0.23706907033920288,
          0.13523781299591064,
          -0.02434399351477623,
          -0.05815953016281128,
          -0.5289518237113953,
          0.08032076805830002,
          -0.16199126839637756,
          -0.2113826423883438,
          0.18481041491031647,
          -0.29385241866111755,
          -0.11810407787561417,
          -0.14312714338302612,
          0.0618254616856575,
          -0.025598593056201935,
          -0.2785678803920746,
          -0.3891794681549072,
          -0.8314160704612732,
          0.22874343395233154,
          0.51632159948349,
          0.002304318593814969,
          -0.15679992735385895,
          0.3217127025127411,
          -0.5364984273910522,
          -0.39572328329086304,
          -0.904820442199707,
          0.6980471014976501,
          0.01921863853931427,
          -0.44218799471855164,
          -0.3433828055858612,
          -0.3103058338165283,
          0.5958068370819092,
          0.20927812159061432,
          0.7361636757850647,
          0.40306949615478516,
          -0.2641516625881195,
          0.17907804250717163,
          -0.32689008116722107,
          0.29272422194480896,
          0.10500387102365494,
          -1.016075611114502,
          -1.352149248123169,
          0.5517346858978271,
          -0.653163731098175,
          0.41791000962257385,
          -0.1890316605567932,
          -0.8801865577697754,
          -0.08840255439281464,
          -0.9618958234786987,
          -0.21088525652885437,
          -0.23069816827774048,
          -0.10329286754131317,
          0.2954694330692291,
          0.3973779082298279,
          0.470781147480011,
          -0.48142966628074646,
          0.4061211943626404,
          0.13961805403232574,
          0.32221895456314087,
          -0.2997339069843292,
          0.22581325471401215,
          0.5758273005485535,
          0.42964592576026917,
          -0.02369374968111515,
          -0.10065165907144547,
          -0.2270861566066742,
          0.2441788613796234,
          0.6919238567352295,
          -0.06889626383781433,
          0.10710881650447845,
          -0.4647141695022583,
          0.7626091837882996,
          0.20707836747169495,
          0.09665178507566452,
          0.35223692655563354,
          0.23958387970924377,
          -0.001526972046121955,
          0.3855620324611664,
          -0.15018980205059052,
          -0.06023504585027695,
          0.2806187570095062,
          -0.14282740652561188,
          -0.06502602994441986,
          0.2396002560853958,
          0.17368203401565552,
          -0.1275731474161148,
          0.7837930917739868,
          -0.06181611120700836,
          -0.5141943097114563,
          0.21373261511325836,
          -0.33397236466407776,
          -0.1713746041059494,
          0.09354524314403534,
          -0.7702152132987976,
          0.09009142220020294,
          -0.1824142187833786,
          0.08419929444789886,
          -0.39040622115135193,
          -0.13062989711761475,
          -0.32776015996932983,
          -0.26593172550201416,
          -0.09166048467159271,
          -1.007595419883728,
          -0.055389225482940674,
          0.6521074771881104,
          -0.35233181715011597,
          0.25596708059310913,
          0.15236379206180573,
          0.430919885635376,
          -0.3499685525894165,
          0.5612589120864868,
          -0.14557290077209473,
          0.47577017545700073,
          -0.04036765918135643,
          -0.24055401980876923,
          -0.23258569836616516,
          0.10840465128421783,
          -0.09626447409391403,
          -1.4095896482467651,
          0.5867800116539001,
          0.22277028858661652,
          -0.2701661288738251,
          0.3106894791126251,
          -0.18913719058036804,
          0.5779606103897095,
          -0.11471963673830032,
          -0.4326658844947815,
          -0.1107800155878067,
          -0.12148374319076538,
          0.2315090000629425,
          0.25187236070632935,
          0.027401028200984,
          -0.10044669359922409,
          0.14792685210704803,
          0.22938202321529388,
          -0.36707964539527893,
          -0.40506768226623535,
          -0.1751258820295334,
          0.19217321276664734,
          0.06296911835670471,
          -0.2917913496494293,
          -0.27545154094696045,
          0.4919242858886719,
          0.29973581433296204,
          -0.8547914028167725,
          -0.3565516173839569,
          -0.36899396777153015,
          1.4469232559204102,
          -0.9578698873519897,
          -0.35357919335365295,
          -0.2757212519645691,
          1.4040366411209106,
          -0.4262726604938507,
          -0.9730151295661926,
          -0.6361179351806641,
          0.4127923250198364,
          -0.3574357330799103,
          -2.1428704261779785,
          1.795880675315857,
          -1.0537539720535278,
          0.01865249313414097,
          0.13332760334014893,
          0.16002190113067627,
          -0.14272509515285492,
          -0.20336942374706268,
          -0.21144720911979675,
          0.5027890205383301,
          0.19221822917461395,
          0.0018321358365938067,
          -0.868254542350769,
          -1.0353076457977295,
          0.2168966382741928,
          0.8770431876182556,
          -0.24279925227165222,
          -0.3981504738330841,
          0.5850001573562622,
          0.16201525926589966,
          -0.1298198103904724,
          0.022914070636034012,
          0.29396575689315796,
          0.6624544262886047,
          -0.16445082426071167,
          -0.15936332941055298,
          -0.1033119335770607,
          0.8345747590065002,
          0.45287150144577026,
          -0.30734509229660034,
          -0.10729438811540604,
          0.44234904646873474,
          1.2429203987121582,
          0.6705004572868347,
          0.4805157482624054,
          -0.38061758875846863,
          0.29269149899482727,
          0.1248311921954155,
          -0.5414736270904541,
          0.4731035828590393,
          0.5551587343215942,
          -0.6576676368713379,
          -0.6149339079856873,
          -0.6557818055152893
        ]
      },
      "cellActivationHidden": {
        "rows": 20,
        "columns": 20,
        "weights": [
          -0.7929220795631409,
          -0.02937420830130577,
          -0.03426852822303772,
          0.13094763457775116,
          -0.41558638215065,
          0.3623506426811218,
          0.11263641715049744,
          -0.20839369297027588,
          0.2896749973297119,
          0.12410246580839157,
          -0.8033193349838257,
          0.9699521660804749,
          0.22069473564624786,
          0.30319005250930786,
          -0.7753568291664124,
          0.17521877586841583,
          -0.09368227422237396,
          -0.22982308268547058,
          0.44848403334617615,
          0.045139241963624954,
          1.002284049987793,
          -1.0885530710220337,
          0.29931390285491943,
          0.3210729956626892,
          -0.30739375948905945,
          0.024653324857354164,
          0.4331400692462921,
          -0.6238606572151184,
          -0.5341023802757263,
          -0.4838044047355652,
          0.5715974569320679,
          0.11120899021625519,
          -0.7072330117225647,
          -0.01951413042843342,
          0.4503311216831207,
          -0.17399492859840393,
          0.6647258400917053,
          -0.0813027024269104,
          0.23727044463157654,
          -0.059019871056079865,
          -0.6310034990310669,
          -0.540470540523529,
          0.21457001566886902,
          -0.35504165291786194,
          0.4415642023086548,
          0.06197749450802803,
          -0.06131511554121971,
          -0.14212757349014282,
          -0.08765294402837753,
          -0.037621088325977325,
          0.043219029903411865,
          0.009410069324076176,
          -0.21979361772537231,
          -0.11184899508953094,
          0.1357419192790985,
          -1.3872088193893433,
          -0.21068190038204193,
          -0.09255732595920563,
          0.3475900888442993,
          -0.3525412082672119,
          -0.784837543964386,
          -0.15707069635391235,
          0.2907692790031433,
          -0.13216589391231537,
          0.1727668195962906,
          -0.0675707757472992,
          -0.5707550644874573,
          0.3879745304584503,
          -0.08116208016872406,
          -0.47043463587760925,
          -0.3365279734134674,
          -0.36175408959388733,
          -0.1464359164237976,
          -0.15234744548797607,
          -0.29851233959198,
          0.10233867913484573,
          0.244039386510849,
          -0.14068865776062012,
          -0.24480882287025452,
          -0.11123795807361603,
          0.4186718761920929,
          0.24634143710136414,
          -0.09874521940946579,
          0.05510349199175835,
          0.7583029866218567,
          0.39767351746559143,
          0.7210428714752197,
          0.00415861327201128,
          0.30661457777023315,
          0.23041309416294098,
          -0.33978772163391113,
          -0.15010464191436768,
          -0.14449740946292877,
          -0.5635731816291809,
          0.32476601004600525,
          -0.19381415843963623,
          0.1658177673816681,
          -0.1012343317270279,
          -0.32824698090553284,
          -0.10428396612405777,
          0.736773669719696,
          0.21865752339363098,
          0.05116862431168556,
          -0.05148589611053467,
          -0.19313828647136688,
          0.42381325364112854,
          0.11461375653743744,
          -0.046570051461458206,
          -0.05425981804728508,
          -0.1258045881986618,
          -0.37747523188591003,
          0.0904359221458435,
          -0.16872717440128326,
          -0.09776166081428528,
          -0.3496358394622803,
          0.48548027873039246,
          0.17381605505943298,
          -0.06751488894224167,
          0.17754872143268585,
          0.1840069741010666,
          0.16458028554916382,
          -0.19479940831661224,
          -0.0420646034181118,
          0.4412079155445099,
          -0.2548622786998749,
          0.5121051073074341,
          0.37011104822158813,
          -0.5855796933174133,
          0.21383173763751984,
          0.07595901191234589,
          0.030852263793349266,
          0.4813891351222992,
          0.9868844151496887,
          -0.08541656285524368,
          0.39548206329345703,
          0.0052656629122793674,
          0.1880715936422348,
          0.5866783261299133,
          0.08088871836662292,
          0.3658715784549713,
          -0.1690230667591095,
          -0.7060723304748535,
          -0.03332865610718727,
          -0.4026752710342407,
          -0.040148746222257614,
          0.4182661473751068,
          -0.13369645178318024,
          -0.45495474338531494,
          -0.5475941896438599,
          -0.4477583169937134,
          -0.4294656217098236,
          -0.04985341429710388,
          0.3748379051685333,
          0.2594796121120453,
          -0.3815106451511383,
          0.5533674955368042,
          -0.02027757465839386,
          0.7179857492446899,
          0.7463182210922241,
          0.06759265810251236,
          0.27678948640823364,
          -0.18481405079364777,
          0.46778157353401184,
          0.22587703168392181,
          0.08534561842679977,
          -0.22986751794815063,
          -0.3255440890789032,
          0.07137063145637512,
          0.9885501861572266,
          0.4227553904056549,
          -0.36570295691490173,
          -0.39658719301223755,
          -0.29556795954704285,
          -0.060234591364860535,
          -0.4442015588283539,
          -0.13144060969352722,
          -0.15278448164463043,
          -0.5135546326637268,
          -0.2659023702144623,
          0.04872254654765129,
          -0.9021296501159668,
          0.11517112702131271,
          -0.41933131217956543,
          -0.733529806137085,
          0.09306811541318893,
          -1.3955460786819458,
          0.2697329819202423,
          -0.6342215538024902,
          0.29452571272850037,
          0.021601969376206398,
          -0.8514094948768616,
          -0.08898069709539413,
          -0.10111206769943237,
          -0.014211286790668964,
          0.263548880815506,
          -0.09598281234502792,
          0.48084887862205505,
          0.4938819408416748,
          0.23763896524906158,
          -0.32102516293525696,
          0.1439637690782547,
          0.036322906613349915,
          0.25907063484191895,
          -0.06454039365053177,
          -0.15732666850090027,
          -0.5957828164100647,
          -0.2989106774330139,
          0.16190224885940552,
          0.20899538695812225,
          0.475490540266037,
          0.5816561579704285,
          -0.08057282119989395,
          -0.07167734950780869,
          -0.1402221918106079,
          -0.41610243916511536,
          0.12444040179252625,
          0.07210042327642441,
          0.07600952684879303,
          -0.6054666638374329,
          -0.2910509407520294,
          -0.5706234574317932,
          -0.4976535439491272,
          -0.7512880563735962,
          -0.340101420879364,
          -0.1957475244998932,
          0.7839775681495667,
          -0.13283976912498474,
          -1.6272215843200684,
          -0.16929075121879578,
          -0.5414575934410095,
          0.6256842613220215,
          -0.06974145770072937,
          0.13859029114246368,
          0.003917059861123562,
          0.6159451603889465,
          0.5938345789909363,
          -0.15185528993606567,
          -0.15856103599071503,
          -1.2614953517913818,
          0.26812994480133057,
          -0.7272209525108337,
          -0.0024547430220991373,
          -0.9488546848297119,
          0.11384393274784088,
          0.017989054322242737,
          -0.11801328510046005,
          -0.11463965475559235,
          0.5205956101417542,
          -0.00950201041996479,
          -0.2276652306318283,
          0.0883568525314331,
          0.5112850069999695,
          -0.17301280796527863,
          -0.008334646001458168,
          0.9600468873977661,
          0.16526156663894653,
          0.28812259435653687,
          -0.3346473276615143,
          0.18214081227779388,
          0.3597084581851959,
          0.0668405145406723,
          -0.24091710150241852,
          -0.1802227795124054,
          0.7404552102088928,
          0.999337375164032,
          0.9932254552841187,
          -0.6379791498184204,
          0.3630323112010956,
          -0.5302444696426392,
          -0.4782530963420868,
          0.23041218519210815,
          -0.33642277121543884,
          -0.4483422636985779,
          0.025120355188846588,
          0.22251974046230316,
          -0.704736053943634,
          -0.9202406406402588,
          -0.017119498923420906,
          1.0871052742004395,
          -1.1990892887115479,
          -0.1063198521733284,
          -0.28671154379844666,
          0.4209842085838318,
          -0.6161029934883118,
          -0.19698557257652283,
          -1.1517175436019897,
          -0.2064816802740097,
          -0.1838206946849823,
          -0.09837061166763306,
          -0.09692765772342682,
          0.37039318680763245,
          0.1350318044424057,
          0.10920486599206924,
          -0.13644008338451385,
          0.3844107687473297,
          0.1796926110982895,
          0.4472755491733551,
          -0.10403011739253998,
          -0.697986364364624,
          0.8123531937599182,
          -0.41398435831069946,
          -0.39782142639160156,
          -0.5359589457511902,
          -0.03998089209198952,
          0.19728930294513702,
          -0.9552880525588989,
          -0.6886258125305176,
          0.3413988947868347,
          0.013731420040130615,
          -0.382185161113739,
          0.24722416698932648,
          -0.2055346518754959,
          -0.11497410386800766,
          -0.611298143863678,
          0.3777106702327728,
          -0.32308152318000793,
          0.8011322021484375,
          0.05106431245803833,
          0.09859704971313477,
          -0.10238690674304962,
          0.5710113048553467,
          -0.03719213977456093,
          0.03467870503664017,
          -0.691801905632019,
          -0.660201907157898,
          -0.2317315638065338,
          -0.024084381759166718,
          -0.2669520378112793,
          0.134401336312294,
          -0.1460796743631363,
          0.0012185325613245368,
          0.3052162826061249,
          -0.1830461174249649,
          -0.2661421298980713,
          0.41701993346214294,
          -0.10310589522123337,
          0.7876195311546326,
          0.11403810232877731,
          -0.1250944435596466,
          0.2964664697647095,
          -0.048823270946741104,
          0.08514349162578583,
          0.6879518032073975,
          0.863341212272644,
          0.013138116337358952,
          -0.7977204918861389,
          0.22588229179382324,
          0.040913619101047516,
          0.5453494787216187,
          -0.5342506766319275,
          0.38893991708755493,
          -0.039307914674282074,
          -0.43050074577331543,
          -0.08055665343999863,
          0.23475919663906097,
          0.3277187943458557,
          0.1588597297668457,
          -0.230653777718544,
          -0.05880538374185562,
          -0.38543087244033813,
          -0.8625439405441284,
          0.11343085765838623,
          0.10658448189496994,
          0.8747252821922302,
          0.23435093462467194,
          -0.19687114655971527,
          -0.25826266407966614,
          -0.1122441217303276,
          0.3700634241104126,
          0.350806325674057,
          0.5053371787071228,
          0.2603806257247925,
          0.14074622094631195,
          -0.2924959063529968,
          0.11360984295606613,
          0.03238409012556076,
          -0.19073167443275452,
          0.845354437828064,
          -0.18795721232891083,
          -0.05290669575333595,
          -0.42778709530830383,
          0.3751617968082428,
          0.16223707795143127,
          -0.04440227895975113,
          -0.2979348599910736,
          -1.443772554397583,
          -0.623723566532135,
          -0.1681578904390335,
          0.269184410572052,
          0.12647515535354614,
          0.11922706663608551,
          0.6657790541648865,
          0.05403485149145126,
          0.43476271629333496,
          -0.4531363546848297,
          0.21787713468074799,
          -0.051791779696941376,
          0.10764824599027634,
          -0.49851834774017334,
          0.054719727486371994
        ]
      },
      "cellActivationBias": {
        "rows": 20,
        "columns": 1,
        "weights": [
          -0.21504390239715576,
          -0.24178656935691833,
          0.0990440845489502,
          -0.14188922941684723,
          -0.3175220489501953,
          -0.12973500788211823,
          -0.39491939544677734,
          -0.34394413232803345,
          0.12553155422210693,
          0.8444886803627014,
          0.13015855848789215,
          0.14739932119846344,
          0.20399543642997742,
          1.9127049446105957,
          0.023290548473596573,
          0.4767075777053833,
          -0.23140142858028412,
          1.3689650297164917,
          -0.38535255193710327,
          0.10120617598295212
        ]
      }
    }
  ],
  "outputConnector": {
    "rows": 28,
    "columns": 20,
    "weights": [
      1.9336981773376465,
      2.087156057357788,
      -2.6798813343048096,
      -1.1902724504470825,
      -0.07619133591651917,
      3.5883266925811768,
      2.088247060775757,
      6.890360355377197,
      -2.631100654602051,
      2.9326140880584717,
      -4.462936878204346,
      1.726654052734375,
      1.6881390810012817,
      4.252596855163574,
      -0.5135584473609924,
      0.8462874293327332,
      -3.468188524246216,
      -4.51560115814209,
      -0.988995373249054,
      0.40912729501724243,
      -0.719214141368866,
      0.23105643689632416,
      1.5842299461364746,
      0.35280680656433105,
      1.0401195287704468,
      0.6695613265037537,
      -0.8128679990768433,
      -0.8178296685218811,
      1.9287444353103638,
      -4.173776149749756,
      -2.6621837615966797,
      -0.6331870555877686,
      1.6818578243255615,
      -2.6114282608032227,
      1.6880528926849365,
      -0.2494606226682663,
      1.319792628288269,
      2.717717409133911,
      0.7504852414131165,
      -0.2883990705013275,
      -0.5932019948959351,
      0.9803596138954163,
      2.4374938011169434,
      -0.9996745586395264,
      -0.13486240804195404,
      -3.041074514389038,
      -0.9057740569114685,
      0.9613750576972961,
      -0.9598477482795715,
      0.7327854037284851,
      1.7662922143936157,
      0.6067701578140259,
      -1.2045882940292358,
      -0.2460450977087021,
      -0.22037145495414734,
      0.37680676579475403,
      -2.272416591644287,
      0.39580637216567993,
      -0.6143969893455505,
      -0.23033396899700165,
      2.4087603092193604,
      -1.5436162948608398,
      2.0403285026550293,
      1.614500641822815,
      -0.08030805736780167,
      1.0101768970489502,
      -0.2044232189655304,
      -1.4204126596450806,
      1.1766064167022705,
      3.506772518157959,
      0.4291544258594513,
      -0.599651038646698,
      0.16150037944316864,
      -1.7332143783569336,
      1.3988929986953735,
      -0.15250027179718018,
      -0.4467312693595886,
      -3.10835337638855,
      0.18308985233306885,
      -0.841244101524353,
      -2.3311150074005127,
      -1.5178637504577637,
      -0.8329953551292419,
      -0.10368017107248306,
      -0.4892221987247467,
      -2.2504260540008545,
      -2.191974401473999,
      -2.0452938079833984,
      -1.54891037940979,
      -1.329066514968872,
      1.469198226928711,
      -0.6521496772766113,
      -2.9562127590179443,
      -0.8755778074264526,
      0.9901342988014221,
      -1.0000417232513428,
      1.1724863052368164,
      -0.5362197160720825,
      -0.7923955321311951,
      -0.2105002999305725,
      0.9367496371269226,
      0.9658892750740051,
      1.9204760789871216,
      -0.2951543927192688,
      -1.1170343160629272,
      1.2163174152374268,
      -0.5409420132637024,
      -0.007296070456504822,
      -0.06855064630508423,
      1.0771057605743408,
      -3.1035666465759277,
      -0.13360752165317535,
      0.5350365042686462,
      0.9476839303970337,
      -3.5609474182128906,
      0.5113180875778198,
      -3.913348436355591,
      3.4221410751342773,
      -0.10073485970497131,
      0.2722027599811554,
      -2.088141918182373,
      1.001805305480957,
      -0.843603253364563,
      1.4423553943634033,
      0.7980790138244629,
      1.0260887145996094,
      0.9239192605018616,
      2.4546260833740234,
      0.7898497581481934,
      0.6937924027442932,
      0.68302321434021,
      -0.6446338891983032,
      0.2868081033229828,
      1.3673902750015259,
      -0.9475008249282837,
      0.25532886385917664,
      0.5277157425880432,
      1.9907952547073364,
      -1.1357680559158325,
      -1.7031952142715454,
      1.5669581890106201,
      -4.055915832519531,
      -1.2036852836608887,
      -2.0104405879974365,
      -1.3876906633377075,
      2.64143705368042,
      2.1990373134613037,
      -0.19912949204444885,
      -0.1839703768491745,
      -0.07277317345142365,
      -1.5985153913497925,
      1.9415947198867798,
      1.7137514352798462,
      -1.3860487937927246,
      1.190260410308838,
      1.2804850339889526,
      1.1650437116622925,
      -3.0175881385803223,
      -1.7829887866973877,
      0.6766786575317383,
      0.3510880172252655,
      3.9240353107452393,
      -0.2567119896411896,
      0.3460935354232788,
      -0.6598682999610901,
      -0.6365927457809448,
      -1.6449717283248901,
      -3.169294595718384,
      -0.03735813498497009,
      -2.1978676319122314,
      -2.1530022621154785,
      0.3513110876083374,
      0.7802683115005493,
      2.0437161922454834,
      -1.716568112373352,
      -1.014125108718872,
      0.3307195007801056,
      -0.5562551021575928,
      -0.18377387523651123,
      0.55315101146698,
      1.6340528726577759,
      -0.6697747707366943,
      1.4457021951675415,
      3.4512317180633545,
      -0.2556537091732025,
      2.324704885482788,
      1.3822920322418213,
      3.015359401702881,
      0.8204176425933838,
      -1.3337403535842896,
      -0.8897813558578491,
      0.344607949256897,
      -0.9745549559593201,
      0.9296296834945679,
      -0.07698338478803635,
      0.2728302776813507,
      1.2196327447891235,
      0.1125953271985054,
      1.1607987880706787,
      0.052752673625946045,
      2.099565029144287,
      -1.940231442451477,
      0.09508129209280014,
      -0.43148162961006165,
      1.0574723482131958,
      -2.578324556350708,
      0.2420961707830429,
      1.9434255361557007,
      -0.7685162425041199,
      -3.323660373687744,
      2.651901960372925,
      -0.7978368401527405,
      0.6587953567504883,
      1.3110697269439697,
      1.2647602558135986,
      0.5477203726768494,
      -0.20023655891418457,
      -1.404038906097412,
      2.1706788539886475,
      -0.3134182095527649,
      -1.3916763067245483,
      2.08734393119812,
      1.2712501287460327,
      1.4573121070861816,
      0.25853824615478516,
      1.6289825439453125,
      -0.9995663166046143,
      -2.507459878921509,
      -0.24491624534130096,
      2.6456565856933594,
      1.0647883415222168,
      -0.5290109515190125,
      -0.3918610215187073,
      2.521838903427124,
      0.25991252064704895,
      -0.5078310370445251,
      1.5963186025619507,
      -4.036776065826416,
      0.7458359003067017,
      -0.34806299209594727,
      1.1287864446640015,
      0.7397206425666809,
      1.568651556968689,
      -1.2201052904129028,
      1.848878026008606,
      2.973917245864868,
      -0.08922019600868225,
      -1.0906596183776855,
      0.3943026065826416,
      0.34349295496940613,
      1.1196186542510986,
      -0.059277359396219254,
      -0.4751780331134796,
      0.2739119529724121,
      -4.142439365386963,
      -0.9369858503341675,
      -1.9224213361740112,
      -1.0886081457138062,
      0.42771032452583313,
      0.2981252372264862,
      -0.021450256928801537,
      0.30134838819503784,
      -0.8414715528488159,
      0.3581508696079254,
      1.9236783981323242,
      1.4700274467468262,
      0.40600156784057617,
      -1.7751716375350952,
      1.3853237628936768,
      0.4477664530277252,
      2.182244300842285,
      -0.5696412920951843,
      0.4443977177143097,
      0.6231654286384583,
      -0.8223065733909607,
      0.40761977434158325,
      -4.613646984100342,
      2.7441482543945312,
      0.8122919797897339,
      -0.06278016418218613,
      1.841399908065796,
      0.23277676105499268,
      -1.7526735067367554,
      -1.164677619934082,
      -2.51285982131958,
      -3.5678954124450684,
      -1.1136038303375244,
      3.836272954940796,
      0.4586634039878845,
      1.8854568004608154,
      1.0175578594207764,
      -0.2663061022758484,
      -0.22468248009681702,
      -1.0350685119628906,
      -0.3441765606403351,
      1.0446466207504272,
      1.1328524351119995,
      -0.12066323310136795,
      -1.1943250894546509,
      1.513715147972107,
      -1.6337175369262695,
      -1.0778652429580688,
      -0.09418363124132156,
      0.23596540093421936,
      0.5080109238624573,
      3.9107539653778076,
      -0.7410157918930054,
      4.2638444900512695,
      -0.5319339632987976,
      3.2140040397644043,
      1.0324925184249878,
      -1.390899896621704,
      -0.3140524625778198,
      0.7576966881752014,
      -0.2643280625343323,
      -0.16212663054466248,
      1.4263715744018555,
      -0.6781837344169617,
      0.5154528021812439,
      0.27351564168930054,
      0.10308247059583664,
      1.5195364952087402,
      -1.1137313842773438,
      0.3837251365184784,
      -0.6125483512878418,
      4.272472858428955,
      1.780084252357483,
      -2.671135187149048,
      -0.20303975045681,
      -1.5588723421096802,
      2.692427396774292,
      0.9365989565849304,
      -1.0745806694030762,
      -2.621927499771118,
      1.2950972318649292,
      0.6896981000900269,
      -1.7695051431655884,
      -0.8479231595993042,
      0.16179677844047546,
      0.11513353884220123,
      -1.9009432792663574,
      0.3019562363624573,
      0.5453879833221436,
      -1.267392873764038,
      0.9734367728233337,
      -0.6533818244934082,
      -0.6265363693237305,
      1.7023853063583374,
      0.46237027645111084,
      1.5073755979537964,
      -1.9256528615951538,
      0.332116037607193,
      -2.6847033500671387,
      -0.08867014199495316,
      1.1034170389175415,
      0.3102867901325226,
      -0.18149146437644958,
      1.9355274438858032,
      0.8830152750015259,
      0.7332082390785217,
      -0.15621383488178253,
      -0.15020567178726196,
      -0.36758387088775635,
      -0.5214328169822693,
      1.0588483810424805,
      -1.3961820602416992,
      0.22840441763401031,
      -0.9046224355697632,
      0.9218295216560364,
      0.01985945552587509,
      0.8997530937194824,
      -0.2414325326681137,
      -0.135126993060112,
      1.3850382566452026,
      1.2402019500732422,
      -1.3407628536224365,
      -1.5319061279296875,
      2.341217041015625,
      -0.3788076341152191,
      -1.1964315176010132,
      -1.1791199445724487,
      -1.11130952835083,
      -2.133841037750244,
      0.31421801447868347,
      -0.4206775724887848,
      -2.7091503143310547,
      1.937985897064209,
      -1.4744675159454346,
      1.1596417427062988,
      -0.06227295473217964,
      0.4330131411552429,
      0.5464621782302856,
      -0.5224562287330627,
      -1.1101144552230835,
      -5.221308708190918,
      -0.4231695830821991,
      0.42981991171836853,
      -1.505867600440979,
      0.32525113224983215,
      0.6671267151832581,
      -2.1392760276794434,
      -0.7460116147994995,
      1.350616455078125,
      2.2474966049194336,
      -0.5562026500701904,
      1.8935739994049072,
      0.5014729499816895,
      1.3764132261276245,
      -0.8074622750282288,
      0.32986029982566833,
      -0.32697415351867676,
      -1.1277079582214355,
      0.259115993976593,
      0.16891402006149292,
      -2.401296854019165,
      0.29533836245536804,
      0.7802380323410034,
      0.778850793838501,
      1.4376869201660156,
      0.13997311890125275,
      -0.15944087505340576,
      0.7849353551864624,
      -0.6297977566719055,
      1.1768887042999268,
      0.04021197184920311,
      -1.2139716148376465,
      -0.021396931260824203,
      3.985919713973999,
      -2.000779151916504,
      -0.3388156592845917,
      0.5877134799957275,
      -0.013217106461524963,
      0.36601027846336365,
      1.7248940467834473,
      -0.4136058986186981,
      0.02254367806017399,
      -3.1766014099121094,
      1.2826740741729736,
      -0.7903691530227661,
      -0.852370023727417,
      0.09087154269218445,
      0.7484479546546936,
      1.3010085821151733,
      0.5211931467056274,
      1.255658507347107,
      -0.41566967964172363,
      -1.2880922555923462,
      3.0841283798217773,
      0.31518441438674927,
      0.27801695466041565,
      -1.8732978105545044,
      0.02684415690600872,
      -0.04198293760418892,
      0.7254194021224976,
      -1.2803117036819458,
      -1.1703522205352783,
      0.3455386459827423,
      1.3935469388961792,
      -0.04775712266564369,
      -0.5159552097320557,
      0.5892961621284485,
      0.9143774509429932,
      0.8749271035194397,
      0.38541924953460693,
      -0.6266345381736755,
      -0.42802929878234863,
      -0.9965506792068481,
      1.9511898756027222,
      -0.6374253034591675,
      -1.094512939453125,
      -0.2950846254825592,
      -1.0076693296432495,
      -1.8424701690673828,
      0.5575791001319885,
      -0.6470098495483398,
      0.2010098099708557,
      -1.5249227285385132,
      -0.7971794009208679,
      2.2011430263519287,
      0.12430628389120102,
      0.14962930977344513,
      -0.23471710085868835,
      2.4906744956970215,
      0.11102261394262314,
      -0.8144237399101257,
      0.39778298139572144,
      -1.0662317276000977,
      1.172357201576233,
      -1.0650604963302612,
      0.6627431511878967,
      0.2827048897743225,
      -1.9069240093231201,
      -0.2296755164861679,
      -0.11016515642404556,
      0.14509303867816925,
      -1.4414843320846558,
      -0.7804454565048218,
      1.6123298406600952,
      0.6002267599105835,
      -0.07438091933727264,
      -2.3089210987091064,
      0.772255003452301,
      1.2986845970153809,
      1.2106950283050537,
      1.5700695514678955,
      -0.31110283732414246,
      -0.9706441760063171,
      0.7647377252578735,
      -0.44024714827537537,
      0.5371960401535034,
      0.12875154614448547,
      0.13081079721450806,
      0.43056201934814453,
      -0.7095150351524353,
      -1.232019305229187,
      -1.825260043144226,
      -2.261819362640381,
      -0.5259976983070374,
      -0.9756214618682861,
      0.0617663748562336,
      -0.5913500189781189,
      -2.138505220413208,
      -1.5699456930160522,
      0.367600679397583,
      -1.562240719795227,
      1.6845251321792603,
      -2.1878812313079834,
      0.20109881460666656,
      0.022808963432908058,
      1.6144132614135742,
      -1.4832080602645874,
      1.0633043050765991,
      -1.0178306102752686,
      -1.9813913106918335,
      1.6529819965362549,
      0.3968289792537689,
      1.1949197053909302,
      1.5382612943649292,
      0.4203494191169739,
      1.5178450345993042,
      0.30741071701049805,
      0.7914600372314453,
      1.0395432710647583,
      1.8752808570861816,
      1.9772439002990723,
      -0.0772012323141098,
      -0.5926570296287537,
      1.2054375410079956,
      -0.8627182245254517,
      -0.8971390128135681,
      -0.32715368270874023,
      -1.5940731763839722,
      -2.253058910369873,
      -0.7314823269844055,
      -0.23328527808189392,
      -2.5524635314941406,
      -1.1918307542800903,
      -0.28372037410736084,
      1.3599872589111328,
      -3.0992157459259033
    ]
  },
  "output": {
    "rows": 28,
    "columns": 1,
    "weights": [
      -10.130674362182617,
      0.00168595218565315,
      -0.10143212229013443,
      -1.2899583578109741,
      -1.1074100732803345,
      0.4166565239429474,
      0.4487493932247162,
      -12.758974075317383,
      -0.40009233355522156,
      -0.36519762873649597,
      -0.9369996786117554,
      0.3045155107975006,
      0.38521069288253784,
      -0.27532076835632324,
      -9.798189163208008,
      -0.9106512665748596,
      -6.1830902099609375,
      0.16672223806381226,
      -0.5476181507110596,
      -2.4466962814331055,
      -1.1454112529754639,
      0.8820858001708984,
      0.02480475977063179,
      -0.09721850603818893,
      -0.040830738842487335,
      -0.7191821932792664,
      -9.408550262451172,
      -2.7412185668945312
    ]
  }
}